{
  "version": "1.0",
  "truncation": null,
  "padding": null,
  "added_tokens": [
    {
      "id": 0,
      "content": "[PAD]",
      "single_word": false,
      "lstrip": false,
      "rstrip": false,
      "normalized": false,
      "special": true
    },
    {
      "id": 1,
      "content": "[UNK]",
      "single_word": false,
      "lstrip": false,
      "rstrip": false,
      "normalized": false,
      "special": true
    },
    {
      "id": 2,
      "content": "[CLS]",
      "single_word": false,
      "lstrip": false,
      "rstrip": false,
      "normalized": false,
      "special": true
    },
    {
      "id": 3,
      "content": "[SEP]",
      "single_word": false,
      "lstrip": false,
      "rstrip": false,
      "normalized": false,
      "special": true
    },
    {
      "id": 4,
      "content": "[MASK]",
      "single_word": false,
      "lstrip": false,
      "rstrip": false,
      "normalized": false,
      "special": true
    },
    {
      "id": 5,
      "content": "[BOS]",
      "single_word": false,
      "lstrip": false,
      "rstrip": false,
      "normalized": false,
      "special": true
    },
    {
      "id": 6,
      "content": "[EOS]",
      "single_word": false,
      "lstrip": false,
      "rstrip": false,
      "normalized": false,
      "special": true
    },
    {
      "id": 7,
      "content": "[EBITDA]",
      "single_word": false,
      "lstrip": false,
      "rstrip": false,
      "normalized": false,
      "special": true
    },
    {
      "id": 8,
      "content": "[EBIT]",
      "single_word": false,
      "lstrip": false,
      "rstrip": false,
      "normalized": false,
      "special": true
    },
    {
      "id": 9,
      "content": "[ROI]",
      "single_word": false,
      "lstrip": false,
      "rstrip": false,
      "normalized": false,
      "special": true
    },
    {
      "id": 10,
      "content": "[ROE]",
      "single_word": false,
      "lstrip": false,
      "rstrip": false,
      "normalized": false,
      "special": true
    },
    {
      "id": 11,
      "content": "[ROA]",
      "single_word": false,
      "lstrip": false,
      "rstrip": false,
      "normalized": false,
      "special": true
    },
    {
      "id": 12,
      "content": "[ROIC]",
      "single_word": false,
      "lstrip": false,
      "rstrip": false,
      "normalized": false,
      "special": true
    },
    {
      "id": 13,
      "content": "[WACC]",
      "single_word": false,
      "lstrip": false,
      "rstrip": false,
      "normalized": false,
      "special": true
    },
    {
      "id": 14,
      "content": "[DCF]",
      "single_word": false,
      "lstrip": false,
      "rstrip": false,
      "normalized": false,
      "special": true
    },
    {
      "id": 15,
      "content": "[NPV]",
      "single_word": false,
      "lstrip": false,
      "rstrip": false,
      "normalized": false,
      "special": true
    },
    {
      "id": 16,
      "content": "[IRR]",
      "single_word": false,
      "lstrip": false,
      "rstrip": false,
      "normalized": false,
      "special": true
    },
    {
      "id": 17,
      "content": "[P/E]",
      "single_word": false,
      "lstrip": false,
      "rstrip": false,
      "normalized": false,
      "special": true
    },
    {
      "id": 18,
      "content": "[EPS]",
      "single_word": false,
      "lstrip": false,
      "rstrip": false,
      "normalized": false,
      "special": true
    },
    {
      "id": 19,
      "content": "[P/B]",
      "single_word": false,
      "lstrip": false,
      "rstrip": false,
      "normalized": false,
      "special": true
    },
    {
      "id": 20,
      "content": "[P/S]",
      "single_word": false,
      "lstrip": false,
      "rstrip": false,
      "normalized": false,
      "special": true
    },
    {
      "id": 21,
      "content": "[CAGR]",
      "single_word": false,
      "lstrip": false,
      "rstrip": false,
      "normalized": false,
      "special": true
    },
    {
      "id": 22,
      "content": "[YoY]",
      "single_word": false,
      "lstrip": false,
      "rstrip": false,
      "normalized": false,
      "special": true
    },
    {
      "id": 23,
      "content": "[QoQ]",
      "single_word": false,
      "lstrip": false,
      "rstrip": false,
      "normalized": false,
      "special": true
    },
    {
      "id": 24,
      "content": "[MoM]",
      "single_word": false,
      "lstrip": false,
      "rstrip": false,
      "normalized": false,
      "special": true
    },
    {
      "id": 25,
      "content": "[TTM]",
      "single_word": false,
      "lstrip": false,
      "rstrip": false,
      "normalized": false,
      "special": true
    },
    {
      "id": 26,
      "content": "[LTM]",
      "single_word": false,
      "lstrip": false,
      "rstrip": false,
      "normalized": false,
      "special": true
    },
    {
      "id": 27,
      "content": "[10-K]",
      "single_word": false,
      "lstrip": false,
      "rstrip": false,
      "normalized": false,
      "special": true
    },
    {
      "id": 28,
      "content": "[10-Q]",
      "single_word": false,
      "lstrip": false,
      "rstrip": false,
      "normalized": false,
      "special": true
    },
    {
      "id": 29,
      "content": "[8-K]",
      "single_word": false,
      "lstrip": false,
      "rstrip": false,
      "normalized": false,
      "special": true
    },
    {
      "id": 30,
      "content": "[S-1]",
      "single_word": false,
      "lstrip": false,
      "rstrip": false,
      "normalized": false,
      "special": true
    },
    {
      "id": 31,
      "content": "[DEF14A]",
      "single_word": false,
      "lstrip": false,
      "rstrip": false,
      "normalized": false,
      "special": true
    },
    {
      "id": 32,
      "content": "[13F]",
      "single_word": false,
      "lstrip": false,
      "rstrip": false,
      "normalized": false,
      "special": true
    },
    {
      "id": 33,
      "content": "[Form4]",
      "single_word": false,
      "lstrip": false,
      "rstrip": false,
      "normalized": false,
      "special": true
    },
    {
      "id": 34,
      "content": "[GDP]",
      "single_word": false,
      "lstrip": false,
      "rstrip": false,
      "normalized": false,
      "special": true
    },
    {
      "id": 35,
      "content": "[CPI]",
      "single_word": false,
      "lstrip": false,
      "rstrip": false,
      "normalized": false,
      "special": true
    },
    {
      "id": 36,
      "content": "[PPI]",
      "single_word": false,
      "lstrip": false,
      "rstrip": false,
      "normalized": false,
      "special": true
    },
    {
      "id": 37,
      "content": "[FOMC]",
      "single_word": false,
      "lstrip": false,
      "rstrip": false,
      "normalized": false,
      "special": true
    },
    {
      "id": 38,
      "content": "[Fed]",
      "single_word": false,
      "lstrip": false,
      "rstrip": false,
      "normalized": false,
      "special": true
    },
    {
      "id": 39,
      "content": "[SEC]",
      "single_word": false,
      "lstrip": false,
      "rstrip": false,
      "normalized": false,
      "special": true
    },
    {
      "id": 40,
      "content": "[GAAP]",
      "single_word": false,
      "lstrip": false,
      "rstrip": false,
      "normalized": false,
      "special": true
    },
    {
      "id": 41,
      "content": "[IFRS]",
      "single_word": false,
      "lstrip": false,
      "rstrip": false,
      "normalized": false,
      "special": true
    },
    {
      "id": 42,
      "content": "[amortization]",
      "single_word": false,
      "lstrip": false,
      "rstrip": false,
      "normalized": false,
      "special": true
    },
    {
      "id": 43,
      "content": "[depreciation]",
      "single_word": false,
      "lstrip": false,
      "rstrip": false,
      "normalized": false,
      "special": true
    },
    {
      "id": 44,
      "content": "[accrual]",
      "single_word": false,
      "lstrip": false,
      "rstrip": false,
      "normalized": false,
      "special": true
    },
    {
      "id": 45,
      "content": "[leverage]",
      "single_word": false,
      "lstrip": false,
      "rstrip": false,
      "normalized": false,
      "special": true
    },
    {
      "id": 46,
      "content": "[liquidity]",
      "single_word": false,
      "lstrip": false,
      "rstrip": false,
      "normalized": false,
      "special": true
    },
    {
      "id": 47,
      "content": "[covenant]",
      "single_word": false,
      "lstrip": false,
      "rstrip": false,
      "normalized": false,
      "special": true
    },
    {
      "id": 48,
      "content": "[derivative]",
      "single_word": false,
      "lstrip": false,
      "rstrip": false,
      "normalized": false,
      "special": true
    },
    {
      "id": 49,
      "content": "[hedging]",
      "single_word": false,
      "lstrip": false,
      "rstrip": false,
      "normalized": false,
      "special": true
    },
    {
      "id": 50,
      "content": "[arbitrage]",
      "single_word": false,
      "lstrip": false,
      "rstrip": false,
      "normalized": false,
      "special": true
    },
    {
      "id": 51,
      "content": "[volatility]",
      "single_word": false,
      "lstrip": false,
      "rstrip": false,
      "normalized": false,
      "special": true
    },
    {
      "id": 52,
      "content": "[bullish]",
      "single_word": false,
      "lstrip": false,
      "rstrip": false,
      "normalized": false,
      "special": true
    },
    {
      "id": 53,
      "content": "[bearish]",
      "single_word": false,
      "lstrip": false,
      "rstrip": false,
      "normalized": false,
      "special": true
    },
    {
      "id": 54,
      "content": "[dividend]",
      "single_word": false,
      "lstrip": false,
      "rstrip": false,
      "normalized": false,
      "special": true
    },
    {
      "id": 55,
      "content": "[equity]",
      "single_word": false,
      "lstrip": false,
      "rstrip": false,
      "normalized": false,
      "special": true
    },
    {
      "id": 56,
      "content": "[liability]",
      "single_word": false,
      "lstrip": false,
      "rstrip": false,
      "normalized": false,
      "special": true
    },
    {
      "id": 57,
      "content": "[SKU]",
      "single_word": false,
      "lstrip": false,
      "rstrip": false,
      "normalized": false,
      "special": true
    },
    {
      "id": 58,
      "content": "[UPC]",
      "single_word": false,
      "lstrip": false,
      "rstrip": false,
      "normalized": false,
      "special": true
    },
    {
      "id": 59,
      "content": "[ASIN]",
      "single_word": false,
      "lstrip": false,
      "rstrip": false,
      "normalized": false,
      "special": true
    },
    {
      "id": 60,
      "content": "[EAN]",
      "single_word": false,
      "lstrip": false,
      "rstrip": false,
      "normalized": false,
      "special": true
    },
    {
      "id": 61,
      "content": "[GTIN]",
      "single_word": false,
      "lstrip": false,
      "rstrip": false,
      "normalized": false,
      "special": true
    },
    {
      "id": 62,
      "content": "[ISBN]",
      "single_word": false,
      "lstrip": false,
      "rstrip": false,
      "normalized": false,
      "special": true
    },
    {
      "id": 63,
      "content": "[MPN]",
      "single_word": false,
      "lstrip": false,
      "rstrip": false,
      "normalized": false,
      "special": true
    },
    {
      "id": 64,
      "content": "[HDMI]",
      "single_word": false,
      "lstrip": false,
      "rstrip": false,
      "normalized": false,
      "special": true
    },
    {
      "id": 65,
      "content": "[USB-C]",
      "single_word": false,
      "lstrip": false,
      "rstrip": false,
      "normalized": false,
      "special": true
    },
    {
      "id": 66,
      "content": "[USB-A]",
      "single_word": false,
      "lstrip": false,
      "rstrip": false,
      "normalized": false,
      "special": true
    },
    {
      "id": 67,
      "content": "[Bluetooth]",
      "single_word": false,
      "lstrip": false,
      "rstrip": false,
      "normalized": false,
      "special": true
    },
    {
      "id": 68,
      "content": "[WiFi]",
      "single_word": false,
      "lstrip": false,
      "rstrip": false,
      "normalized": false,
      "special": true
    },
    {
      "id": 69,
      "content": "[NFC]",
      "single_word": false,
      "lstrip": false,
      "rstrip": false,
      "normalized": false,
      "special": true
    },
    {
      "id": 70,
      "content": "[RFID]",
      "single_word": false,
      "lstrip": false,
      "rstrip": false,
      "normalized": false,
      "special": true
    },
    {
      "id": 71,
      "content": "[polyester]",
      "single_word": false,
      "lstrip": false,
      "rstrip": false,
      "normalized": false,
      "special": true
    },
    {
      "id": 72,
      "content": "[cotton]",
      "single_word": false,
      "lstrip": false,
      "rstrip": false,
      "normalized": false,
      "special": true
    },
    {
      "id": 73,
      "content": "[nylon]",
      "single_word": false,
      "lstrip": false,
      "rstrip": false,
      "normalized": false,
      "special": true
    },
    {
      "id": 74,
      "content": "[spandex]",
      "single_word": false,
      "lstrip": false,
      "rstrip": false,
      "normalized": false,
      "special": true
    },
    {
      "id": 75,
      "content": "[viscose]",
      "single_word": false,
      "lstrip": false,
      "rstrip": false,
      "normalized": false,
      "special": true
    },
    {
      "id": 76,
      "content": "[rayon]",
      "single_word": false,
      "lstrip": false,
      "rstrip": false,
      "normalized": false,
      "special": true
    },
    {
      "id": 77,
      "content": "[waterproof]",
      "single_word": false,
      "lstrip": false,
      "rstrip": false,
      "normalized": false,
      "special": true
    },
    {
      "id": 78,
      "content": "[breathable]",
      "single_word": false,
      "lstrip": false,
      "rstrip": false,
      "normalized": false,
      "special": true
    },
    {
      "id": 79,
      "content": "[antimicrobial]",
      "single_word": false,
      "lstrip": false,
      "rstrip": false,
      "normalized": false,
      "special": true
    },
    {
      "id": 80,
      "content": "[hypoallergenic]",
      "single_word": false,
      "lstrip": false,
      "rstrip": false,
      "normalized": false,
      "special": true
    },
    {
      "id": 81,
      "content": "[eco-friendly]",
      "single_word": false,
      "lstrip": false,
      "rstrip": false,
      "normalized": false,
      "special": true
    },
    {
      "id": 82,
      "content": "[sustainable]",
      "single_word": false,
      "lstrip": false,
      "rstrip": false,
      "normalized": false,
      "special": true
    },
    {
      "id": 83,
      "content": "[organic]",
      "single_word": false,
      "lstrip": false,
      "rstrip": false,
      "normalized": false,
      "special": true
    },
    {
      "id": 84,
      "content": "[vegan]",
      "single_word": false,
      "lstrip": false,
      "rstrip": false,
      "normalized": false,
      "special": true
    },
    {
      "id": 85,
      "content": "[cruelty-free]",
      "single_word": false,
      "lstrip": false,
      "rstrip": false,
      "normalized": false,
      "special": true
    },
    {
      "id": 86,
      "content": "[XS]",
      "single_word": false,
      "lstrip": false,
      "rstrip": false,
      "normalized": false,
      "special": true
    },
    {
      "id": 87,
      "content": "[XXL]",
      "single_word": false,
      "lstrip": false,
      "rstrip": false,
      "normalized": false,
      "special": true
    },
    {
      "id": 88,
      "content": "[XXXL]",
      "single_word": false,
      "lstrip": false,
      "rstrip": false,
      "normalized": false,
      "special": true
    },
    {
      "id": 89,
      "content": "[petite]",
      "single_word": false,
      "lstrip": false,
      "rstrip": false,
      "normalized": false,
      "special": true
    },
    {
      "id": 90,
      "content": "[plus-size]",
      "single_word": false,
      "lstrip": false,
      "rstrip": false,
      "normalized": false,
      "special": true
    },
    {
      "id": 91,
      "content": "[maternity]",
      "single_word": false,
      "lstrip": false,
      "rstrip": false,
      "normalized": false,
      "special": true
    },
    {
      "id": 92,
      "content": "[refurbished]",
      "single_word": false,
      "lstrip": false,
      "rstrip": false,
      "normalized": false,
      "special": true
    },
    {
      "id": 93,
      "content": "[pre-owned]",
      "single_word": false,
      "lstrip": false,
      "rstrip": false,
      "normalized": false,
      "special": true
    },
    {
      "id": 94,
      "content": "[open-box]",
      "single_word": false,
      "lstrip": false,
      "rstrip": false,
      "normalized": false,
      "special": true
    },
    {
      "id": 95,
      "content": "[clearance]",
      "single_word": false,
      "lstrip": false,
      "rstrip": false,
      "normalized": false,
      "special": true
    },
    {
      "id": 96,
      "content": "[bestseller]",
      "single_word": false,
      "lstrip": false,
      "rstrip": false,
      "normalized": false,
      "special": true
    },
    {
      "id": 97,
      "content": "[new-arrival]",
      "single_word": false,
      "lstrip": false,
      "rstrip": false,
      "normalized": false,
      "special": true
    },
    {
      "id": 98,
      "content": "[limited-edition]",
      "single_word": false,
      "lstrip": false,
      "rstrip": false,
      "normalized": false,
      "special": true
    },
    {
      "id": 99,
      "content": "[exclusive]",
      "single_word": false,
      "lstrip": false,
      "rstrip": false,
      "normalized": false,
      "special": true
    },
    {
      "id": 100,
      "content": "[ISSN]",
      "single_word": false,
      "lstrip": false,
      "rstrip": false,
      "normalized": false,
      "special": true
    },
    {
      "id": 101,
      "content": "[JAN]",
      "single_word": false,
      "lstrip": false,
      "rstrip": false,
      "normalized": false,
      "special": true
    },
    {
      "id": 102,
      "content": "[PLU]",
      "single_word": false,
      "lstrip": false,
      "rstrip": false,
      "normalized": false,
      "special": true
    },
    {
      "id": 103,
      "content": "[QR-Code]",
      "single_word": false,
      "lstrip": false,
      "rstrip": false,
      "normalized": false,
      "special": true
    },
    {
      "id": 104,
      "content": "[Barcode]",
      "single_word": false,
      "lstrip": false,
      "rstrip": false,
      "normalized": false,
      "special": true
    },
    {
      "id": 105,
      "content": "[Model-No]",
      "single_word": false,
      "lstrip": false,
      "rstrip": false,
      "normalized": false,
      "special": true
    },
    {
      "id": 106,
      "content": "[Serial-No]",
      "single_word": false,
      "lstrip": false,
      "rstrip": false,
      "normalized": false,
      "special": true
    },
    {
      "id": 107,
      "content": "[Batch-No]",
      "single_word": false,
      "lstrip": false,
      "rstrip": false,
      "normalized": false,
      "special": true
    },
    {
      "id": 108,
      "content": "[Micro-USB]",
      "single_word": false,
      "lstrip": false,
      "rstrip": false,
      "normalized": false,
      "special": true
    },
    {
      "id": 109,
      "content": "[Mini-USB]",
      "single_word": false,
      "lstrip": false,
      "rstrip": false,
      "normalized": false,
      "special": true
    },
    {
      "id": 110,
      "content": "[Lightning]",
      "single_word": false,
      "lstrip": false,
      "rstrip": false,
      "normalized": false,
      "special": true
    },
    {
      "id": 111,
      "content": "[Thunderbolt]",
      "single_word": false,
      "lstrip": false,
      "rstrip": false,
      "normalized": false,
      "special": true
    },
    {
      "id": 112,
      "content": "[DisplayPort]",
      "single_word": false,
      "lstrip": false,
      "rstrip": false,
      "normalized": false,
      "special": true
    },
    {
      "id": 113,
      "content": "[VGA]",
      "single_word": false,
      "lstrip": false,
      "rstrip": false,
      "normalized": false,
      "special": true
    },
    {
      "id": 114,
      "content": "[DVI]",
      "single_word": false,
      "lstrip": false,
      "rstrip": false,
      "normalized": false,
      "special": true
    },
    {
      "id": 115,
      "content": "[Ethernet]",
      "single_word": false,
      "lstrip": false,
      "rstrip": false,
      "normalized": false,
      "special": true
    },
    {
      "id": 116,
      "content": "[RJ45]",
      "single_word": false,
      "lstrip": false,
      "rstrip": false,
      "normalized": false,
      "special": true
    },
    {
      "id": 117,
      "content": "[Aux]",
      "single_word": false,
      "lstrip": false,
      "rstrip": false,
      "normalized": false,
      "special": true
    },
    {
      "id": 118,
      "content": "[Jack]",
      "single_word": false,
      "lstrip": false,
      "rstrip": false,
      "normalized": false,
      "special": true
    },
    {
      "id": 119,
      "content": "[GPS]",
      "single_word": false,
      "lstrip": false,
      "rstrip": false,
      "normalized": false,
      "special": true
    },
    {
      "id": 120,
      "content": "[LTE]",
      "single_word": false,
      "lstrip": false,
      "rstrip": false,
      "normalized": false,
      "special": true
    },
    {
      "id": 121,
      "content": "[5G]",
      "single_word": false,
      "lstrip": false,
      "rstrip": false,
      "normalized": false,
      "special": true
    },
    {
      "id": 122,
      "content": "[4G]",
      "single_word": false,
      "lstrip": false,
      "rstrip": false,
      "normalized": false,
      "special": true
    },
    {
      "id": 123,
      "content": "[3G]",
      "single_word": false,
      "lstrip": false,
      "rstrip": false,
      "normalized": false,
      "special": true
    },
    {
      "id": 124,
      "content": "[Zigbee]",
      "single_word": false,
      "lstrip": false,
      "rstrip": false,
      "normalized": false,
      "special": true
    },
    {
      "id": 125,
      "content": "[Z-Wave]",
      "single_word": false,
      "lstrip": false,
      "rstrip": false,
      "normalized": false,
      "special": true
    },
    {
      "id": 126,
      "content": "[LoRaWAN]",
      "single_word": false,
      "lstrip": false,
      "rstrip": false,
      "normalized": false,
      "special": true
    },
    {
      "id": 127,
      "content": "[Infrared]",
      "single_word": false,
      "lstrip": false,
      "rstrip": false,
      "normalized": false,
      "special": true
    },
    {
      "id": 128,
      "content": "[Qi-Charging]",
      "single_word": false,
      "lstrip": false,
      "rstrip": false,
      "normalized": false,
      "special": true
    },
    {
      "id": 129,
      "content": "[MagSafe]",
      "single_word": false,
      "lstrip": false,
      "rstrip": false,
      "normalized": false,
      "special": true
    },
    {
      "id": 130,
      "content": "[4K]",
      "single_word": false,
      "lstrip": false,
      "rstrip": false,
      "normalized": false,
      "special": true
    },
    {
      "id": 131,
      "content": "[8K]",
      "single_word": false,
      "lstrip": false,
      "rstrip": false,
      "normalized": false,
      "special": true
    },
    {
      "id": 132,
      "content": "[HD]",
      "single_word": false,
      "lstrip": false,
      "rstrip": false,
      "normalized": false,
      "special": true
    },
    {
      "id": 133,
      "content": "[FHD]",
      "single_word": false,
      "lstrip": false,
      "rstrip": false,
      "normalized": false,
      "special": true
    },
    {
      "id": 134,
      "content": "[QHD]",
      "single_word": false,
      "lstrip": false,
      "rstrip": false,
      "normalized": false,
      "special": true
    },
    {
      "id": 135,
      "content": "[UHD]",
      "single_word": false,
      "lstrip": false,
      "rstrip": false,
      "normalized": false,
      "special": true
    },
    {
      "id": 136,
      "content": "[HDR]",
      "single_word": false,
      "lstrip": false,
      "rstrip": false,
      "normalized": false,
      "special": true
    },
    {
      "id": 137,
      "content": "[HDR10]",
      "single_word": false,
      "lstrip": false,
      "rstrip": false,
      "normalized": false,
      "special": true
    },
    {
      "id": 138,
      "content": "[Dolby-Vision]",
      "single_word": false,
      "lstrip": false,
      "rstrip": false,
      "normalized": false,
      "special": true
    },
    {
      "id": 139,
      "content": "[OLED]",
      "single_word": false,
      "lstrip": false,
      "rstrip": false,
      "normalized": false,
      "special": true
    },
    {
      "id": 140,
      "content": "[QLED]",
      "single_word": false,
      "lstrip": false,
      "rstrip": false,
      "normalized": false,
      "special": true
    },
    {
      "id": 141,
      "content": "[AMOLED]",
      "single_word": false,
      "lstrip": false,
      "rstrip": false,
      "normalized": false,
      "special": true
    },
    {
      "id": 142,
      "content": "[IPS]",
      "single_word": false,
      "lstrip": false,
      "rstrip": false,
      "normalized": false,
      "special": true
    },
    {
      "id": 143,
      "content": "[LCD]",
      "single_word": false,
      "lstrip": false,
      "rstrip": false,
      "normalized": false,
      "special": true
    },
    {
      "id": 144,
      "content": "[LED]",
      "single_word": false,
      "lstrip": false,
      "rstrip": false,
      "normalized": false,
      "special": true
    },
    {
      "id": 145,
      "content": "[Micro-LED]",
      "single_word": false,
      "lstrip": false,
      "rstrip": false,
      "normalized": false,
      "special": true
    },
    {
      "id": 146,
      "content": "[Mini-LED]",
      "single_word": false,
      "lstrip": false,
      "rstrip": false,
      "normalized": false,
      "special": true
    },
    {
      "id": 147,
      "content": "[Retina]",
      "single_word": false,
      "lstrip": false,
      "rstrip": false,
      "normalized": false,
      "special": true
    },
    {
      "id": 148,
      "content": "[Gorilla-Glass]",
      "single_word": false,
      "lstrip": false,
      "rstrip": false,
      "normalized": false,
      "special": true
    },
    {
      "id": 149,
      "content": "[Anti-glare]",
      "single_word": false,
      "lstrip": false,
      "rstrip": false,
      "normalized": false,
      "special": true
    },
    {
      "id": 150,
      "content": "[Touchscreen]",
      "single_word": false,
      "lstrip": false,
      "rstrip": false,
      "normalized": false,
      "special": true
    },
    {
      "id": 151,
      "content": "[60Hz]",
      "single_word": false,
      "lstrip": false,
      "rstrip": false,
      "normalized": false,
      "special": true
    },
    {
      "id": 152,
      "content": "[90Hz]",
      "single_word": false,
      "lstrip": false,
      "rstrip": false,
      "normalized": false,
      "special": true
    },
    {
      "id": 153,
      "content": "[120Hz]",
      "single_word": false,
      "lstrip": false,
      "rstrip": false,
      "normalized": false,
      "special": true
    },
    {
      "id": 154,
      "content": "[144Hz]",
      "single_word": false,
      "lstrip": false,
      "rstrip": false,
      "normalized": false,
      "special": true
    },
    {
      "id": 155,
      "content": "[240Hz]",
      "single_word": false,
      "lstrip": false,
      "rstrip": false,
      "normalized": false,
      "special": true
    },
    {
      "id": 156,
      "content": "[360Hz]",
      "single_word": false,
      "lstrip": false,
      "rstrip": false,
      "normalized": false,
      "special": true
    },
    {
      "id": 157,
      "content": "[Dolby-Atmos]",
      "single_word": false,
      "lstrip": false,
      "rstrip": false,
      "normalized": false,
      "special": true
    },
    {
      "id": 158,
      "content": "[DTS]",
      "single_word": false,
      "lstrip": false,
      "rstrip": false,
      "normalized": false,
      "special": true
    },
    {
      "id": 159,
      "content": "[Hi-Res]",
      "single_word": false,
      "lstrip": false,
      "rstrip": false,
      "normalized": false,
      "special": true
    },
    {
      "id": 160,
      "content": "[Noise-Cancelling]",
      "single_word": false,
      "lstrip": false,
      "rstrip": false,
      "normalized": false,
      "special": true
    },
    {
      "id": 161,
      "content": "[ANC]",
      "single_word": false,
      "lstrip": false,
      "rstrip": false,
      "normalized": false,
      "special": true
    },
    {
      "id": 162,
      "content": "[Transparency-Mode]",
      "single_word": false,
      "lstrip": false,
      "rstrip": false,
      "normalized": false,
      "special": true
    },
    {
      "id": 163,
      "content": "[CPU]",
      "single_word": false,
      "lstrip": false,
      "rstrip": false,
      "normalized": false,
      "special": true
    },
    {
      "id": 164,
      "content": "[GPU]",
      "single_word": false,
      "lstrip": false,
      "rstrip": false,
      "normalized": false,
      "special": true
    },
    {
      "id": 165,
      "content": "[RAM]",
      "single_word": false,
      "lstrip": false,
      "rstrip": false,
      "normalized": false,
      "special": true
    },
    {
      "id": 166,
      "content": "[ROM]",
      "single_word": false,
      "lstrip": false,
      "rstrip": false,
      "normalized": false,
      "special": true
    },
    {
      "id": 167,
      "content": "[SSD]",
      "single_word": false,
      "lstrip": false,
      "rstrip": false,
      "normalized": false,
      "special": true
    },
    {
      "id": 168,
      "content": "[HDD]",
      "single_word": false,
      "lstrip": false,
      "rstrip": false,
      "normalized": false,
      "special": true
    },
    {
      "id": 169,
      "content": "[NVMe]",
      "single_word": false,
      "lstrip": false,
      "rstrip": false,
      "normalized": false,
      "special": true
    },
    {
      "id": 170,
      "content": "[SATA]",
      "single_word": false,
      "lstrip": false,
      "rstrip": false,
      "normalized": false,
      "special": true
    },
    {
      "id": 171,
      "content": "[PCIe]",
      "single_word": false,
      "lstrip": false,
      "rstrip": false,
      "normalized": false,
      "special": true
    },
    {
      "id": 172,
      "content": "[M.2]",
      "single_word": false,
      "lstrip": false,
      "rstrip": false,
      "normalized": false,
      "special": true
    },
    {
      "id": 173,
      "content": "[DDR3]",
      "single_word": false,
      "lstrip": false,
      "rstrip": false,
      "normalized": false,
      "special": true
    },
    {
      "id": 174,
      "content": "[DDR4]",
      "single_word": false,
      "lstrip": false,
      "rstrip": false,
      "normalized": false,
      "special": true
    },
    {
      "id": 175,
      "content": "[DDR5]",
      "single_word": false,
      "lstrip": false,
      "rstrip": false,
      "normalized": false,
      "special": true
    },
    {
      "id": 176,
      "content": "[LPDDR]",
      "single_word": false,
      "lstrip": false,
      "rstrip": false,
      "normalized": false,
      "special": true
    },
    {
      "id": 177,
      "content": "[GDDR]",
      "single_word": false,
      "lstrip": false,
      "rstrip": false,
      "normalized": false,
      "special": true
    },
    {
      "id": 178,
      "content": "[mAh]",
      "single_word": false,
      "lstrip": false,
      "rstrip": false,
      "normalized": false,
      "special": true
    },
    {
      "id": 179,
      "content": "[Wh]",
      "single_word": false,
      "lstrip": false,
      "rstrip": false,
      "normalized": false,
      "special": true
    },
    {
      "id": 180,
      "content": "[Li-Ion]",
      "single_word": false,
      "lstrip": false,
      "rstrip": false,
      "normalized": false,
      "special": true
    },
    {
      "id": 181,
      "content": "[Li-Po]",
      "single_word": false,
      "lstrip": false,
      "rstrip": false,
      "normalized": false,
      "special": true
    },
    {
      "id": 182,
      "content": "[Fast-Charge]",
      "single_word": false,
      "lstrip": false,
      "rstrip": false,
      "normalized": false,
      "special": true
    },
    {
      "id": 183,
      "content": "[Power-Delivery]",
      "single_word": false,
      "lstrip": false,
      "rstrip": false,
      "normalized": false,
      "special": true
    },
    {
      "id": 184,
      "content": "[GaN]",
      "single_word": false,
      "lstrip": false,
      "rstrip": false,
      "normalized": false,
      "special": true
    },
    {
      "id": 185,
      "content": "[IP67]",
      "single_word": false,
      "lstrip": false,
      "rstrip": false,
      "normalized": false,
      "special": true
    },
    {
      "id": 186,
      "content": "[IP68]",
      "single_word": false,
      "lstrip": false,
      "rstrip": false,
      "normalized": false,
      "special": true
    },
    {
      "id": 187,
      "content": "[Water-Resistant]",
      "single_word": false,
      "lstrip": false,
      "rstrip": false,
      "normalized": false,
      "special": true
    },
    {
      "id": 188,
      "content": "[Dust-Proof]",
      "single_word": false,
      "lstrip": false,
      "rstrip": false,
      "normalized": false,
      "special": true
    },
    {
      "id": 189,
      "content": "[Shock-Proof]",
      "single_word": false,
      "lstrip": false,
      "rstrip": false,
      "normalized": false,
      "special": true
    },
    {
      "id": 190,
      "content": "[Dual-SIM]",
      "single_word": false,
      "lstrip": false,
      "rstrip": false,
      "normalized": false,
      "special": true
    },
    {
      "id": 191,
      "content": "[eSIM]",
      "single_word": false,
      "lstrip": false,
      "rstrip": false,
      "normalized": false,
      "special": true
    },
    {
      "id": 192,
      "content": "[Unlocked]",
      "single_word": false,
      "lstrip": false,
      "rstrip": false,
      "normalized": false,
      "special": true
    },
    {
      "id": 193,
      "content": "[Jailbroken]",
      "single_word": false,
      "lstrip": false,
      "rstrip": false,
      "normalized": false,
      "special": true
    },
    {
      "id": 194,
      "content": "[Rooted]",
      "single_word": false,
      "lstrip": false,
      "rstrip": false,
      "normalized": false,
      "special": true
    },
    {
      "id": 195,
      "content": "[Windows]",
      "single_word": false,
      "lstrip": false,
      "rstrip": false,
      "normalized": false,
      "special": true
    },
    {
      "id": 196,
      "content": "[macOS]",
      "single_word": false,
      "lstrip": false,
      "rstrip": false,
      "normalized": false,
      "special": true
    },
    {
      "id": 197,
      "content": "[iOS]",
      "single_word": false,
      "lstrip": false,
      "rstrip": false,
      "normalized": false,
      "special": true
    },
    {
      "id": 198,
      "content": "[Android]",
      "single_word": false,
      "lstrip": false,
      "rstrip": false,
      "normalized": false,
      "special": true
    },
    {
      "id": 199,
      "content": "[Linux]",
      "single_word": false,
      "lstrip": false,
      "rstrip": false,
      "normalized": false,
      "special": true
    },
    {
      "id": 200,
      "content": "[ChromeOS]",
      "single_word": false,
      "lstrip": false,
      "rstrip": false,
      "normalized": false,
      "special": true
    },
    {
      "id": 201,
      "content": "[elastane]",
      "single_word": false,
      "lstrip": false,
      "rstrip": false,
      "normalized": false,
      "special": true
    },
    {
      "id": 202,
      "content": "[denim]",
      "single_word": false,
      "lstrip": false,
      "rstrip": false,
      "normalized": false,
      "special": true
    },
    {
      "id": 203,
      "content": "[leather]",
      "single_word": false,
      "lstrip": false,
      "rstrip": false,
      "normalized": false,
      "special": true
    },
    {
      "id": 204,
      "content": "[suede]",
      "single_word": false,
      "lstrip": false,
      "rstrip": false,
      "normalized": false,
      "special": true
    },
    {
      "id": 205,
      "content": "[silk]",
      "single_word": false,
      "lstrip": false,
      "rstrip": false,
      "normalized": false,
      "special": true
    },
    {
      "id": 206,
      "content": "[linen]",
      "single_word": false,
      "lstrip": false,
      "rstrip": false,
      "normalized": false,
      "special": true
    },
    {
      "id": 207,
      "content": "[cashmere]",
      "single_word": false,
      "lstrip": false,
      "rstrip": false,
      "normalized": false,
      "special": true
    },
    {
      "id": 208,
      "content": "[wool]",
      "single_word": false,
      "lstrip": false,
      "rstrip": false,
      "normalized": false,
      "special": true
    },
    {
      "id": 209,
      "content": "[merino]",
      "single_word": false,
      "lstrip": false,
      "rstrip": false,
      "normalized": false,
      "special": true
    },
    {
      "id": 210,
      "content": "[fleece]",
      "single_word": false,
      "lstrip": false,
      "rstrip": false,
      "normalized": false,
      "special": true
    },
    {
      "id": 211,
      "content": "[velvet]",
      "single_word": false,
      "lstrip": false,
      "rstrip": false,
      "normalized": false,
      "special": true
    },
    {
      "id": 212,
      "content": "[corduroy]",
      "single_word": false,
      "lstrip": false,
      "rstrip": false,
      "normalized": false,
      "special": true
    },
    {
      "id": 213,
      "content": "[flannel]",
      "single_word": false,
      "lstrip": false,
      "rstrip": false,
      "normalized": false,
      "special": true
    },
    {
      "id": 214,
      "content": "[chiffon]",
      "single_word": false,
      "lstrip": false,
      "rstrip": false,
      "normalized": false,
      "special": true
    },
    {
      "id": 215,
      "content": "[satin]",
      "single_word": false,
      "lstrip": false,
      "rstrip": false,
      "normalized": false,
      "special": true
    },
    {
      "id": 216,
      "content": "[lace]",
      "single_word": false,
      "lstrip": false,
      "rstrip": false,
      "normalized": false,
      "special": true
    },
    {
      "id": 217,
      "content": "[canvas]",
      "single_word": false,
      "lstrip": false,
      "rstrip": false,
      "normalized": false,
      "special": true
    },
    {
      "id": 218,
      "content": "[mesh]",
      "single_word": false,
      "lstrip": false,
      "rstrip": false,
      "normalized": false,
      "special": true
    },
    {
      "id": 219,
      "content": "[neoprene]",
      "single_word": false,
      "lstrip": false,
      "rstrip": false,
      "normalized": false,
      "special": true
    },
    {
      "id": 220,
      "content": "[microfiber]",
      "single_word": false,
      "lstrip": false,
      "rstrip": false,
      "normalized": false,
      "special": true
    },
    {
      "id": 221,
      "content": "[gore-tex]",
      "single_word": false,
      "lstrip": false,
      "rstrip": false,
      "normalized": false,
      "special": true
    },
    {
      "id": 222,
      "content": "[thermal]",
      "single_word": false,
      "lstrip": false,
      "rstrip": false,
      "normalized": false,
      "special": true
    },
    {
      "id": 223,
      "content": "[gold-plated]",
      "single_word": false,
      "lstrip": false,
      "rstrip": false,
      "normalized": false,
      "special": true
    },
    {
      "id": 224,
      "content": "[sterling-silver]",
      "single_word": false,
      "lstrip": false,
      "rstrip": false,
      "normalized": false,
      "special": true
    },
    {
      "id": 225,
      "content": "[stainless-steel]",
      "single_word": false,
      "lstrip": false,
      "rstrip": false,
      "normalized": false,
      "special": true
    },
    {
      "id": 226,
      "content": "[titanium]",
      "single_word": false,
      "lstrip": false,
      "rstrip": false,
      "normalized": false,
      "special": true
    },
    {
      "id": 227,
      "content": "[carbide]",
      "single_word": false,
      "lstrip": false,
      "rstrip": false,
      "normalized": false,
      "special": true
    },
    {
      "id": 228,
      "content": "[moisture-wicking]",
      "single_word": false,
      "lstrip": false,
      "rstrip": false,
      "normalized": false,
      "special": true
    },
    {
      "id": 229,
      "content": "[quick-dry]",
      "single_word": false,
      "lstrip": false,
      "rstrip": false,
      "normalized": false,
      "special": true
    },
    {
      "id": 230,
      "content": "[wrinkle-free]",
      "single_word": false,
      "lstrip": false,
      "rstrip": false,
      "normalized": false,
      "special": true
    },
    {
      "id": 231,
      "content": "[slim-fit]",
      "single_word": false,
      "lstrip": false,
      "rstrip": false,
      "normalized": false,
      "special": true
    },
    {
      "id": 232,
      "content": "[regular-fit]",
      "single_word": false,
      "lstrip": false,
      "rstrip": false,
      "normalized": false,
      "special": true
    },
    {
      "id": 233,
      "content": "[loose-fit]",
      "single_word": false,
      "lstrip": false,
      "rstrip": false,
      "normalized": false,
      "special": true
    },
    {
      "id": 234,
      "content": "[oversized]",
      "single_word": false,
      "lstrip": false,
      "rstrip": false,
      "normalized": false,
      "special": true
    },
    {
      "id": 235,
      "content": "[skinny]",
      "single_word": false,
      "lstrip": false,
      "rstrip": false,
      "normalized": false,
      "special": true
    },
    {
      "id": 236,
      "content": "[tapered]",
      "single_word": false,
      "lstrip": false,
      "rstrip": false,
      "normalized": false,
      "special": true
    },
    {
      "id": 237,
      "content": "[bootcut]",
      "single_word": false,
      "lstrip": false,
      "rstrip": false,
      "normalized": false,
      "special": true
    },
    {
      "id": 238,
      "content": "[straight-leg]",
      "single_word": false,
      "lstrip": false,
      "rstrip": false,
      "normalized": false,
      "special": true
    },
    {
      "id": 239,
      "content": "[high-rise]",
      "single_word": false,
      "lstrip": false,
      "rstrip": false,
      "normalized": false,
      "special": true
    },
    {
      "id": 240,
      "content": "[mid-rise]",
      "single_word": false,
      "lstrip": false,
      "rstrip": false,
      "normalized": false,
      "special": true
    },
    {
      "id": 241,
      "content": "[low-rise]",
      "single_word": false,
      "lstrip": false,
      "rstrip": false,
      "normalized": false,
      "special": true
    },
    {
      "id": 242,
      "content": "[v-neck]",
      "single_word": false,
      "lstrip": false,
      "rstrip": false,
      "normalized": false,
      "special": true
    },
    {
      "id": 243,
      "content": "[crew-neck]",
      "single_word": false,
      "lstrip": false,
      "rstrip": false,
      "normalized": false,
      "special": true
    },
    {
      "id": 244,
      "content": "[turtleneck]",
      "single_word": false,
      "lstrip": false,
      "rstrip": false,
      "normalized": false,
      "special": true
    },
    {
      "id": 245,
      "content": "[mock-neck]",
      "single_word": false,
      "lstrip": false,
      "rstrip": false,
      "normalized": false,
      "special": true
    },
    {
      "id": 246,
      "content": "[halter]",
      "single_word": false,
      "lstrip": false,
      "rstrip": false,
      "normalized": false,
      "special": true
    },
    {
      "id": 247,
      "content": "[strapless]",
      "single_word": false,
      "lstrip": false,
      "rstrip": false,
      "normalized": false,
      "special": true
    },
    {
      "id": 248,
      "content": "[long-sleeve]",
      "single_word": false,
      "lstrip": false,
      "rstrip": false,
      "normalized": false,
      "special": true
    },
    {
      "id": 249,
      "content": "[short-sleeve]",
      "single_word": false,
      "lstrip": false,
      "rstrip": false,
      "normalized": false,
      "special": true
    },
    {
      "id": 250,
      "content": "[sleeveless]",
      "single_word": false,
      "lstrip": false,
      "rstrip": false,
      "normalized": false,
      "special": true
    },
    {
      "id": 251,
      "content": "[cap-sleeve]",
      "single_word": false,
      "lstrip": false,
      "rstrip": false,
      "normalized": false,
      "special": true
    },
    {
      "id": 252,
      "content": "[raglan]",
      "single_word": false,
      "lstrip": false,
      "rstrip": false,
      "normalized": false,
      "special": true
    },
    {
      "id": 253,
      "content": "[S]",
      "single_word": false,
      "lstrip": false,
      "rstrip": false,
      "normalized": false,
      "special": true
    },
    {
      "id": 254,
      "content": "[M]",
      "single_word": false,
      "lstrip": false,
      "rstrip": false,
      "normalized": false,
      "special": true
    },
    {
      "id": 255,
      "content": "[L]",
      "single_word": false,
      "lstrip": false,
      "rstrip": false,
      "normalized": false,
      "special": true
    },
    {
      "id": 256,
      "content": "[XL]",
      "single_word": false,
      "lstrip": false,
      "rstrip": false,
      "normalized": false,
      "special": true
    },
    {
      "id": 257,
      "content": "[XXXXL]",
      "single_word": false,
      "lstrip": false,
      "rstrip": false,
      "normalized": false,
      "special": true
    },
    {
      "id": 258,
      "content": "[One-Size]",
      "single_word": false,
      "lstrip": false,
      "rstrip": false,
      "normalized": false,
      "special": true
    },
    {
      "id": 259,
      "content": "[tall]",
      "single_word": false,
      "lstrip": false,
      "rstrip": false,
      "normalized": false,
      "special": true
    },
    {
      "id": 260,
      "content": "[big-and-tall]",
      "single_word": false,
      "lstrip": false,
      "rstrip": false,
      "normalized": false,
      "special": true
    },
    {
      "id": 261,
      "content": "[infant]",
      "single_word": false,
      "lstrip": false,
      "rstrip": false,
      "normalized": false,
      "special": true
    },
    {
      "id": 262,
      "content": "[toddler]",
      "single_word": false,
      "lstrip": false,
      "rstrip": false,
      "normalized": false,
      "special": true
    },
    {
      "id": 263,
      "content": "[kids]",
      "single_word": false,
      "lstrip": false,
      "rstrip": false,
      "normalized": false,
      "special": true
    },
    {
      "id": 264,
      "content": "[junior]",
      "single_word": false,
      "lstrip": false,
      "rstrip": false,
      "normalized": false,
      "special": true
    },
    {
      "id": 265,
      "content": "[unisex]",
      "single_word": false,
      "lstrip": false,
      "rstrip": false,
      "normalized": false,
      "special": true
    },
    {
      "id": 266,
      "content": "[mens]",
      "single_word": false,
      "lstrip": false,
      "rstrip": false,
      "normalized": false,
      "special": true
    },
    {
      "id": 267,
      "content": "[womens]",
      "single_word": false,
      "lstrip": false,
      "rstrip": false,
      "normalized": false,
      "special": true
    },
    {
      "id": 268,
      "content": "[non-comedogenic]",
      "single_word": false,
      "lstrip": false,
      "rstrip": false,
      "normalized": false,
      "special": true
    },
    {
      "id": 269,
      "content": "[dermatologist-tested]",
      "single_word": false,
      "lstrip": false,
      "rstrip": false,
      "normalized": false,
      "special": true
    },
    {
      "id": 270,
      "content": "[sulfate-free]",
      "single_word": false,
      "lstrip": false,
      "rstrip": false,
      "normalized": false,
      "special": true
    },
    {
      "id": 271,
      "content": "[paraben-free]",
      "single_word": false,
      "lstrip": false,
      "rstrip": false,
      "normalized": false,
      "special": true
    },
    {
      "id": 272,
      "content": "[phthalate-free]",
      "single_word": false,
      "lstrip": false,
      "rstrip": false,
      "normalized": false,
      "special": true
    },
    {
      "id": 273,
      "content": "[silicone-free]",
      "single_word": false,
      "lstrip": false,
      "rstrip": false,
      "normalized": false,
      "special": true
    },
    {
      "id": 274,
      "content": "[oil-free]",
      "single_word": false,
      "lstrip": false,
      "rstrip": false,
      "normalized": false,
      "special": true
    },
    {
      "id": 275,
      "content": "[fragrance-free]",
      "single_word": false,
      "lstrip": false,
      "rstrip": false,
      "normalized": false,
      "special": true
    },
    {
      "id": 276,
      "content": "[alcohol-free]",
      "single_word": false,
      "lstrip": false,
      "rstrip": false,
      "normalized": false,
      "special": true
    },
    {
      "id": 277,
      "content": "[gluten-free]",
      "single_word": false,
      "lstrip": false,
      "rstrip": false,
      "normalized": false,
      "special": true
    },
    {
      "id": 278,
      "content": "[natural]",
      "single_word": false,
      "lstrip": false,
      "rstrip": false,
      "normalized": false,
      "special": true
    },
    {
      "id": 279,
      "content": "[clean-beauty]",
      "single_word": false,
      "lstrip": false,
      "rstrip": false,
      "normalized": false,
      "special": true
    },
    {
      "id": 280,
      "content": "[SPF]",
      "single_word": false,
      "lstrip": false,
      "rstrip": false,
      "normalized": false,
      "special": true
    },
    {
      "id": 281,
      "content": "[PA+++]",
      "single_word": false,
      "lstrip": false,
      "rstrip": false,
      "normalized": false,
      "special": true
    },
    {
      "id": 282,
      "content": "[UVA]",
      "single_word": false,
      "lstrip": false,
      "rstrip": false,
      "normalized": false,
      "special": true
    },
    {
      "id": 283,
      "content": "[UVB]",
      "single_word": false,
      "lstrip": false,
      "rstrip": false,
      "normalized": false,
      "special": true
    },
    {
      "id": 284,
      "content": "[broad-spectrum]",
      "single_word": false,
      "lstrip": false,
      "rstrip": false,
      "normalized": false,
      "special": true
    },
    {
      "id": 285,
      "content": "[retinol]",
      "single_word": false,
      "lstrip": false,
      "rstrip": false,
      "normalized": false,
      "special": true
    },
    {
      "id": 286,
      "content": "[hyaluronic-acid]",
      "single_word": false,
      "lstrip": false,
      "rstrip": false,
      "normalized": false,
      "special": true
    },
    {
      "id": 287,
      "content": "[vitamin-c]",
      "single_word": false,
      "lstrip": false,
      "rstrip": false,
      "normalized": false,
      "special": true
    },
    {
      "id": 288,
      "content": "[niacinamide]",
      "single_word": false,
      "lstrip": false,
      "rstrip": false,
      "normalized": false,
      "special": true
    },
    {
      "id": 289,
      "content": "[salicylic-acid]",
      "single_word": false,
      "lstrip": false,
      "rstrip": false,
      "normalized": false,
      "special": true
    },
    {
      "id": 290,
      "content": "[matte]",
      "single_word": false,
      "lstrip": false,
      "rstrip": false,
      "normalized": false,
      "special": true
    },
    {
      "id": 291,
      "content": "[glossy]",
      "single_word": false,
      "lstrip": false,
      "rstrip": false,
      "normalized": false,
      "special": true
    },
    {
      "id": 292,
      "content": "[dewy]",
      "single_word": false,
      "lstrip": false,
      "rstrip": false,
      "normalized": false,
      "special": true
    },
    {
      "id": 293,
      "content": "[shimmer]",
      "single_word": false,
      "lstrip": false,
      "rstrip": false,
      "normalized": false,
      "special": true
    },
    {
      "id": 294,
      "content": "[metallic]",
      "single_word": false,
      "lstrip": false,
      "rstrip": false,
      "normalized": false,
      "special": true
    },
    {
      "id": 295,
      "content": "[HEPA]",
      "single_word": false,
      "lstrip": false,
      "rstrip": false,
      "normalized": false,
      "special": true
    },
    {
      "id": 296,
      "content": "[BPA-free]",
      "single_word": false,
      "lstrip": false,
      "rstrip": false,
      "normalized": false,
      "special": true
    },
    {
      "id": 297,
      "content": "[dishwasher-safe]",
      "single_word": false,
      "lstrip": false,
      "rstrip": false,
      "normalized": false,
      "special": true
    },
    {
      "id": 298,
      "content": "[microwave-safe]",
      "single_word": false,
      "lstrip": false,
      "rstrip": false,
      "normalized": false,
      "special": true
    },
    {
      "id": 299,
      "content": "[oven-safe]",
      "single_word": false,
      "lstrip": false,
      "rstrip": false,
      "normalized": false,
      "special": true
    },
    {
      "id": 300,
      "content": "[induction]",
      "single_word": false,
      "lstrip": false,
      "rstrip": false,
      "normalized": false,
      "special": true
    },
    {
      "id": 301,
      "content": "[convection]",
      "single_word": false,
      "lstrip": false,
      "rstrip": false,
      "normalized": false,
      "special": true
    },
    {
      "id": 302,
      "content": "[inverter]",
      "single_word": false,
      "lstrip": false,
      "rstrip": false,
      "normalized": false,
      "special": true
    },
    {
      "id": 303,
      "content": "[energy-star]",
      "single_word": false,
      "lstrip": false,
      "rstrip": false,
      "normalized": false,
      "special": true
    },
    {
      "id": 304,
      "content": "[BTU]",
      "single_word": false,
      "lstrip": false,
      "rstrip": false,
      "normalized": false,
      "special": true
    },
    {
      "id": 305,
      "content": "[CFM]",
      "single_word": false,
      "lstrip": false,
      "rstrip": false,
      "normalized": false,
      "special": true
    },
    {
      "id": 306,
      "content": "[RPM]",
      "single_word": false,
      "lstrip": false,
      "rstrip": false,
      "normalized": false,
      "special": true
    },
    {
      "id": 307,
      "content": "[decibel]",
      "single_word": false,
      "lstrip": false,
      "rstrip": false,
      "normalized": false,
      "special": true
    },
    {
      "id": 308,
      "content": "[voltage]",
      "single_word": false,
      "lstrip": false,
      "rstrip": false,
      "normalized": false,
      "special": true
    },
    {
      "id": 309,
      "content": "[wattage]",
      "single_word": false,
      "lstrip": false,
      "rstrip": false,
      "normalized": false,
      "special": true
    },
    {
      "id": 310,
      "content": "[lumen]",
      "single_word": false,
      "lstrip": false,
      "rstrip": false,
      "normalized": false,
      "special": true
    },
    {
      "id": 311,
      "content": "[kelvin]",
      "single_word": false,
      "lstrip": false,
      "rstrip": false,
      "normalized": false,
      "special": true
    },
    {
      "id": 312,
      "content": "[smart-home]",
      "single_word": false,
      "lstrip": false,
      "rstrip": false,
      "normalized": false,
      "special": true
    },
    {
      "id": 313,
      "content": "[IoT]",
      "single_word": false,
      "lstrip": false,
      "rstrip": false,
      "normalized": false,
      "special": true
    },
    {
      "id": 314,
      "content": "[Alexa]",
      "single_word": false,
      "lstrip": false,
      "rstrip": false,
      "normalized": false,
      "special": true
    },
    {
      "id": 315,
      "content": "[Google-Assistant]",
      "single_word": false,
      "lstrip": false,
      "rstrip": false,
      "normalized": false,
      "special": true
    },
    {
      "id": 316,
      "content": "[Siri]",
      "single_word": false,
      "lstrip": false,
      "rstrip": false,
      "normalized": false,
      "special": true
    },
    {
      "id": 317,
      "content": "[HomeKit]",
      "single_word": false,
      "lstrip": false,
      "rstrip": false,
      "normalized": false,
      "special": true
    },
    {
      "id": 318,
      "content": "[used-like-new]",
      "single_word": false,
      "lstrip": false,
      "rstrip": false,
      "normalized": false,
      "special": true
    },
    {
      "id": 319,
      "content": "[renewed]",
      "single_word": false,
      "lstrip": false,
      "rstrip": false,
      "normalized": false,
      "special": true
    },
    {
      "id": 320,
      "content": "[trending]",
      "single_word": false,
      "lstrip": false,
      "rstrip": false,
      "normalized": false,
      "special": true
    },
    {
      "id": 321,
      "content": "[bundle]",
      "single_word": false,
      "lstrip": false,
      "rstrip": false,
      "normalized": false,
      "special": true
    },
    {
      "id": 322,
      "content": "[gift-set]",
      "single_word": false,
      "lstrip": false,
      "rstrip": false,
      "normalized": false,
      "special": true
    },
    {
      "id": 323,
      "content": "[multipack]",
      "single_word": false,
      "lstrip": false,
      "rstrip": false,
      "normalized": false,
      "special": true
    },
    {
      "id": 324,
      "content": "[prime]",
      "single_word": false,
      "lstrip": false,
      "rstrip": false,
      "normalized": false,
      "special": true
    },
    {
      "id": 325,
      "content": "[express-shipping]",
      "single_word": false,
      "lstrip": false,
      "rstrip": false,
      "normalized": false,
      "special": true
    },
    {
      "id": 326,
      "content": "[same-day]",
      "single_word": false,
      "lstrip": false,
      "rstrip": false,
      "normalized": false,
      "special": true
    },
    {
      "id": 327,
      "content": "[next-day]",
      "single_word": false,
      "lstrip": false,
      "rstrip": false,
      "normalized": false,
      "special": true
    },
    {
      "id": 328,
      "content": "[curbside-pickup]",
      "single_word": false,
      "lstrip": false,
      "rstrip": false,
      "normalized": false,
      "special": true
    },
    {
      "id": 329,
      "content": "[backorder]",
      "single_word": false,
      "lstrip": false,
      "rstrip": false,
      "normalized": false,
      "special": true
    },
    {
      "id": 330,
      "content": "[pre-order]",
      "single_word": false,
      "lstrip": false,
      "rstrip": false,
      "normalized": false,
      "special": true
    },
    {
      "id": 331,
      "content": "[out-of-stock]",
      "single_word": false,
      "lstrip": false,
      "rstrip": false,
      "normalized": false,
      "special": true
    },
    {
      "id": 332,
      "content": "[in-stock]",
      "single_word": false,
      "lstrip": false,
      "rstrip": false,
      "normalized": false,
      "special": true
    },
    {
      "id": 333,
      "content": "[dropshipping]",
      "single_word": false,
      "lstrip": false,
      "rstrip": false,
      "normalized": false,
      "special": true
    },
    {
      "id": 334,
      "content": "[discount]",
      "single_word": false,
      "lstrip": false,
      "rstrip": false,
      "normalized": false,
      "special": true
    },
    {
      "id": 335,
      "content": "[promo-code]",
      "single_word": false,
      "lstrip": false,
      "rstrip": false,
      "normalized": false,
      "special": true
    },
    {
      "id": 336,
      "content": "[coupon]",
      "single_word": false,
      "lstrip": false,
      "rstrip": false,
      "normalized": false,
      "special": true
    },
    {
      "id": 337,
      "content": "[voucher]",
      "single_word": false,
      "lstrip": false,
      "rstrip": false,
      "normalized": false,
      "special": true
    },
    {
      "id": 338,
      "content": "[cashback]",
      "single_word": false,
      "lstrip": false,
      "rstrip": false,
      "normalized": false,
      "special": true
    },
    {
      "id": 339,
      "content": "[rebate]",
      "single_word": false,
      "lstrip": false,
      "rstrip": false,
      "normalized": false,
      "special": true
    },
    {
      "id": 340,
      "content": "[BOGO]",
      "single_word": false,
      "lstrip": false,
      "rstrip": false,
      "normalized": false,
      "special": true
    },
    {
      "id": 341,
      "content": "[flash-sale]",
      "single_word": false,
      "lstrip": false,
      "rstrip": false,
      "normalized": false,
      "special": true
    },
    {
      "id": 342,
      "content": "[clearance-sale]",
      "single_word": false,
      "lstrip": false,
      "rstrip": false,
      "normalized": false,
      "special": true
    },
    {
      "id": 343,
      "content": "[final-sale]",
      "single_word": false,
      "lstrip": false,
      "rstrip": false,
      "normalized": false,
      "special": true
    },
    {
      "id": 344,
      "content": "[Black-Friday]",
      "single_word": false,
      "lstrip": false,
      "rstrip": false,
      "normalized": false,
      "special": true
    },
    {
      "id": 345,
      "content": "[Cyber-Monday]",
      "single_word": false,
      "lstrip": false,
      "rstrip": false,
      "normalized": false,
      "special": true
    },
    {
      "id": 346,
      "content": "[Prime-Day]",
      "single_word": false,
      "lstrip": false,
      "rstrip": false,
      "normalized": false,
      "special": true
    },
    {
      "id": 347,
      "content": "[holiday-deal]",
      "single_word": false,
      "lstrip": false,
      "rstrip": false,
      "normalized": false,
      "special": true
    },
    {
      "id": 348,
      "content": "[BNPL]",
      "single_word": false,
      "lstrip": false,
      "rstrip": false,
      "normalized": false,
      "special": true
    },
    {
      "id": 349,
      "content": "[EMI]",
      "single_word": false,
      "lstrip": false,
      "rstrip": false,
      "normalized": false,
      "special": true
    },
    {
      "id": 350,
      "content": "[no-cost-EMI]",
      "single_word": false,
      "lstrip": false,
      "rstrip": false,
      "normalized": false,
      "special": true
    },
    {
      "id": 351,
      "content": "[APR]",
      "single_word": false,
      "lstrip": false,
      "rstrip": false,
      "normalized": false,
      "special": true
    },
    {
      "id": 352,
      "content": "[credit-card]",
      "single_word": false,
      "lstrip": false,
      "rstrip": false,
      "normalized": false,
      "special": true
    },
    {
      "id": 353,
      "content": "[debit-card]",
      "single_word": false,
      "lstrip": false,
      "rstrip": false,
      "normalized": false,
      "special": true
    },
    {
      "id": 354,
      "content": "[wallet]",
      "single_word": false,
      "lstrip": false,
      "rstrip": false,
      "normalized": false,
      "special": true
    },
    {
      "id": 355,
      "content": "[crypto]",
      "single_word": false,
      "lstrip": false,
      "rstrip": false,
      "normalized": false,
      "special": true
    },
    {
      "id": 356,
      "content": "[loyalty-points]",
      "single_word": false,
      "lstrip": false,
      "rstrip": false,
      "normalized": false,
      "special": true
    },
    {
      "id": 357,
      "content": "[rewards]",
      "single_word": false,
      "lstrip": false,
      "rstrip": false,
      "normalized": false,
      "special": true
    },
    {
      "id": 358,
      "content": "[subscription]",
      "single_word": false,
      "lstrip": false,
      "rstrip": false,
      "normalized": false,
      "special": true
    }
  ],
  "normalizer": {
    "type": "Sequence",
    "normalizers": [
      {
        "type": "NFD"
      },
      {
        "type": "Lowercase"
      },
      {
        "type": "StripAccents"
      }
    ]
  },
  "pre_tokenizer": {
    "type": "Sequence",
    "pretokenizers": [
      {
        "type": "WhitespaceSplit"
      },
      {
        "type": "Punctuation",
        "behavior": "Isolated"
      }
    ]
  },
  "post_processor": {
    "type": "TemplateProcessing",
    "single": [
      {
        "SpecialToken": {
          "id": "[CLS]",
          "type_id": 0
        }
      },
      {
        "Sequence": {
          "id": "A",
          "type_id": 0
        }
      },
      {
        "SpecialToken": {
          "id": "[SEP]",
          "type_id": 0
        }
      }
    ],
    "pair": [
      {
        "SpecialToken": {
          "id": "[CLS]",
          "type_id": 0
        }
      },
      {
        "Sequence": {
          "id": "A",
          "type_id": 0
        }
      },
      {
        "SpecialToken": {
          "id": "[SEP]",
          "type_id": 0
        }
      },
      {
        "Sequence": {
          "id": "B",
          "type_id": 0
        }
      },
      {
        "SpecialToken": {
          "id": "[SEP]",
          "type_id": 0
        }
      }
    ],
    "special_tokens": {
      "[CLS]": {
        "id": "[CLS]",
        "ids": [
          2
        ],
        "tokens": [
          "[CLS]"
        ]
      },
      "[SEP]": {
        "id": "[SEP]",
        "ids": [
          3
        ],
        "tokens": [
          "[SEP]"
        ]
      }
    }
  },
  "decoder": {
    "type": "BPEDecoder",
    "suffix": "</w>"
  },
  "model": {
    "type": "BPE",
    "dropout": null,
    "unk_token": "[UNK]",
    "continuing_subword_prefix": null,
    "end_of_word_suffix": null,
    "fuse_unk": false,
    "byte_fallback": false,
    "ignore_merges": false,
    "vocab": {
      "[PAD]": 0,
      "[UNK]": 1,
      "[CLS]": 2,
      "[SEP]": 3,
      "[MASK]": 4,
      "[BOS]": 5,
      "[EOS]": 6,
      "[EBITDA]": 7,
      "[EBIT]": 8,
      "[ROI]": 9,
      "[ROE]": 10,
      "[ROA]": 11,
      "[ROIC]": 12,
      "[WACC]": 13,
      "[DCF]": 14,
      "[NPV]": 15,
      "[IRR]": 16,
      "[P/E]": 17,
      "[EPS]": 18,
      "[P/B]": 19,
      "[P/S]": 20,
      "[CAGR]": 21,
      "[YoY]": 22,
      "[QoQ]": 23,
      "[MoM]": 24,
      "[TTM]": 25,
      "[LTM]": 26,
      "[10-K]": 27,
      "[10-Q]": 28,
      "[8-K]": 29,
      "[S-1]": 30,
      "[DEF14A]": 31,
      "[13F]": 32,
      "[Form4]": 33,
      "[GDP]": 34,
      "[CPI]": 35,
      "[PPI]": 36,
      "[FOMC]": 37,
      "[Fed]": 38,
      "[SEC]": 39,
      "[GAAP]": 40,
      "[IFRS]": 41,
      "[amortization]": 42,
      "[depreciation]": 43,
      "[accrual]": 44,
      "[leverage]": 45,
      "[liquidity]": 46,
      "[covenant]": 47,
      "[derivative]": 48,
      "[hedging]": 49,
      "[arbitrage]": 50,
      "[volatility]": 51,
      "[bullish]": 52,
      "[bearish]": 53,
      "[dividend]": 54,
      "[equity]": 55,
      "[liability]": 56,
      "[SKU]": 57,
      "[UPC]": 58,
      "[ASIN]": 59,
      "[EAN]": 60,
      "[GTIN]": 61,
      "[ISBN]": 62,
      "[MPN]": 63,
      "[HDMI]": 64,
      "[USB-C]": 65,
      "[USB-A]": 66,
      "[Bluetooth]": 67,
      "[WiFi]": 68,
      "[NFC]": 69,
      "[RFID]": 70,
      "[polyester]": 71,
      "[cotton]": 72,
      "[nylon]": 73,
      "[spandex]": 74,
      "[viscose]": 75,
      "[rayon]": 76,
      "[waterproof]": 77,
      "[breathable]": 78,
      "[antimicrobial]": 79,
      "[hypoallergenic]": 80,
      "[eco-friendly]": 81,
      "[sustainable]": 82,
      "[organic]": 83,
      "[vegan]": 84,
      "[cruelty-free]": 85,
      "[XS]": 86,
      "[XXL]": 87,
      "[XXXL]": 88,
      "[petite]": 89,
      "[plus-size]": 90,
      "[maternity]": 91,
      "[refurbished]": 92,
      "[pre-owned]": 93,
      "[open-box]": 94,
      "[clearance]": 95,
      "[bestseller]": 96,
      "[new-arrival]": 97,
      "[limited-edition]": 98,
      "[exclusive]": 99,
      "[ISSN]": 100,
      "[JAN]": 101,
      "[PLU]": 102,
      "[QR-Code]": 103,
      "[Barcode]": 104,
      "[Model-No]": 105,
      "[Serial-No]": 106,
      "[Batch-No]": 107,
      "[Micro-USB]": 108,
      "[Mini-USB]": 109,
      "[Lightning]": 110,
      "[Thunderbolt]": 111,
      "[DisplayPort]": 112,
      "[VGA]": 113,
      "[DVI]": 114,
      "[Ethernet]": 115,
      "[RJ45]": 116,
      "[Aux]": 117,
      "[Jack]": 118,
      "[GPS]": 119,
      "[LTE]": 120,
      "[5G]": 121,
      "[4G]": 122,
      "[3G]": 123,
      "[Zigbee]": 124,
      "[Z-Wave]": 125,
      "[LoRaWAN]": 126,
      "[Infrared]": 127,
      "[Qi-Charging]": 128,
      "[MagSafe]": 129,
      "[4K]": 130,
      "[8K]": 131,
      "[HD]": 132,
      "[FHD]": 133,
      "[QHD]": 134,
      "[UHD]": 135,
      "[HDR]": 136,
      "[HDR10]": 137,
      "[Dolby-Vision]": 138,
      "[OLED]": 139,
      "[QLED]": 140,
      "[AMOLED]": 141,
      "[IPS]": 142,
      "[LCD]": 143,
      "[LED]": 144,
      "[Micro-LED]": 145,
      "[Mini-LED]": 146,
      "[Retina]": 147,
      "[Gorilla-Glass]": 148,
      "[Anti-glare]": 149,
      "[Touchscreen]": 150,
      "[60Hz]": 151,
      "[90Hz]": 152,
      "[120Hz]": 153,
      "[144Hz]": 154,
      "[240Hz]": 155,
      "[360Hz]": 156,
      "[Dolby-Atmos]": 157,
      "[DTS]": 158,
      "[Hi-Res]": 159,
      "[Noise-Cancelling]": 160,
      "[ANC]": 161,
      "[Transparency-Mode]": 162,
      "[CPU]": 163,
      "[GPU]": 164,
      "[RAM]": 165,
      "[ROM]": 166,
      "[SSD]": 167,
      "[HDD]": 168,
      "[NVMe]": 169,
      "[SATA]": 170,
      "[PCIe]": 171,
      "[M.2]": 172,
      "[DDR3]": 173,
      "[DDR4]": 174,
      "[DDR5]": 175,
      "[LPDDR]": 176,
      "[GDDR]": 177,
      "[mAh]": 178,
      "[Wh]": 179,
      "[Li-Ion]": 180,
      "[Li-Po]": 181,
      "[Fast-Charge]": 182,
      "[Power-Delivery]": 183,
      "[GaN]": 184,
      "[IP67]": 185,
      "[IP68]": 186,
      "[Water-Resistant]": 187,
      "[Dust-Proof]": 188,
      "[Shock-Proof]": 189,
      "[Dual-SIM]": 190,
      "[eSIM]": 191,
      "[Unlocked]": 192,
      "[Jailbroken]": 193,
      "[Rooted]": 194,
      "[Windows]": 195,
      "[macOS]": 196,
      "[iOS]": 197,
      "[Android]": 198,
      "[Linux]": 199,
      "[ChromeOS]": 200,
      "[elastane]": 201,
      "[denim]": 202,
      "[leather]": 203,
      "[suede]": 204,
      "[silk]": 205,
      "[linen]": 206,
      "[cashmere]": 207,
      "[wool]": 208,
      "[merino]": 209,
      "[fleece]": 210,
      "[velvet]": 211,
      "[corduroy]": 212,
      "[flannel]": 213,
      "[chiffon]": 214,
      "[satin]": 215,
      "[lace]": 216,
      "[canvas]": 217,
      "[mesh]": 218,
      "[neoprene]": 219,
      "[microfiber]": 220,
      "[gore-tex]": 221,
      "[thermal]": 222,
      "[gold-plated]": 223,
      "[sterling-silver]": 224,
      "[stainless-steel]": 225,
      "[titanium]": 226,
      "[carbide]": 227,
      "[moisture-wicking]": 228,
      "[quick-dry]": 229,
      "[wrinkle-free]": 230,
      "[slim-fit]": 231,
      "[regular-fit]": 232,
      "[loose-fit]": 233,
      "[oversized]": 234,
      "[skinny]": 235,
      "[tapered]": 236,
      "[bootcut]": 237,
      "[straight-leg]": 238,
      "[high-rise]": 239,
      "[mid-rise]": 240,
      "[low-rise]": 241,
      "[v-neck]": 242,
      "[crew-neck]": 243,
      "[turtleneck]": 244,
      "[mock-neck]": 245,
      "[halter]": 246,
      "[strapless]": 247,
      "[long-sleeve]": 248,
      "[short-sleeve]": 249,
      "[sleeveless]": 250,
      "[cap-sleeve]": 251,
      "[raglan]": 252,
      "[S]": 253,
      "[M]": 254,
      "[L]": 255,
      "[XL]": 256,
      "[XXXXL]": 257,
      "[One-Size]": 258,
      "[tall]": 259,
      "[big-and-tall]": 260,
      "[infant]": 261,
      "[toddler]": 262,
      "[kids]": 263,
      "[junior]": 264,
      "[unisex]": 265,
      "[mens]": 266,
      "[womens]": 267,
      "[non-comedogenic]": 268,
      "[dermatologist-tested]": 269,
      "[sulfate-free]": 270,
      "[paraben-free]": 271,
      "[phthalate-free]": 272,
      "[silicone-free]": 273,
      "[oil-free]": 274,
      "[fragrance-free]": 275,
      "[alcohol-free]": 276,
      "[gluten-free]": 277,
      "[natural]": 278,
      "[clean-beauty]": 279,
      "[SPF]": 280,
      "[PA+++]": 281,
      "[UVA]": 282,
      "[UVB]": 283,
      "[broad-spectrum]": 284,
      "[retinol]": 285,
      "[hyaluronic-acid]": 286,
      "[vitamin-c]": 287,
      "[niacinamide]": 288,
      "[salicylic-acid]": 289,
      "[matte]": 290,
      "[glossy]": 291,
      "[dewy]": 292,
      "[shimmer]": 293,
      "[metallic]": 294,
      "[HEPA]": 295,
      "[BPA-free]": 296,
      "[dishwasher-safe]": 297,
      "[microwave-safe]": 298,
      "[oven-safe]": 299,
      "[induction]": 300,
      "[convection]": 301,
      "[inverter]": 302,
      "[energy-star]": 303,
      "[BTU]": 304,
      "[CFM]": 305,
      "[RPM]": 306,
      "[decibel]": 307,
      "[voltage]": 308,
      "[wattage]": 309,
      "[lumen]": 310,
      "[kelvin]": 311,
      "[smart-home]": 312,
      "[IoT]": 313,
      "[Alexa]": 314,
      "[Google-Assistant]": 315,
      "[Siri]": 316,
      "[HomeKit]": 317,
      "[used-like-new]": 318,
      "[renewed]": 319,
      "[trending]": 320,
      "[bundle]": 321,
      "[gift-set]": 322,
      "[multipack]": 323,
      "[prime]": 324,
      "[express-shipping]": 325,
      "[same-day]": 326,
      "[next-day]": 327,
      "[curbside-pickup]": 328,
      "[backorder]": 329,
      "[pre-order]": 330,
      "[out-of-stock]": 331,
      "[in-stock]": 332,
      "[dropshipping]": 333,
      "[discount]": 334,
      "[promo-code]": 335,
      "[coupon]": 336,
      "[voucher]": 337,
      "[cashback]": 338,
      "[rebate]": 339,
      "[BOGO]": 340,
      "[flash-sale]": 341,
      "[clearance-sale]": 342,
      "[final-sale]": 343,
      "[Black-Friday]": 344,
      "[Cyber-Monday]": 345,
      "[Prime-Day]": 346,
      "[holiday-deal]": 347,
      "[BNPL]": 348,
      "[EMI]": 349,
      "[no-cost-EMI]": 350,
      "[APR]": 351,
      "[credit-card]": 352,
      "[debit-card]": 353,
      "[wallet]": 354,
      "[crypto]": 355,
      "[loyalty-points]": 356,
      "[rewards]": 357,
      "[subscription]": 358,
      "!": 359,
      "\"": 360,
      "#": 361,
      "$": 362,
      "%": 363,
      "&": 364,
      "'": 365,
      "(": 366,
      ")": 367,
      "*": 368,
      "+": 369,
      ",": 370,
      "-": 371,
      ".": 372,
      "/": 373,
      "0": 374,
      "1": 375,
      "2": 376,
      "3": 377,
      "4": 378,
      "5": 379,
      "6": 380,
      "7": 381,
      "8": 382,
      "9": 383,
      ":": 384,
      ";": 385,
      "<": 386,
      "=": 387,
      ">": 388,
      "?": 389,
      "@": 390,
      "[": 391,
      "\\": 392,
      "]": 393,
      "^": 394,
      "_": 395,
      "`": 396,
      "a": 397,
      "b": 398,
      "c": 399,
      "d": 400,
      "e": 401,
      "f": 402,
      "g": 403,
      "h": 404,
      "i": 405,
      "j": 406,
      "k": 407,
      "l": 408,
      "m": 409,
      "n": 410,
      "o": 411,
      "p": 412,
      "q": 413,
      "r": 414,
      "s": 415,
      "t": 416,
      "u": 417,
      "v": 418,
      "w": 419,
      "x": 420,
      "y": 421,
      "z": 422,
      "|": 423,
      "}": 424,
      "~": 425,
      "¡": 426,
      "£": 427,
      "¦": 428,
      "§": 429,
      "©": 430,
      "ª": 431,
      "®": 432,
      "¯": 433,
      "°": 434,
      "±": 435,
      "²": 436,
      "³": 437,
      "´": 438,
      "µ": 439,
      "·": 440,
      "¹": 441,
      "º": 442,
      "»": 443,
      "½": 444,
      "¾": 445,
      "¿": 446,
      "×": 447,
      "æ": 448,
      "ø": 449,
      "đ": 450,
      "œ": 451,
      "ɔ": 452,
      "ə": 453,
      "ɪ": 454,
      "ʼ": 455,
      "ˈ": 456,
      "ː": 457,
      "˚": 458,
      "˜": 459,
      "α": 460,
      "β": 461,
      "γ": 462,
      "в": 463,
      "ж": 464,
      "о": 465,
      "т": 466,
      "־": 467,
      "׃": 468,
      "א": 469,
      "ב": 470,
      "ג": 471,
      "ד": 472,
      "ה": 473,
      "ו": 474,
      "ז": 475,
      "ח": 476,
      "י": 477,
      "ך": 478,
      "כ": 479,
      "ל": 480,
      "ם": 481,
      "מ": 482,
      "ן": 483,
      "נ": 484,
      "ע": 485,
      "פ": 486,
      "צ": 487,
      "ק": 488,
      "ר": 489,
      "ש": 490,
      "ת": 491,
      "ا": 492,
      "ر": 493,
      "ظ": 494,
      "ق": 495,
      "ل": 496,
      "م": 497,
      "ه": 498,
      "അ": 499,
      "ആ": 500,
      "ഉ": 501,
      "എ": 502,
      "ഏ": 503,
      "ഐ": 504,
      "ഓ": 505,
      "ക": 506,
      "ഗ": 507,
      "ങ": 508,
      "ച": 509,
      "ട": 510,
      "ഡ": 511,
      "ണ": 512,
      "ത": 513,
      "ദ": 514,
      "ന": 515,
      "പ": 516,
      "ഫ": 517,
      "ബ": 518,
      "ഭ": 519,
      "മ": 520,
      "യ": 521,
      "ര": 522,
      "റ": 523,
      "ല": 524,
      "വ": 525,
      "ഷ": 526,
      "സ": 527,
      "ൻ": 528,
      "ർ": 529,
      "ൽ": 530,
      "ൾ": 531,
      "ก": 532,
      "จ": 533,
      "น": 534,
      "ฟ": 535,
      "ย": 536,
      "ร": 537,
      "า": 538,
      "ไ": 539,
      "ᄀ": 540,
      "ᄂ": 541,
      "ᄃ": 542,
      "ᄅ": 543,
      "ᄉ": 544,
      "ᄋ": 545,
      "ᅡ": 546,
      "ᅢ": 547,
      "ᅥ": 548,
      "ᅩ": 549,
      "ᅬ": 550,
      "ᅳ": 551,
      "ᅵ": 552,
      "ᆨ": 553,
      "ᆫ": 554,
      "ᆯ": 555,
      "ᆸ": 556,
      "ᆹ": 557,
      "ᆺ": 558,
      "ᆼ": 559,
      "‐": 560,
      "‒": 561,
      "–": 562,
      "—": 563,
      "‘": 564,
      "’": 565,
      "‚": 566,
      "“": 567,
      "”": 568,
      "†": 569,
      "‡": 570,
      "•": 571,
      "…": 572,
      "′": 573,
      "″": 574,
      "‹": 575,
      "›": 576,
      "€": 577,
      "₹": 578,
      "™": 579,
      "↑": 580,
      "→": 581,
      "⇐": 582,
      "−": 583,
      "≤": 584,
      "≥": 585,
      "►": 586,
      "●": 587,
      "☆": 588,
      "☎": 589,
      "♦": 590,
      "✅": 591,
      "✓": 592,
      "✨": 593,
      "❤": 594,
      "➔": 595,
      "➤": 596,
      "。": 597,
      "【": 598,
      "】": 599,
      "ア": 600,
      "ィ": 601,
      "テ": 602,
      "マ": 603,
      "ル": 604,
      "・": 605,
      "中": 606,
      "交": 607,
      "人": 608,
      "什": 609,
      "佘": 610,
      "元": 611,
      "兰": 612,
      "円": 613,
      "匯": 614,
      "叉": 615,
      "國": 616,
      "婧": 617,
      "孟": 618,
      "寄": 619,
      "對": 620,
      "嵁": 621,
      "常": 622,
      "幣": 623,
      "您": 624,
      "感": 625,
      "日": 626,
      "最": 627,
      "果": 628,
      "梨": 629,
      "榗": 630,
      "檇": 631,
      "檚": 632,
      "民": 633,
      "涓": 634,
      "滇": 635,
      "潵": 636,
      "為": 637,
      "率": 638,
      "生": 639,
      "産": 640,
      "用": 641,
      "興": 642,
      "藏": 643,
      "规": 644,
      "趣": 645,
      "鈥": 646,
      "鏄": 647,
      "鏍": 648,
      "麼": 649,
      "！": 650,
      "，": 651,
      "：": 652,
      "？": 653,
      "�": 654,
      "🇸": 655,
      "🇺": 656,
      "💵": 657,
      "😁": 658,
      "😍": 659,
      "🤙": 660,
      "th": 661,
      "in": 662,
      "er": 663,
      "an": 664,
      "re": 665,
      "on": 666,
      "the": 667,
      "at": 668,
      "or": 669,
      "en": 670,
      "st": 671,
      "al": 672,
      "ar": 673,
      "ou": 674,
      "ed": 675,
      "es": 676,
      "to": 677,
      "and": 678,
      "ing": 679,
      "is": 680,
      "it": 681,
      "ic": 682,
      "of": 683,
      "le": 684,
      "as": 685,
      "ion": 686,
      "ro": 687,
      "el": 688,
      "ac": 689,
      "il": 690,
      "for": 691,
      "ent": 692,
      "ch": 693,
      "co": 694,
      "se": 695,
      "ve": 696,
      "you": 697,
      "de": 698,
      "be": 699,
      "ow": 700,
      "me": 701,
      "wh": 702,
      "ad": 703,
      "ct": 704,
      "mo": 705,
      "ig": 706,
      "ver": 707,
      "wi": 708,
      "su": 709,
      "ly": 710,
      "ge": 711,
      "mp": 712,
      "tr": 713,
      "lo": 714,
      "ation": 715,
      "are": 716,
      "with": 717,
      "ne": 718,
      "con": 719,
      "ab": 720,
      "ay": 721,
      "ce": 722,
      "ter": 723,
      "ir": 724,
      "ti": 725,
      "us": 726,
      "un": 727,
      "res": 728,
      "that": 729,
      "ke": 730,
      "pro": 731,
      "ur": 732,
      "so": 733,
      "id": 734,
      "car": 735,
      "te": 736,
      "all": 737,
      "ma": 738,
      "pe": 739,
      "no": 740,
      "li": 741,
      "we": 742,
      "sh": 743,
      "au": 744,
      "ri": 745,
      "ex": 746,
      "per": 747,
      "ts": 748,
      "ther": 749,
      "am": 750,
      "igh": 751,
      "ol": 752,
      "bu": 753,
      "your": 754,
      "di": 755,
      "qu": 756,
      "00": 757,
      "ment": 758,
      "ap": 759,
      "pl": 760,
      "ul": 761,
      "fe": 762,
      "ess": 763,
      "ill": 764,
      "ta": 765,
      "this": 766,
      "our": 767,
      "op": 768,
      "si": 769,
      "ers": 770,
      "ity": 771,
      "he": 772,
      "ha": 773,
      "man": 774,
      "od": 775,
      "can": 776,
      "ate": 777,
      "out": 778,
      "one": 779,
      "by": 780,
      "ra": 781,
      "du": 782,
      "oun": 783,
      "rom": 784,
      "if": 785,
      "cl": 786,
      "from": 787,
      "par": 788,
      "ck": 789,
      "ine": 790,
      "ag": 791,
      "act": 792,
      "com": 793,
      "po": 794,
      "ice": 795,
      "was": 796,
      "20": 797,
      "have": 798,
      "able": 799,
      "go": 800,
      "ty": 801,
      "not": 802,
      "do": 803,
      "pr": 804,
      "comp": 805,
      "ind": 806,
      "ste": 807,
      "wor": 808,
      "ld": 809,
      "ies": 810,
      "ack": 811,
      "um": 812,
      "ser": 813,
      "ere": 814,
      "ight": 815,
      "up": 816,
      "av": 817,
      "ust": 818,
      "ell": 819,
      "hic": 820,
      "ant": 821,
      "sp": 822,
      "ort": 823,
      "ci": 824,
      "end": 825,
      "vehic": 826,
      "19": 827,
      "new": 828,
      "bo": 829,
      "vi": 830,
      "will": 831,
      "gr": 832,
      "ated": 833,
      "ction": 834,
      "more": 835,
      "im": 836,
      "ut": 837,
      "om": 838,
      "ard": 839,
      "pa": 840,
      "fer": 841,
      "but": 842,
      "spe": 843,
      "ally": 844,
      "ip": 845,
      "sa": 846,
      "ure": 847,
      "sy": 848,
      "has": 849,
      "ear": 850,
      "gh": 851,
      "auto": 852,
      "own": 853,
      "br": 854,
      "they": 855,
      "int": 856,
      "fo": 857,
      "ive": 858,
      "ition": 859,
      "ok": 860,
      "serv": 861,
      "eng": 862,
      "ould": 863,
      "ich": 864,
      "str": 865,
      "age": 866,
      "very": 867,
      "der": 868,
      "its": 869,
      "ace": 870,
      "pre": 871,
      "ass": 872,
      "cont": 873,
      "ast": 874,
      "cre": 875,
      "ase": 876,
      "pres": 877,
      "ough": 878,
      "ans": 879,
      "other": 880,
      "dis": 881,
      "ev": 882,
      "vehicle": 883,
      "any": 884,
      "af": 885,
      "ho": 886,
      "bl": 887,
      "ance": 888,
      "des": 889,
      "which": 890,
      "form": 891,
      "ound": 892,
      "ist": 893,
      "work": 894,
      "way": 895,
      "dri": 896,
      "gre": 897,
      "mar": 898,
      "ence": 899,
      "tru": 900,
      "ower": 901,
      "ach": 902,
      "et": 903,
      "fr": 904,
      "cess": 905,
      "whe": 906,
      "ren": 907,
      "ail": 908,
      "inter": 909,
      "ign": 910,
      "get": 911,
      "del": 912,
      "high": 913,
      "ber": 914,
      "now": 915,
      "201": 916,
      "est": 917,
      "200": 918,
      "their": 919,
      "ile": 920,
      "ors": 921,
      "ions": 922,
      "when": 923,
      "ong": 924,
      "comm": 925,
      "ous": 926,
      "ite": 927,
      "used": 928,
      "vel": 929,
      "some": 930,
      "ms": 931,
      "mat": 932,
      "also": 933,
      "cent": 934,
      "ire": 935,
      "ain": 936,
      "clu": 937,
      "ish": 938,
      "ful": 939,
      "than": 940,
      "there": 941,
      "ings": 942,
      "imp": 943,
      "les": 944,
      "syste": 945,
      "iz": 946,
      "day": 947,
      "how": 948,
      "ick": 949,
      "time": 950,
      "truck": 951,
      "ble": 952,
      "ical": 953,
      "col": 954,
      "sure": 955,
      "power": 956,
      "log": 957,
      "cor": 958,
      "need": 959,
      "wheel": 960,
      "about": 961,
      "inclu": 962,
      "ations": 963,
      "ef": 964,
      "year": 965,
      "rol": 966,
      "ran": 967,
      "over": 968,
      "deal": 969,
      "produ": 970,
      "da": 971,
      "off": 972,
      "lect": 973,
      "most": 974,
      "part": 975,
      "ree": 976,
      "min": 977,
      "ory": 978,
      "what": 979,
      "sal": 980,
      "bra": 981,
      "ary": 982,
      "my": 983,
      "gen": 984,
      "je": 985,
      "fl": 986,
      "art": 987,
      "may": 988,
      "ens": 989,
      "fin": 990,
      "cy": 991,
      "ph": 992,
      "these": 993,
      "add": 994,
      "10": 995,
      "service": 996,
      "ca": 997,
      "who": 998,
      "cars": 999,
      "were": 1000,
      "ont": 1001,
      "ial": 1002,
      "air": 1003,
      "ia": 1004,
      "hel": 1005,
      "tur": 1006,
      "king": 1007,
      "cr": 1008,
      "seat": 1009,
      "cur": 1010,
      "chan": 1011,
      "port": 1012,
      "parts": 1013,
      "vers": 1014,
      "great": 1015,
      "fect": 1016,
      "look": 1017,
      "engine": 1018,
      "use": 1019,
      "just": 1020,
      "cond": 1021,
      "cle": 1022,
      "iv": 1023,
      "dif": 1024,
      "system": 1025,
      "ild": 1026,
      "been": 1027,
      "ship": 1028,
      "only": 1029,
      "coun": 1030,
      "ced": 1031,
      "fact": 1032,
      "ely": 1033,
      "tain": 1034,
      "mon": 1035,
      "let": 1036,
      "bi": 1037,
      "his": 1038,
      "ob": 1039,
      "iss": 1040,
      "low": 1041,
      "cho": 1042,
      "like": 1043,
      "row": 1044,
      "tw": 1045,
      "cal": 1046,
      "bet": 1047,
      "ep": 1048,
      "place": 1049,
      "pos": 1050,
      "control": 1051,
      "ew": 1052,
      "la": 1053,
      "help": 1054,
      "tech": 1055,
      "see": 1056,
      "buy": 1057,
      "make": 1058,
      "ures": 1059,
      "read": 1060,
      "fi": 1061,
      "ility": 1062,
      "front": 1063,
      "ates": 1064,
      "ting": 1065,
      "ving": 1066,
      "vid": 1067,
      "qual": 1068,
      "model": 1069,
      "fore": 1070,
      "pt": 1071,
      "war": 1072,
      "less": 1073,
      "best": 1074,
      "view": 1075,
      "stand": 1076,
      "ds": 1077,
      "ue": 1078,
      "reg": 1079,
      "ding": 1080,
      "rear": 1081,
      "mer": 1082,
      "fir": 1083,
      "ual": 1084,
      "kes": 1085,
      "ices": 1086,
      "ks": 1087,
      "back": 1088,
      "find": 1089,
      "call": 1090,
      "ater": 1091,
      "after": 1092,
      "them": 1093,
      "ents": 1094,
      "char": 1095,
      "peri": 1096,
      "avail": 1097,
      "rough": 1098,
      "18": 1099,
      "tires": 1100,
      "ry": 1101,
      "med": 1102,
      "wind": 1103,
      "cial": 1104,
      "val": 1105,
      "sur": 1106,
      "50": 1107,
      "arch": 1108,
      "ple": 1109,
      "tor": 1110,
      "che": 1111,
      "under": 1112,
      "had": 1113,
      "ning": 1114,
      "price": 1115,
      "cer": 1116,
      "son": 1117,
      "into": 1118,
      "well": 1119,
      "line": 1120,
      "ric": 1121,
      "ces": 1122,
      "land": 1123,
      "gu": 1124,
      "cau": 1125,
      "eas": 1126,
      "ose": 1127,
      "ating": 1128,
      "repa": 1129,
      "cust": 1130,
      "many": 1131,
      "product": 1132,
      "mil": 1133,
      "ise": 1134,
      "good": 1135,
      "available": 1136,
      "bel": 1137,
      "led": 1138,
      "inform": 1139,
      "tal": 1140,
      "mu": 1141,
      "ted": 1142,
      "custom": 1143,
      "ople": 1144,
      "ments": 1145,
      "thing": 1146,
      "road": 1147,
      "every": 1148,
      "people": 1149,
      "ject": 1150,
      "would": 1151,
      "sup": 1152,
      "light": 1153,
      "red": 1154,
      "head": 1155,
      "sub": 1156,
      "app": 1157,
      "lar": 1158,
      "inst": 1159,
      "come": 1160,
      "requ": 1161,
      "stu": 1162,
      "sto": 1163,
      "through": 1164,
      "vol": 1165,
      "cause": 1166,
      "first": 1167,
      "vis": 1168,
      "hand": 1169,
      "know": 1170,
      "offer": 1171,
      "elect": 1172,
      "ie": 1173,
      "ford": 1174,
      "repair": 1175,
      "tre": 1176,
      "differ": 1177,
      "ific": 1178,
      "ket": 1179,
      "fic": 1180,
      "where": 1181,
      "information": 1182,
      "side": 1183,
      "acti": 1184,
      "quality": 1185,
      "such": 1186,
      "design": 1187,
      "ased": 1188,
      "tire": 1189,
      "12": 1190,
      "ss": 1191,
      "down": 1192,
      "feat": 1193,
      "tail": 1194,
      "old": 1195,
      "trans": 1196,
      "top": 1197,
      "ular": 1198,
      "condition": 1199,
      "hy": 1200,
      "spec": 1201,
      "search": 1202,
      "mit": 1203,
      "vehicles": 1204,
      "ys": 1205,
      "gl": 1206,
      "even": 1207,
      "two": 1208,
      "ger": 1209,
      "pur": 1210,
      "long": 1211,
      "199": 1212,
      "jo": 1213,
      "pu": 1214,
      "free": 1215,
      "stru": 1216,
      "vent": 1217,
      "list": 1218,
      "amer": 1219,
      "pressure": 1220,
      "ak": 1221,
      "000": 1222,
      "nor": 1223,
      "then": 1224,
      "loc": 1225,
      "miss": 1226,
      "here": 1227,
      "sul": 1228,
      "main": 1229,
      "set": 1230,
      "ior": 1231,
      "pri": 1232,
      "ash": 1233,
      "cover": 1234,
      "play": 1235,
      "15": 1236,
      "dealer": 1237,
      "drive": 1238,
      "provid": 1239,
      "her": 1240,
      "years": 1241,
      "want": 1242,
      "nation": 1243,
      "ten": 1244,
      "ities": 1245,
      "devel": 1246,
      "fu": 1247,
      "ges": 1248,
      "num": 1249,
      "ved": 1250,
      "tim": 1251,
      "experi": 1252,
      "sport": 1253,
      "ering": 1254,
      "ress": 1255,
      "tow": 1256,
      "take": 1257,
      "opt": 1258,
      "ft": 1259,
      "lin": 1260,
      "ze": 1261,
      "prote": 1262,
      "dur": 1263,
      "ot": 1264,
      "eld": 1265,
      "nolog": 1266,
      "technolog": 1267,
      "cri": 1268,
      "hu": 1269,
      "right": 1270,
      "perfor": 1271,
      "ights": 1272,
      "sale": 1273,
      "fun": 1274,
      "while": 1275,
      "mper": 1276,
      "alth": 1277,
      "cap": 1278,
      "should": 1279,
      "fit": 1280,
      "performan": 1281,
      "dr": 1282,
      "don": 1283,
      "rect": 1284,
      "could": 1285,
      "var": 1286,
      "van": 1287,
      "clo": 1288,
      "water": 1289,
      "ever": 1290,
      "performance": 1291,
      "start": 1292,
      "vide": 1293,
      "atter": 1294,
      "made": 1295,
      "show": 1296,
      "plan": 1297,
      "17": 1298,
      "ven": 1299,
      "access": 1300,
      "child": 1301,
      "develop": 1302,
      "because": 1303,
      "brake": 1304,
      "ody": 1305,
      "ily": 1306,
      "16": 1307,
      "different": 1308,
      "sin": 1309,
      "mple": 1310,
      "ional": 1311,
      "process": 1312,
      "much": 1313,
      "nat": 1314,
      "before": 1315,
      "net": 1316,
      "ide": 1317,
      "fol": 1318,
      "replace": 1319,
      "life": 1320,
      "ll": 1321,
      "incre": 1322,
      "sol": 1323,
      "ps": 1324,
      "tra": 1325,
      "body": 1326,
      "pol": 1327,
      "sign": 1328,
      "ability": 1329,
      "mem": 1330,
      "cell": 1331,
      "ian": 1332,
      "test": 1333,
      "gener": 1334,
      "mi": 1335,
      "ves": 1336,
      "try": 1337,
      "class": 1338,
      "ton": 1339,
      "pass": 1340,
      "oc": 1341,
      "30": 1342,
      "rel": 1343,
      "state": 1344,
      "fuel": 1345,
      "remo": 1346,
      "matic": 1347,
      "turn": 1348,
      "ather": 1349,
      "pon": 1350,
      "assi": 1351,
      "mob": 1352,
      "safe": 1353,
      "uni": 1354,
      "ota": 1355,
      "features": 1356,
      "range": 1357,
      "does": 1358,
      "dep": 1359,
      "without": 1360,
      "world": 1361,
      "ution": 1362,
      "ster": 1363,
      "tract": 1364,
      "sm": 1365,
      "att": 1366,
      "ben": 1367,
      "each": 1368,
      "run": 1369,
      "har": 1370,
      "star": 1371,
      "import": 1372,
      "standard": 1373,
      "indi": 1374,
      "near": 1375,
      "cost": 1376,
      "na": 1377,
      "activ": 1378,
      "bus": 1379,
      "ged": 1380,
      "sk": 1381,
      "motor": 1382,
      "wheels": 1383,
      "effect": 1384,
      "install": 1385,
      "those": 1386,
      "review": 1387,
      "atch": 1388,
      "market": 1389,
      "ded": 1390,
      "purch": 1391,
      "using": 1392,
      "audi": 1393,
      "equ": 1394,
      "ween": 1395,
      "between": 1396,
      "wa": 1397,
      "lit": 1398,
      "pop": 1399,
      "resul": 1400,
      "cop": 1401,
      "speed": 1402,
      "stud": 1403,
      "gy": 1404,
      "rad": 1405,
      "xt": 1406,
      "full": 1407,
      "pay": 1408,
      "easy": 1409,
      "oper": 1410,
      "manu": 1411,
      "ious": 1412,
      "os": 1413,
      "americ": 1414,
      "sell": 1415,
      "shop": 1416,
      "black": 1417,
      "pack": 1418,
      "fort": 1419,
      "keep": 1420,
      "detail": 1421,
      "point": 1422,
      "national": 1423,
      "40": 1424,
      "orig": 1425,
      "ict": 1426,
      "11": 1427,
      "gest": 1428,
      "org": 1429,
      "addition": 1430,
      "origin": 1431,
      "wr": 1432,
      "ati": 1433,
      "manufact": 1434,
      "hon": 1435,
      "lu": 1436,
      "elf": 1437,
      "ping": 1438,
      "prof": 1439,
      "vir": 1440,
      "check": 1441,
      "change": 1442,
      "ics": 1443,
      "research": 1444,
      "cept": 1445,
      "ways": 1446,
      "bar": 1447,
      "chev": 1448,
      "exp": 1449,
      "rent": 1450,
      "same": 1451,
      "person": 1452,
      "publ": 1453,
      "commun": 1454,
      "care": 1455,
      "fam": 1456,
      "oil": 1457,
      "both": 1458,
      "say": 1459,
      "found": 1460,
      "ative": 1461,
      "including": 1462,
      "too": 1463,
      "ters": 1464,
      "key": 1465,
      "size": 1466,
      "bal": 1467,
      "online": 1468,
      "stri": 1469,
      "god": 1470,
      "seats": 1471,
      "follow": 1472,
      "dat": 1473,
      "ines": 1474,
      "cons": 1475,
      "put": 1476,
      "ories": 1477,
      "require": 1478,
      "again": 1479,
      "number": 1480,
      "batter": 1481,
      "around": 1482,
      "ited": 1483,
      "ilent": 1484,
      "ason": 1485,
      "experience": 1486,
      "em": 1487,
      "driver": 1488,
      "ident": 1489,
      "comes": 1490,
      "24": 1491,
      "moun": 1492,
      "pect": 1493,
      "13": 1494,
      "hau": 1495,
      "redu": 1496,
      "today": 1497,
      "loy": 1498,
      "present": 1499,
      "25": 1500,
      "appro": 1501,
      "depend": 1502,
      "agilent": 1503,
      "book": 1504,
      "being": 1505,
      "fil": 1506,
      "ju": 1507,
      "services": 1508,
      "looking": 1509,
      "ped": 1510,
      "indu": 1511,
      "automatic": 1512,
      "home": 1513,
      "replacement": 1514,
      "cu": 1515,
      "order": 1516,
      "trail": 1517,
      "brand": 1518,
      "stock": 1519,
      "during": 1520,
      "cli": 1521,
      "quest": 1522,
      "ness": 1523,
      "toy": 1524,
      "special": 1525,
      "ner": 1526,
      "met": 1527,
      "steering": 1528,
      "blo": 1529,
      "ima": 1530,
      "ows": 1531,
      "products": 1532,
      "mal": 1533,
      "ward": 1534,
      "said": 1535,
      "miles": 1536,
      "small": 1537,
      "grou": 1538,
      "paint": 1539,
      "lection": 1540,
      "door": 1541,
      "him": 1542,
      "sive": 1543,
      "ask": 1544,
      "comple": 1545,
      "14": 1546,
      "lead": 1547,
      "gas": 1548,
      "site": 1549,
      "level": 1550,
      "color": 1551,
      "provide": 1552,
      "cour": 1553,
      "grow": 1554,
      "ized": 1555,
      "bike": 1556,
      "warran": 1557,
      "mir": 1558,
      "direct": 1559,
      "however": 1560,
      "toyota": 1561,
      "giv": 1562,
      "ang": 1563,
      "health": 1564,
      "last": 1565,
      "vo": 1566,
      "plic": 1567,
      "sible": 1568,
      "interior": 1569,
      "month": 1570,
      "radi": 1571,
      "kit": 1572,
      "ital": 1573,
      "contin": 1574,
      "tle": 1575,
      "sou": 1576,
      "ature": 1577,
      "ider": 1578,
      "gram": 1579,
      "syn": 1580,
      "ww": 1581,
      "better": 1582,
      "hi": 1583,
      "equip": 1584,
      "honda": 1585,
      "cul": 1586,
      "lights": 1587,
      "mul": 1588,
      "important": 1589,
      "data": 1590,
      "still": 1591,
      "respon": 1592,
      "company": 1593,
      "ought": 1594,
      "ished": 1595,
      "include": 1596,
      "tri": 1597,
      "soci": 1598,
      "please": 1599,
      "hist": 1600,
      "kn": 1601,
      "based": 1602,
      "sun": 1603,
      "conne": 1604,
      "original": 1605,
      "tran": 1606,
      "specific": 1607,
      "cus": 1608,
      "ling": 1609,
      "sci": 1610,
      "dies": 1611,
      "60": 1612,
      "supp": 1613,
      "must": 1614,
      "ron": 1615,
      "sed": 1616,
      "load": 1617,
      "offers": 1618,
      "electric": 1619,
      "mission": 1620,
      "pick": 1621,
      "arm": 1622,
      "lear": 1623,
      "que": 1624,
      "lic": 1625,
      "area": 1626,
      "partic": 1627,
      "room": 1628,
      "bre": 1629,
      "second": 1630,
      "type": 1631,
      "ler": 1632,
      "limit": 1633,
      "mobile": 1634,
      "battery": 1635,
      "did": 1636,
      "fire": 1637,
      "ross": 1638,
      "tive": 1639,
      "program": 1640,
      "current": 1641,
      "clean": 1642,
      "hard": 1643,
      "manufactur": 1644,
      "ator": 1645,
      "needs": 1646,
      "treat": 1647,
      "profess": 1648,
      "rack": 1649,
      "vil": 1650,
      "leg": 1651,
      "four": 1652,
      "shi": 1653,
      "ense": 1654,
      "times": 1655,
      "safety": 1656,
      "ared": 1657,
      "deli": 1658,
      "exa": 1659,
      "three": 1660,
      "ins": 1661,
      "wide": 1662,
      "local": 1663,
      "lan": 1664,
      "pot": 1665,
      "bur": 1666,
      "thin": 1667,
      "100": 1668,
      "build": 1669,
      "anal": 1670,
      "blue": 1671,
      "inc": 1672,
      "rest": 1673,
      "sever": 1674,
      "applic": 1675,
      "warranty": 1676,
      "human": 1677,
      "mirr": 1678,
      "ctions": 1679,
      "train": 1680,
      "manual": 1681,
      "bor": 1682,
      "tu": 1683,
      "ilt": 1684,
      "web": 1685,
      "dama": 1686,
      "since": 1687,
      "chevro": 1688,
      "70": 1689,
      "iness": 1690,
      "sty": 1691,
      "models": 1692,
      "large": 1693,
      "chevrolet": 1694,
      "cing": 1695,
      "ga": 1696,
      "chool": 1697,
      "technology": 1698,
      "tit": 1699,
      "fur": 1700,
      "ging": 1701,
      "ank": 1702,
      "ener": 1703,
      "ris": 1704,
      "glass": 1705,
      "sing": 1706,
      "fac": 1707,
      "mus": 1708,
      "bm": 1709,
      "sof": 1710,
      "lot": 1711,
      "another": 1712,
      "going": 1713,
      "contact": 1714,
      "options": 1715,
      "ii": 1716,
      "she": 1717,
      "clear": 1718,
      "ready": 1719,
      "80": 1720,
      "self": 1721,
      "driving": 1722,
      "ru": 1723,
      "roof": 1724,
      "designed": 1725,
      "ring": 1726,
      "center": 1727,
      "children": 1728,
      "econ": 1729,
      "gra": 1730,
      "ient": 1731,
      "earn": 1732,
      "organ": 1733,
      "mid": 1734,
      "might": 1735,
      "report": 1736,
      "orts": 1737,
      "gover": 1738,
      "als": 1739,
      "why": 1740,
      "typ": 1741,
      "assist": 1742,
      "trim": 1743,
      "bir": 1744,
      "give": 1745,
      "within": 1746,
      "known": 1747,
      "ically": 1748,
      "econom": 1749,
      "heav": 1750,
      "emp": 1751,
      "hol": 1752,
      "often": 1753,
      "customer": 1754,
      "group": 1755,
      "uk": 1756,
      "versity": 1757,
      "ural": 1758,
      "rental": 1759,
      "scre": 1760,
      "school": 1761,
      "itu": 1762,
      "few": 1763,
      "ek": 1764,
      "inch": 1765,
      "ended": 1766,
      "cru": 1767,
      "ath": 1768,
      "cis": 1769,
      "90": 1770,
      "ied": 1771,
      "open": 1772,
      "consider": 1773,
      "mic": 1774,
      "rece": 1775,
      "proble": 1776,
      "working": 1777,
      "happ": 1778,
      "sat": 1779,
      "descri": 1780,
      "pan": 1781,
      "quick": 1782,
      "food": 1783,
      "american": 1784,
      "city": 1785,
      "systems": 1786,
      "22": 1787,
      "ately": 1788,
      "exhau": 1789,
      "support": 1790,
      "example": 1791,
      "exhaust": 1792,
      "glo": 1793,
      "impro": 1794,
      "business": 1795,
      "purchase": 1796,
      "bro": 1797,
      "temper": 1798,
      "includes": 1799,
      "audio": 1800,
      "recomm": 1801,
      "wash": 1802,
      "fully": 1803,
      "eu": 1804,
      "fri": 1805,
      "perfect": 1806,
      "dealership": 1807,
      "pho": 1808,
      "struct": 1809,
      "sales": 1810,
      "shield": 1811,
      "anti": 1812,
      "issu": 1813,
      "excell": 1814,
      "bul": 1815,
      "trucks": 1816,
      "complete": 1817,
      "beg": 1818,
      "connect": 1819,
      "35": 1820,
      "tou": 1821,
      "transport": 1822,
      "bol": 1823,
      "public": 1824,
      "fast": 1825,
      "next": 1826,
      "vely": 1827,
      "gar": 1828,
      "mm": 1829,
      "real": 1830,
      "mile": 1831,
      "big": 1832,
      "ours": 1833,
      "prices": 1834,
      "aw": 1835,
      "ram": 1836,
      "spr": 1837,
      "states": 1838,
      "plac": 1839,
      "enger": 1840,
      "trailer": 1841,
      "ax": 1842,
      "sens": 1843,
      "ties": 1844,
      "project": 1845,
      "max": 1846,
      "country": 1847,
      "details": 1848,
      "fig": 1849,
      "ency": 1850,
      "envir": 1851,
      "lock": 1852,
      "maj": 1853,
      "feel": 1854,
      "environ": 1855,
      "bin": 1856,
      "gn": 1857,
      "olog": 1858,
      "always": 1859,
      "vest": 1860,
      "appe": 1861,
      "wo": 1862,
      "ism": 1863,
      "protect": 1864,
      "cash": 1865,
      "ug": 1866,
      "cool": 1867,
      "development": 1868,
      "energy": 1869,
      "bmw": 1870,
      "hou": 1871,
      "thor": 1872,
      "stre": 1873,
      "ages": 1874,
      "umin": 1875,
      "govern": 1876,
      "dro": 1877,
      "face": 1878,
      "erial": 1879,
      "premi": 1880,
      "phys": 1881,
      "lower": 1882,
      "things": 1883,
      "allow": 1884,
      "came": 1885,
      "location": 1886,
      "maz": 1887,
      "brid": 1888,
      "bed": 1889,
      "cat": 1890,
      "mot": 1891,
      "suv": 1892,
      "fied": 1893,
      "called": 1894,
      "21": 1895,
      "cou": 1896,
      "leather": 1897,
      "ury": 1898,
      "case": 1899,
      "stor": 1900,
      "itive": 1901,
      "making": 1902,
      "ext": 1903,
      "transmission": 1904,
      "earnings": 1905,
      "excellent": 1906,
      "major": 1907,
      "bon": 1908,
      "term": 1909,
      "weight": 1910,
      "days": 1911,
      "windshield": 1912,
      "name": 1913,
      "following": 1914,
      "friend": 1915,
      "far": 1916,
      "ken": 1917,
      "mill": 1918,
      "rot": 1919,
      "198": 1920,
      "several": 1921,
      "ah": 1922,
      "dod": 1923,
      "niss": 1924,
      "multi": 1925,
      "99": 1926,
      "bit": 1927,
      "ases": 1928,
      "diag": 1929,
      "comfort": 1930,
      "below": 1931,
      "history": 1932,
      "limited": 1933,
      "nissan": 1934,
      "ord": 1935,
      "stone": 1936,
      "got": 1937,
      "usu": 1938,
      "ually": 1939,
      "super": 1940,
      "technologies": 1941,
      "smo": 1942,
      "whether": 1943,
      "family": 1944,
      "bag": 1945,
      "lab": 1946,
      "once": 1947,
      "edu": 1948,
      "ured": 1949,
      "touch": 1950,
      "sil": 1951,
      "ane": 1952,
      "ley": 1953,
      "trad": 1954,
      "certain": 1955,
      "function": 1956,
      "23": 1957,
      "28": 1958,
      "itch": 1959,
      "select": 1960,
      "accessories": 1961,
      "environment": 1962,
      "san": 1963,
      "stop": 1964,
      "ize": 1965,
      "bers": 1966,
      "cam": 1967,
      "flo": 1968,
      "hp": 1969,
      "men": 1970,
      "white": 1971,
      "due": 1972,
      "ives": 1973,
      "visit": 1974,
      "meter": 1975,
      "makes": 1976,
      "learn": 1977,
      "brow": 1978,
      "mone": 1979,
      "material": 1980,
      "away": 1981,
      "cir": 1982,
      "late": 1983,
      "non": 1984,
      "built": 1985,
      "shipping": 1986,
      "provides": 1987,
      "study": 1988,
      "screen": 1989,
      "hor": 1990,
      "sum": 1991,
      "mpa": 1992,
      "team": 1993,
      "conditions": 1994,
      "ni": 1995,
      "adjust": 1996,
      "never": 1997,
      "equipment": 1998,
      "dodge": 1999,
      "ants": 2000,
      "kid": 2001,
      "sch": 2002,
      "reason": 2003,
      "ush": 2004,
      "flu": 2005,
      "nam": 2006,
      "sco": 2007,
      "exter": 2008,
      "spect": 2009,
      "common": 2010,
      "factory": 2011,
      "package": 2012,
      "professional": 2013,
      "mber": 2014,
      "x4": 2015,
      "recent": 2016,
      "steel": 2017,
      "grad": 2018,
      "questions": 2019,
      "eco": 2020,
      "lt": 2021,
      "move": 2022,
      "manage": 2023,
      "value": 2024,
      "sour": 2025,
      "wag": 2026,
      "effic": 2027,
      "merced": 2028,
      "bas": 2029,
      "den": 2030,
      "dra": 2031,
      "hold": 2032,
      "reli": 2033,
      "left": 2034,
      "space": 2035,
      "premium": 2036,
      "stain": 2037,
      "heated": 2038,
      "post": 2039,
      "ization": 2040,
      "choose": 2041,
      "radio": 2042,
      "heavy": 2043,
      "cast": 2044,
      "ential": 2045,
      "aren": 2046,
      "united": 2047,
      "plus": 2048,
      "possible": 2049,
      "town": 2050,
      "against": 2051,
      "money": 2052,
      "mercedes": 2053,
      "27": 2054,
      "mor": 2055,
      "nav": 2056,
      "box": 2057,
      "2012": 2058,
      "ension": 2059,
      "customers": 2060,
      "little": 2061,
      "syncop": 2062,
      "done": 2063,
      "ium": 2064,
      "asing": 2065,
      "suc": 2066,
      "unk": 2067,
      "unt": 2068,
      "stry": 2069,
      "ists": 2070,
      "university": 2071,
      "think": 2072,
      "accor": 2073,
      "abs": 2074,
      "proper": 2075,
      "grap": 2076,
      "brakes": 2077,
      "date": 2078,
      "sound": 2079,
      "pract": 2080,
      "results": 2081,
      "sw": 2082,
      "ses": 2083,
      "dev": 2084,
      "display": 2085,
      "cali": 2086,
      "ville": 2087,
      "cab": 2088,
      "fle": 2089,
      "vious": 2090,
      "ground": 2091,
      "object": 2092,
      "natural": 2093,
      "temperature": 2094,
      "aim": 2095,
      "2019": 2096,
      "works": 2097,
      "hal": 2098,
      "sc": 2099,
      "motive": 2100,
      "ride": 2101,
      "clim": 2102,
      "blood": 2103,
      "rome": 2104,
      "areas": 2105,
      "action": 2106,
      "owner": 2107,
      "mart": 2108,
      "26": 2109,
      "dar": 2110,
      "percent": 2111,
      "having": 2112,
      "included": 2113,
      "cyl": 2114,
      "passenger": 2115,
      "treatment": 2116,
      "ban": 2117,
      "advan": 2118,
      "const": 2119,
      "plant": 2120,
      "ledge": 2121,
      "ier": 2122,
      "temp": 2123,
      "dist": 2124,
      "return": 2125,
      "wiring": 2126,
      "automotive": 2127,
      "changes": 2128,
      "meth": 2129,
      "cargo": 2130,
      "windows": 2131,
      "government": 2132,
      "ars": 2133,
      "step": 2134,
      "2018": 2135,
      "understand": 2136,
      "popul": 2137,
      "500": 2138,
      "fall": 2139,
      "means": 2140,
      "mail": 2141,
      "park": 2142,
      "phone": 2143,
      "popular": 2144,
      "ina": 2145,
      "inten": 2146,
      "style": 2147,
      "ox": 2148,
      "inside": 2149,
      "ably": 2150,
      "analy": 2151,
      "ences": 2152,
      "field": 2153,
      "euro": 2154,
      "job": 2155,
      "contain": 2156,
      "abo": 2157,
      "knowledge": 2158,
      "electron": 2159,
      "north": 2160,
      "syncopation": 2161,
      "become": 2162,
      "buying": 2163,
      "additional": 2164,
      "house": 2165,
      "success": 2166,
      "kind": 2167,
      "tic": 2168,
      "ites": 2169,
      "series": 2170,
      "75": 2171,
      "round": 2172,
      "ered": 2173,
      "acc": 2174,
      "week": 2175,
      "hun": 2176,
      "nal": 2177,
      "won": 2178,
      "author": 2179,
      "answ": 2180,
      "interest": 2181,
      "turbo": 2182,
      "south": 2183,
      "usually": 2184,
      "dan": 2185,
      "ey": 2186,
      "really": 2187,
      "tool": 2188,
      "exper": 2189,
      "finan": 2190,
      "classic": 2191,
      "particular": 2192,
      "climate": 2193,
      "mean": 2194,
      "artic": 2195,
      "ease": 2196,
      "tt": 2197,
      "meet": 2198,
      "hood": 2199,
      "estim": 2200,
      "position": 2201,
      "required": 2202,
      "damage": 2203,
      "further": 2204,
      "fra": 2205,
      "recommend": 2206,
      "acy": 2207,
      "ides": 2208,
      "simp": 2209,
      "suppli": 2210,
      "ised": 2211,
      "count": 2212,
      "ption": 2213,
      "dy": 2214,
      "along": 2215,
      "tage": 2216,
      "deals": 2217,
      "manufacturer": 2218,
      "cylind": 2219,
      "cc": 2220,
      "sis": 2221,
      "conf": 2222,
      "pric": 2223,
      "active": 2224,
      "lay": 2225,
      "pict": 2226,
      "ensure": 2227,
      "iti": 2228,
      "ney": 2229,
      "uses": 2230,
      "board": 2231,
      "increase": 2232,
      "remote": 2233,
      "88": 2234,
      "dav": 2235,
      "ons": 2236,
      "idence": 2237,
      "complet": 2238,
      "says": 2239,
      "given": 2240,
      "fair": 2241,
      "rain": 2242,
      "click": 2243,
      "compan": 2244,
      "maintain": 2245,
      "mechan": 2246,
      "prevent": 2247,
      "single": 2248,
      "45": 2249,
      "fill": 2250,
      "remain": 2251,
      "ult": 2252,
      "dual": 2253,
      "early": 2254,
      "strong": 2255,
      "something": 2256,
      "address": 2257,
      "species": 2258,
      "exterior": 2259,
      "29": 2260,
      "ale": 2261,
      "track": 2262,
      "short": 2263,
      "dia": 2264,
      "ago": 2265,
      "certi": 2266,
      "occur": 2267,
      "diesel": 2268,
      "physical": 2269,
      "management": 2270,
      "ither": 2271,
      "sl": 2272,
      "associ": 2273,
      "meas": 2274,
      "expect": 2275,
      "simple": 2276,
      "2013": 2277,
      "signific": 2278,
      "mainten": 2279,
      "west": 2280,
      "pers": 2281,
      "automobile": 2282,
      "region": 2283,
      "photo": 2284,
      "mileage": 2285,
      "wood": 2286,
      "method": 2287,
      "inte": 2288,
      "recor": 2289,
      "across": 2290,
      "conven": 2291,
      "sho": 2292,
      "shif": 2293,
      "amoun": 2294,
      "simil": 2295,
      "press": 2296,
      "higher": 2297,
      "ired": 2298,
      "hours": 2299,
      "thus": 2300,
      "trav": 2301,
      "located": 2302,
      "similar": 2303,
      "vin": 2304,
      "ats": 2305,
      "perform": 2306,
      "earth": 2307,
      "green": 2308,
      "community": 2309,
      "maintenance": 2310,
      "ns": 2311,
      "among": 2312,
      "heat": 2313,
      "combin": 2314,
      "general": 2315,
      "benef": 2316,
      "individ": 2317,
      "until": 2318,
      "36": 2319,
      "rac": 2320,
      "invest": 2321,
      "represent": 2322,
      "utes": 2323,
      "reviews": 2324,
      "filter": 2325,
      "types": 2326,
      "blog": 2327,
      "cycle": 2328,
      "bikes": 2329,
      "yet": 2330,
      "defin": 2331,
      "others": 2332,
      "everything": 2333,
      "scient": 2334,
      "ade": 2335,
      "ible": 2336,
      "ost": 2337,
      "reach": 2338,
      "cially": 2339,
      "choice": 2340,
      "subject": 2341,
      "joh": 2342,
      "benz": 2343,
      "www": 2344,
      "ref": 2345,
      "dest": 2346,
      "duty": 2347,
      "getting": 2348,
      "thanks": 2349,
      "finance": 2350,
      "tractor": 2351,
      "above": 2352,
      "integr": 2353,
      "bay": 2354,
      "camer": 2355,
      "scr": 2356,
      "alumin": 2357,
      "sist": 2358,
      "ified": 2359,
      "jeep": 2360,
      "store": 2361,
      "various": 2362,
      "industry": 2363,
      "continu": 2364,
      "firestone": 2365,
      "acqu": 2366,
      "social": 2367,
      "although": 2368,
      "activity": 2369,
      "title": 2370,
      "bility": 2371,
      "gs": 2372,
      "itical": 2373,
      "international": 2374,
      "commer": 2375,
      "ave": 2376,
      "ele": 2377,
      "ral": 2378,
      "outs": 2379,
      "trip": 2380,
      "aps": 2381,
      "ills": 2382,
      "fix": 2383,
      "charge": 2384,
      "trade": 2385,
      "months": 2386,
      "ann": 2387,
      "compon": 2388,
      "mirrors": 2389,
      "bs": 2390,
      "refer": 2391,
      "itor": 2392,
      "least": 2393,
      "secur": 2394,
      "owned": 2395,
      "2015": 2396,
      "2008": 2397,
      "joy": 2398,
      "option": 2399,
      "close": 2400,
      "fish": 2401,
      "pie": 2402,
      "terms": 2403,
      "extre": 2404,
      "extra": 2405,
      "tyre": 2406,
      "window": 2407,
      "mind": 2408,
      "pm": 2409,
      "ero": 2410,
      "reco": 2411,
      "pet": 2412,
      "197": 2413,
      "bring": 2414,
      "medi": 2415,
      "member": 2416,
      "wagen": 2417,
      "els": 2418,
      "carri": 2419,
      "worth": 2420,
      "ieve": 2421,
      "five": 2422,
      "rate": 2423,
      "tun": 2424,
      "phil": 2425,
      "volks": 2426,
      "significant": 2427,
      "lish": 2428,
      "ensive": 2429,
      "stars": 2430,
      "students": 2431,
      "communic": 2432,
      "application": 2433,
      "david": 2434,
      "ai": 2435,
      "cum": 2436,
      "iting": 2437,
      "omen": 2438,
      "save": 2439,
      "hot": 2440,
      "period": 2441,
      "music": 2442,
      "individual": 2443,
      "volkswagen": 2444,
      "sle": 2445,
      "finish": 2446,
      "law": 2447,
      "running": 2448,
      "security": 2449,
      "rus": 2450,
      "though": 2451,
      "invent": 2452,
      "stic": 2453,
      "selection": 2454,
      "mps": 2455,
      "cut": 2456,
      "mach": 2457,
      "rock": 2458,
      "ilities": 2459,
      "depart": 2460,
      "ify": 2461,
      "indic": 2462,
      "mary": 2463,
      "mini": 2464,
      "apply": 2465,
      "deliver": 2466,
      "website": 2467,
      "almost": 2468,
      "aring": 2469,
      "moder": 2470,
      "suit": 2471,
      "cylinder": 2472,
      "amount": 2473,
      "43": 2474,
      "rs": 2475,
      "spo": 2476,
      "uary": 2477,
      "teach": 2478,
      "ateg": 2479,
      "196": 2480,
      "intro": 2481,
      "training": 2482,
      "softw": 2483,
      "nu": 2484,
      "tank": 2485,
      "enough": 2486,
      "eder": 2487,
      "tom": 2488,
      "page": 2489,
      "speak": 2490,
      "afford": 2491,
      "flow": 2492,
      "regular": 2493,
      "medic": 2494,
      "bolt": 2495,
      "horse": 2496,
      "according": 2497,
      "software": 2498,
      "sen": 2499,
      "verage": 2500,
      "necess": 2501,
      "nov": 2502,
      "provided": 2503,
      "simply": 2504,
      "base": 2505,
      "cd": 2506,
      "cra": 2507,
      "ians": 2508,
      "mand": 2509,
      "alter": 2510,
      "toge": 2511,
      "acter": 2512,
      "force": 2513,
      "susp": 2514,
      "conver": 2515,
      "previous": 2516,
      "production": 2517,
      "county": 2518,
      "guar": 2519,
      "image": 2520,
      "analyst": 2521,
      "together": 2522,
      "33": 2523,
      "jan": 2524,
      "ination": 2525,
      "ante": 2526,
      "note": 2527,
      "lik": 2528,
      "claim": 2529,
      "mirror": 2530,
      "john": 2531,
      "commercial": 2532,
      "95": 2533,
      "fut": 2534,
      "jon": 2535,
      "por": 2536,
      "smart": 2537,
      "expl": 2538,
      "appoint": 2539,
      "prin": 2540,
      "create": 2541,
      "2009": 2542,
      "match": 2543,
      "version": 2544,
      "ls": 2545,
      "oth": 2546,
      "enjoy": 2547,
      "carbon": 2548,
      "exist": 2549,
      "focus": 2550,
      "mark": 2551,
      "techn": 2552,
      "iety": 2553,
      "ggest": 2554,
      "kits": 2555,
      "rid": 2556,
      "win": 2557,
      "stat": 2558,
      "total": 2559,
      "suggest": 2560,
      "loss": 2561,
      "resour": 2562,
      "tax": 2563,
      "words": 2564,
      "upon": 2565,
      "imum": 2566,
      "2011": 2567,
      "correct": 2568,
      "ived": 2569,
      "growth": 2570,
      "aluminum": 2571,
      "introdu": 2572,
      "later": 2573,
      "nice": 2574,
      "entry": 2575,
      "unda": 2576,
      "bot": 2577,
      "belt": 2578,
      "longer": 2579,
      "protection": 2580,
      "lux": 2581,
      "begin": 2582,
      "europe": 2583,
      "ny": 2584,
      "ned": 2585,
      "patch": 2586,
      "anim": 2587,
      "rele": 2588,
      "rover": 2589,
      "chrome": 2590,
      "seal": 2591,
      "thern": 2592,
      "sports": 2593,
      "cred": 2594,
      "personal": 2595,
      "camera": 2596,
      "44": 2597,
      "gate": 2598,
      "instru": 2599,
      "elves": 2600,
      "igation": 2601,
      "love": 2602,
      "concer": 2603,
      "compet": 2604,
      "word": 2605,
      "vari": 2606,
      "skin": 2607,
      "bad": 2608,
      "pul": 2609,
      "pati": 2610,
      "thir": 2611,
      "chall": 2612,
      "def": 2613,
      "aged": 2614,
      "path": 2615,
      "dealers": 2616,
      "undai": 2617,
      "nia": 2618,
      "oem": 2619,
      "sess": 2620,
      "invol": 2621,
      "espe": 2622,
      "ently": 2623,
      "sec": 2624,
      "rist": 2625,
      "engines": 2626,
      "diffic": 2627,
      "easily": 2628,
      "37": 2629,
      "bes": 2630,
      "hab": 2631,
      "oid": 2632,
      "adap": 2633,
      "2020": 2634,
      "hyundai": 2635,
      "wax": 2636,
      "liter": 2637,
      "washing": 2638,
      "educ": 2639,
      "average": 2640,
      "either": 2641,
      "ff": 2642,
      "hur": 2643,
      "jour": 2644,
      "stra": 2645,
      "ili": 2646,
      "season": 2647,
      "ads": 2648,
      "trust": 2649,
      "sha": 2650,
      "coming": 2651,
      "compared": 2652,
      "news": 2653,
      "2017": 2654,
      "installation": 2655,
      "employ": 2656,
      "problems": 2657,
      "califor": 2658,
      "fan": 2659,
      "tell": 2660,
      "decl": 2661,
      "text": 2662,
      "video": 2663,
      "problem": 2664,
      "suspension": 2665,
      "california": 2666,
      "300": 2667,
      "women": 2668,
      "replac": 2669,
      "moving": 2670,
      "stead": 2671,
      "ards": 2672,
      "disease": 2673,
      "2010": 2674,
      "surface": 2675,
      "link": 2676,
      "currently": 2677,
      "million": 2678,
      "tradition": 2679,
      "especially": 2680,
      "47": 2681,
      "fits": 2682,
      "yor": 2683,
      "ada": 2684,
      "needed": 2685,
      "tural": 2686,
      "vision": 2687,
      "priv": 2688,
      "source": 2689,
      "travel": 2690,
      "48": 2691,
      "emer": 2692,
      "email": 2693,
      "mb": 2694,
      "termin": 2695,
      "unch": 2696,
      "dump": 2697,
      "network": 2698,
      "increased": 2699,
      "related": 2700,
      "tooth": 2701,
      "reduce": 2702,
      "description": 2703,
      "silver": 2704,
      "companies": 2705,
      "components": 2706,
      "future": 2707,
      "cro": 2708,
      "mc": 2709,
      "enter": 2710,
      "dec": 2711,
      "195": 2712,
      "past": 2713,
      "2014": 2714,
      "2002": 2715,
      "minutes": 2716,
      "posed": 2717,
      "throughout": 2718,
      "covered": 2719,
      "lines": 2720,
      "half": 2721,
      "article": 2722,
      "frame": 2723,
      "likely": 2724,
      "hind": 2725,
      "independ": 2726,
      "ators": 2727,
      "unit": 2728,
      "tyres": 2729,
      "commit": 2730,
      "question": 2731,
      "guarante": 2732,
      "pi": 2733,
      "rights": 2734,
      "wd": 2735,
      "wal": 2736,
      "wil": 2737,
      "zone": 2738,
      "covers": 2739,
      "neg": 2740,
      "amaz": 2741,
      "hum": 2742,
      "og": 2743,
      "seen": 2744,
      "ado": 2745,
      "reser": 2746,
      "prior": 2747,
      "result": 2748,
      "course": 2749,
      "risk": 2750,
      "global": 2751,
      "improve": 2752,
      "cit": 2753,
      "dig": 2754,
      "tes": 2755,
      "ues": 2756,
      "vic": 2757,
      "decis": 2758,
      "live": 2759,
      "compu": 2760,
      "affect": 2761,
      "highly": 2762,
      "estab": 2763,
      "population": 2764,
      "sav": 2765,
      "alloy": 2766,
      "arri": 2767,
      "vet": 2768,
      "resist": 2769,
      "colle": 2770,
      "airbag": 2771,
      "capac": 2772,
      "plants": 2773,
      "costs": 2774,
      "leading": 2775,
      "outside": 2776,
      "wise": 2777,
      "ene": 2778,
      "asse": 2779,
      "consist": 2780,
      "kets": 2781,
      "siz": 2782,
      "2005": 2783,
      "observ": 2784,
      "lands": 2785,
      "levels": 2786,
      "socie": 2787,
      "cruise": 2788,
      "issue": 2789,
      "york": 2790,
      "fail": 2791,
      "gg": 2792,
      "ino": 2793,
      "icy": 2794,
      "entire": 2795,
      "adv": 2796,
      "verse": 2797,
      "grade": 2798,
      "birth": 2799,
      "appear": 2800,
      "diagram": 2801,
      "65": 2802,
      "800": 2803,
      "fre": 2804,
      "metal": 2805,
      "sold": 2806,
      "mag": 2807,
      "ames": 2808,
      "taking": 2809,
      "actually": 2810,
      "drivers": 2811,
      "brain": 2812,
      "looks": 2813,
      "variety": 2814,
      "soft": 2815,
      "happy": 2816,
      "400": 2817,
      "gain": 2818,
      "ng": 2819,
      "sense": 2820,
      "except": 2821,
      "bud": 2822,
      "quo": 2823,
      "opport": 2824,
      "spare": 2825,
      "2016": 2826,
      "2000": 2827,
      "surance": 2828,
      "delivery": 2829,
      "bluetooth": 2830,
      "32": 2831,
      "dry": 2832,
      "ires": 2833,
      "tar": 2834,
      "thought": 2835,
      "ones": 2836,
      "alex": 2837,
      "took": 2838,
      "lying": 2839,
      "exact": 2840,
      "fees": 2841,
      "2004": 2842,
      "2006": 2843,
      "greater": 2844,
      "listings": 2845,
      "providing": 2846,
      "science": 2847,
      "storage": 2848,
      "education": 2849,
      "39": 2850,
      "amp": 2851,
      "ets": 2852,
      "ively": 2853,
      "sea": 2854,
      "beau": 2855,
      "allows": 2856,
      "olution": 2857,
      "plug": 2858,
      "2007": 2859,
      "added": 2860,
      "friendly": 2861,
      "cas": 2862,
      "cup": 2863,
      "wall": 2864,
      "winter": 2865,
      "ention": 2866,
      "carry": 2867,
      "aug": 2868,
      "quar": 2869,
      "classi": 2870,
      "aster": 2871,
      "whole": 2872,
      "feder": 2873,
      "respect": 2874,
      "weather": 2875,
      "afric": 2876,
      "matter": 2877,
      "therefore": 2878,
      "offic": 2879,
      "missions": 2880,
      "india": 2881,
      "economy": 2882,
      "spring": 2883,
      "smooth": 2884,
      "efficient": 2885,
      "society": 2886,
      "opportun": 2887,
      "38": 2888,
      "49": 2889,
      "dash": 2890,
      "gress": 2891,
      "wel": 2892,
      "enh": 2893,
      "already": 2894,
      "edition": 2895,
      "accur": 2896,
      "ils": 2897,
      "wear": 2898,
      "share": 2899,
      "collection": 2900,
      "regard": 2901,
      "micro": 2902,
      "drop": 2903,
      "multiple": 2904,
      "certified": 2905,
      "bill": 2906,
      "cket": 2907,
      "dou": 2908,
      "ham": 2909,
      "separ": 2910,
      "bey": 2911,
      "gear": 2912,
      "tries": 2913,
      "avoid": 2914,
      "president": 2915,
      "struction": 2916,
      "diabet": 2917,
      "necessary": 2918,
      "capacity": 2919,
      "31": 2920,
      "phe": 2921,
      "tion": 2922,
      "went": 2923,
      "roy": 2924,
      "accept": 2925,
      "section": 2926,
      "dete": 2927,
      "prob": 2928,
      "ided": 2929,
      "auction": 2930,
      "bumper": 2931,
      "anything": 2932,
      "central": 2933,
      "monitor": 2934,
      "traction": 2935,
      "payment": 2936,
      "america": 2937,
      "continue": 2938,
      "fluid": 2939,
      "inventory": 2940,
      "150": 2941,
      "dre": 2942,
      "rating": 2943,
      "snow": 2944,
      "ined": 2945,
      "stren": 2946,
      "lip": 2947,
      "grand": 2948,
      "overall": 2949,
      "structure": 2950,
      "credit": 2951,
      "streng": 2952,
      "iev": 2953,
      "exer": 2954,
      "solution": 2955,
      "motorcycle": 2956,
      "effective": 2957,
      "industri": 2958,
      "economic": 2959,
      "floor": 2960,
      "racing": 2961,
      "ond": 2962,
      "enced": 2963,
      "cannot": 2964,
      "compact": 2965,
      "discus": 2966,
      "event": 2967,
      "solid": 2968,
      "doesn": 2969,
      "activation": 2970,
      "installed": 2971,
      "reliable": 2972,
      "recogn": 2973,
      "modern": 2974,
      "hire": 2975,
      "lou": 2976,
      "mess": 2977,
      "became": 2978,
      "gets": 2979,
      "soon": 2980,
      "disc": 2981,
      "true": 2982,
      "countries": 2983,
      "conditioning": 2984,
      "published": 2985,
      "block": 2986,
      "quickly": 2987,
      "resources": 2988,
      "ball": 2989,
      "ius": 2990,
      "nes": 2991,
      "send": 2992,
      "ery": 2993,
      "defect": 2994,
      "guide": 2995,
      "repairs": 2996,
      "developed": 2997,
      "cells": 2998,
      "mobil": 2999,
      "license": 3000,
      "washington": 3001,
      "vette": 3002,
      "diabetes": 3003,
      "cross": 3004,
      "vit": 3005,
      "wish": 3006,
      "ints": 3007,
      "rep": 3008,
      "ands": 3009,
      "role": 3010,
      "owners": 3011,
      "memory": 3012,
      "rub": 3013,
      "frequ": 3014,
      "insurance": 3015,
      "revol": 3016,
      "stay": 3017,
      "suz": 3018,
      "shall": 3019,
      "prefer": 3020,
      "thank": 3021,
      "appli": 3022,
      "starting": 3023,
      "ology": 3024,
      "latest": 3025,
      "third": 3026,
      "gold": 3027,
      "km": 3028,
      "retail": 3029,
      "modif": 3030,
      "sures": 3031,
      "immedi": 3032,
      "impact": 3033,
      "braking": 3034,
      "bio": 3035,
      "chem": 3036,
      "effects": 3037,
      "equipped": 3038,
      "satis": 3039,
      "luxury": 3040,
      "85": 3041,
      "97": 3042,
      "rap": 3043,
      "edge": 3044,
      "isl": 3045,
      "ising": 3046,
      "consu": 3047,
      "six": 3048,
      "agric": 3049,
      "aves": 3050,
      "internet": 3051,
      "highest": 3052,
      "cycl": 3053,
      "charger": 3054,
      "character": 3055,
      "medical": 3056,
      "showroom": 3057,
      "budget": 3058,
      "suzuk": 3059,
      "46": 3060,
      "cases": 3061,
      "ience": 3062,
      "ko": 3063,
      "forward": 3064,
      "deep": 3065,
      "tex": 3066,
      "aux": 3067,
      "ams": 3068,
      "created": 3069,
      "collect": 3070,
      "capital": 3071,
      "harness": 3072,
      "russi": 3073,
      "suzuki": 3074,
      "ix": 3075,
      "ka": 3076,
      "spl": 3077,
      "spot": 3078,
      "table": 3079,
      "ya": 3080,
      "instead": 3081,
      "distri": 3082,
      "height": 3083,
      "agree": 3084,
      "pose": 3085,
      "hands": 3086,
      "licens": 3087,
      "potential": 3088,
      "received": 3089,
      "street": 3090,
      "expert": 3091,
      "pricing": 3092,
      "ake": 3093,
      "aking": 3094,
      "jap": 3095,
      "chry": 3096,
      "china": 3097,
      "christ": 3098,
      "feed": 3099,
      "cancer": 3100,
      "compress": 3101,
      "stral": 3102,
      "2003": 3103,
      "warning": 3104,
      "studies": 3105,
      "feature": 3106,
      "normal": 3107,
      "planet": 3108,
      "remove": 3109,
      "mount": 3110,
      "approach": 3111,
      "gives": 3112,
      "reported": 3113,
      "diagno": 3114,
      "kidney": 3115,
      "piece": 3116,
      "jonah": 3117,
      "06": 3118,
      "junk": 3119,
      "sir": 3120,
      "scal": 3121,
      "v8": 3122,
      "ws": 3123,
      "aro": 3124,
      "trial": 3125,
      "apr": 3126,
      "clus": 3127,
      "docu": 3128,
      "controls": 3129,
      "regul": 3130,
      "directly": 3131,
      "maximum": 3132,
      "negative": 3133,
      "japan": 3134,
      "250": 3135,
      "sler": 3136,
      "wire": 3137,
      "takes": 3138,
      "duct": 3139,
      "ender": 3140,
      "cape": 3141,
      "indian": 3142,
      "mazda": 3143,
      "catal": 3144,
      "comfortable": 3145,
      "computer": 3146,
      "fm": 3147,
      "gri": 3148,
      "lished": 3149,
      "ners": 3150,
      "wild": 3151,
      "ances": 3152,
      "sequ": 3153,
      "decre": 3154,
      "sustain": 3155,
      "avor": 3156,
      "stration": 3157,
      "disco": 3158,
      "aff": 3159,
      "fru": 3160,
      "corvette": 3161,
      "offered": 3162,
      "wanted": 3163,
      "generally": 3164,
      "attach": 3165,
      "pickup": 3166,
      "applications": 3167,
      "device": 3168,
      "affordable": 3169,
      "chrysler": 3170,
      "paren": 3171,
      "yl": 3172,
      "ert": 3173,
      "behind": 3174,
      "resh": 3175,
      "doing": 3176,
      "content": 3177,
      "produced": 3178,
      "helps": 3179,
      "learning": 3180,
      "building": 3181,
      "considered": 3182,
      "flex": 3183,
      "discovery": 3184,
      "inspe": 3185,
      "ato": 3186,
      "ison": 3187,
      "cold": 3188,
      "demon": 3189,
      "austral": 3190,
      "river": 3191,
      "pret": 3192,
      "items": 3193,
      "handle": 3194,
      "drug": 3195,
      "showed": 3196,
      "solut": 3197,
      "selling": 3198,
      "mounted": 3199,
      "receive": 3200,
      "benefits": 3201,
      "difficult": 3202,
      "4x4": 3203,
      "categ": 3204,
      "gli": 3205,
      "iency": 3206,
      "squ": 3207,
      "ute": 3208,
      "ware": 3209,
      "itution": 3210,
      "lex": 3211,
      "beha": 3212,
      "usa": 3213,
      "century": 3214,
      "final": 3215,
      "easier": 3216,
      "difference": 3217,
      "ysis": 3218,
      "shows": 3219,
      "reduced": 3220,
      "depending": 3221,
      "issues": 3222,
      "motors": 3223,
      "scratch": 3224,
      "department": 3225,
      "rul": 3226,
      "une": 3227,
      "vary": 3228,
      "zy": 3229,
      "arti": 3230,
      "vert": 3231,
      "master": 3232,
      "gree": 3233,
      "reading": 3234,
      "largest": 3235,
      "protein": 3236,
      "native": 3237,
      "political": 3238,
      "born": 3239,
      "labor": 3240,
      "answer": 3241,
      "explain": 3242,
      "citiz": 3243,
      "college": 3244,
      "quote": 3245,
      "hd": 3246,
      "ker": 3247,
      "sent": 3248,
      "atic": 3249,
      "stability": 3250,
      "else": 3251,
      "code": 3252,
      "dece": 3253,
      "mpg": 3254,
      "user": 3255,
      "taken": 3256,
      "spir": 3257,
      "istic": 3258,
      "obtain": 3259,
      "offering": 3260,
      "copy": 3261,
      "gestone": 3262,
      "supply": 3263,
      "figure": 3264,
      "materials": 3265,
      "stainless": 3266,
      "defects": 3267,
      "revolution": 3268,
      "07": 3269,
      "slow": 3270,
      "sites": 3271,
      "thems": 3272,
      "ened": 3273,
      "acts": 3274,
      "death": 3275,
      "solar": 3276,
      "peace": 3277,
      "doct": 3278,
      "ellow": 3279,
      "buyers": 3280,
      "operation": 3281,
      "stocks": 3282,
      "tribut": 3283,
      "langu": 3284,
      "itute": 3285,
      "bridgestone": 3286,
      "navigation": 3287,
      "financing": 3288,
      "themselves": 3289,
      "io": 3290,
      "patter": 3291,
      "situ": 3292,
      "tread": 3293,
      "isn": 3294,
      "upgrad": 3295,
      "hose": 3296,
      "highway": 3297,
      "gency": 3298,
      "subst": 3299,
      "hydro": 3300,
      "expensive": 3301,
      "particip": 3302,
      "locks": 3303,
      "advanced": 3304,
      "estimates": 3305,
      "journal": 3306,
      "decision": 3307,
      "distribut": 3308,
      "tel": 3309,
      "reven": 3310,
      "living": 3311,
      "cia": 3312,
      "forms": 3313,
      "powered": 3314,
      "controller": 3315,
      "processing": 3316,
      "members": 3317,
      "break": 3318,
      "behavi": 3319,
      "oce": 3320,
      "pin": 3321,
      "rich": 3322,
      "tm": 3323,
      "initi": 3324,
      "staff": 3325,
      "shown": 3326,
      "plate": 3327,
      "canada": 3328,
      "via": 3329,
      "requires": 3330,
      "towing": 3331,
      "keyless": 3332,
      "books": 3333,
      "summer": 3334,
      "electronic": 3335,
      "dail": 3336,
      "equal": 3337,
      "kia": 3338,
      "lon": 3339,
      "ange": 3340,
      "aries": 3341,
      "ander": 3342,
      "died": 3343,
      "divid": 3344,
      "actions": 3345,
      "compati": 3346,
      "anyone": 3347,
      "item": 3348,
      "helpful": 3349,
      "aftermarket": 3350,
      "headlights": 3351,
      "pump": 3352,
      "numbers": 3353,
      "started": 3354,
      "assistance": 3355,
      "basic": 3356,
      "600": 3357,
      "bab": 3358,
      "bid": 3359,
      "cel": 3360,
      "htt": 3361,
      "yes": 3362,
      "ades": 3363,
      "liqu": 3364,
      "fee": 3365,
      "torque": 3366,
      "request": 3367,
      "experienced": 3368,
      "attention": 3369,
      "standards": 3370,
      "chevy": 3371,
      "explo": 3372,
      "mountain": 3373,
      "garage": 3374,
      "switch": 3375,
      "completely": 3376,
      "combined": 3377,
      "secure": 3378,
      "industrial": 3379,
      "sirius": 3380,
      "86": 3381,
      "fa": 3382,
      "farm": 3383,
      "mis": 3384,
      "mel": 3385,
      "nas": 3386,
      "ome": 3387,
      "remember": 3388,
      "leave": 3389,
      "sex": 3390,
      "neu": 3391,
      "paper": 3392,
      "ength": 3393,
      "2001": 3394,
      "treated": 3395,
      "hybrid": 3396,
      "relation": 3397,
      "brands": 3398,
      "histor": 3399,
      "recently": 3400,
      "efficiency": 3401,
      "layer": 3402,
      "emergency": 3403,
      "beyond": 3404,
      "daily": 3405,
      "34": 3406,
      "push": 3407,
      "ray": 3408,
      "atives": 3409,
      "sts": 3410,
      "oud": 3411,
      "brit": 3412,
      "camper": 3413,
      "fund": 3414,
      "unique": 3415,
      "researchers": 3416,
      "damaged": 3417,
      "dynam": 3418,
      "convenience": 3419,
      "habit": 3420,
      "straight": 3421,
      "digital": 3422,
      "77": 3423,
      "emissions": 3424,
      "fax": 3425,
      "nel": 3426,
      "pads": 3427,
      "rit": 3428,
      "rates": 3429,
      "ese": 3430,
      "enty": 3431,
      "vey": 3432,
      "young": 3433,
      "serious": 3434,
      "imm": 3435,
      "rench": 3436,
      "launch": 3437,
      "regist": 3438,
      "gery": 3439,
      "1999": 3440,
      "nearly": 3441,
      "activities": 3442,
      "programs": 3443,
      "environmental": 3444,
      "kids": 3445,
      "confidence": 3446,
      "european": 3447,
      "55": 3448,
      "cise": 3449,
      "sion": 3450,
      "vs": 3451,
      "inary": 3452,
      "story": 3453,
      "beet": 3454,
      "construction": 3455,
      "inted": 3456,
      "fog": 3457,
      "etc": 3458,
      "genu": 3459,
      "flat": 3460,
      "lake": 3461,
      "charged": 3462,
      "surround": 3463,
      "1995": 3464,
      "univer": 3465,
      "titan": 3466,
      "extrem": 3467,
      "january": 3468,
      "traditional": 3469,
      "probably": 3470,
      "41": 3471,
      "dir": 3472,
      "pen": 3473,
      "pra": 3474,
      "watch": 3475,
      "xm": 3476,
      "ening": 3477,
      "secre": 3478,
      "demand": 3479,
      "parking": 3480,
      "foot": 3481,
      "izing": 3482,
      "produce": 3483,
      "factors": 3484,
      "valve": 3485,
      "larger": 3486,
      "player": 3487,
      "stern": 3488,
      "improved": 3489,
      "picture": 3490,
      "appointment": 3491,
      "technic": 3492,
      "98": 3493,
      "bought": 3494,
      "gf": 3495,
      "mr": 3496,
      "race": 3497,
      "tx": 3498,
      "zz": 3499,
      "inj": 3500,
      "info": 3501,
      "chain": 3502,
      "tip": 3503,
      "sole": 3504,
      "lift": 3505,
      "poly": 3506,
      "doors": 3507,
      "strict": 3508,
      "preci": 3509,
      "draw": 3510,
      "tools": 3511,
      "pictures": 3512,
      "established": 3513,
      "december": 3514,
      "beetle": 3515,
      "universal": 3516,
      "gall": 3517,
      "mass": 3518,
      "pd": 3519,
      "rat": 3520,
      "scri": 3521,
      "tan": 3522,
      "thous": 3523,
      "ali": 3524,
      "traf": 3525,
      "ultural": 3526,
      "rather": 3527,
      "aging": 3528,
      "acks": 3529,
      "sometimes": 3530,
      "standing": 3531,
      "firm": 3532,
      "numer": 3533,
      "signal": 3534,
      "writ": 3535,
      "graphic": 3536,
      "dark": 3537,
      "eye": 3538,
      "experts": 3539,
      "inspection": 3540,
      "ocean": 3541,
      "05": 3542,
      "42": 3543,
      "gm": 3544,
      "jer": 3545,
      "length": 3546,
      "mes": 3547,
      "oct": 3548,
      "anch": 3549,
      "ceed": 3550,
      "idents": 3551,
      "map": 3552,
      "dire": 3553,
      "spac": 3554,
      "powerful": 3555,
      "corpor": 3556,
      "positive": 3557,
      "charging": 3558,
      "locations": 3559,
      "cloth": 3560,
      "policy": 3561,
      "associated": 3562,
      "horsepower": 3563,
      "extremely": 3564,
      "eth": 3565,
      "fresh": 3566,
      "sep": 3567,
      "conduct": 3568,
      "plast": 3569,
      "essential": 3570,
      "serve": 3571,
      "boost": 3572,
      "util": 3573,
      "ships": 3574,
      "milit": 3575,
      "fication": 3576,
      "download": 3577,
      "hydr": 3578,
      "generation": 3579,
      "requirements": 3580,
      "asked": 3581,
      "responsible": 3582,
      "burg": 3583,
      "shift": 3584,
      "bottom": 3585,
      "gt": 3586,
      "hitch": 3587,
      "lat": 3588,
      "ental": 3589,
      "tips": 3590,
      "keys": 3591,
      "ura": 3592,
      "shaf": 3593,
      "exam": 3594,
      "quite": 3595,
      "server": 3596,
      "prep": 3597,
      "dak": 3598,
      "held": 3599,
      "pleas": 3600,
      "listed": 3601,
      "fitted": 3602,
      "images": 3603,
      "manufacturers": 3604,
      "adjustable": 3605,
      "scientific": 3606,
      "guarantee": 3607,
      "federal": 3608,
      "strength": 3609,
      "liquid": 3610,
      "haps": 3611,
      "lor": 3612,
      "core": 3613,
      "beat": 3614,
      "bear": 3615,
      "mph": 3616,
      "perhaps": 3617,
      "itself": 3618,
      "prest": 3619,
      "coll": 3620,
      "coln": 3621,
      "office": 3622,
      "changed": 3623,
      "lincoln": 3624,
      "nature": 3625,
      "reviewed": 3626,
      "circum": 3627,
      "sources": 3628,
      "suitable": 3629,
      "independent": 3630,
      "genuine": 3631,
      "traffic": 3632,
      "favor": 3633,
      "french": 3634,
      "lord": 3635,
      "xim": 3636,
      "thre": 3637,
      "innov": 3638,
      "lease": 3639,
      "express": 3640,
      "compar": 3641,
      "button": 3642,
      "achieve": 3643,
      "factor": 3644,
      "everyone": 3645,
      "1996": 3646,
      "closed": 3647,
      "detailed": 3648,
      "court": 3649,
      "panel": 3650,
      "recommended": 3651,
      "camaro": 3652,
      "methods": 3653,
      "89": 3654,
      "fine": 3655,
      "hour": 3656,
      "night": 3657,
      "pal": 3658,
      "advert": 3659,
      "usb": 3660,
      "ressive": 3661,
      "western": 3662,
      "olf": 3663,
      "2021": 3664,
      "goes": 3665,
      "ference": 3666,
      "discover": 3667,
      "calcul": 3668,
      "otes": 3669,
      "increasing": 3670,
      "seller": 3671,
      "balance": 3672,
      "complex": 3673,
      "growing": 3674,
      "didn": 3675,
      "movement": 3676,
      "distance": 3677,
      "photos": 3678,
      "existing": 3679,
      "scale": 3680,
      "aks": 3681,
      "egy": 3682,
      "fy": 3683,
      "kar": 3684,
      "pip": 3685,
      "advent": 3686,
      "convent": 3687,
      "bure": 3688,
      "upgrade": 3689,
      "effort": 3690,
      "roll": 3691,
      "rank": 3692,
      "charles": 3693,
      "transfer": 3694,
      "attle": 3695,
      "approved": 3696,
      "analysis": 3697,
      "tube": 3698,
      "financial": 3699,
      "convenient": 3700,
      "tesla": 3701,
      "chemical": 3702,
      "agricultural": 3703,
      "02": 3704,
      "350": 3705,
      "gi": 3706,
      "gin": 3707,
      "chance": 3708,
      "suf": 3709,
      "rims": 3710,
      "compare": 3711,
      "formed": 3712,
      "ously": 3713,
      "crit": 3714,
      "techni": 3715,
      "fiat": 3716,
      "skills": 3717,
      "legisl": 3718,
      "constitution": 3719,
      "sizes": 3720,
      "numerous": 3721,
      "dakota": 3722,
      "01": 3723,
      "bing": 3724,
      "hall": 3725,
      "pmid": 3726,
      "sit": 3727,
      "atures": 3728,
      "alu": 3729,
      "carfax": 3730,
      "shar": 3731,
      "actual": 3732,
      "upd": 3733,
      "assess": 3734,
      "preser": 3735,
      "anywhere": 3736,
      "seems": 3737,
      "handling": 3738,
      "runs": 3739,
      "write": 3740,
      "facility": 3741,
      "edule": 3742,
      "priced": 3743,
      "official": 3744,
      "rubber": 3745,
      "split": 3746,
      "76": 3747,
      "bank": 3748,
      "hill": 3749,
      "ky": 3750,
      "nc": 3751,
      "tro": 3752,
      "v6": 3753,
      "rebuild": 3754,
      "users": 3755,
      "tember": 3756,
      "augh": 3757,
      "yourself": 3758,
      "spend": 3759,
      "howo": 3760,
      "counts": 3761,
      "buyer": 3762,
      "finding": 3763,
      "media": 3764,
      "believe": 3765,
      "roads": 3766,
      "membr": 3767,
      "metall": 3768,
      "southern": 3769,
      "typically": 3770,
      "began": 3771,
      "private": 3772,
      "exactly": 3773,
      "beauti": 3774,
      "immediately": 3775,
      "demonstr": 3776,
      "september": 3777,
      "military": 3778,
      "din": 3779,
      "election": 3780,
      "gau": 3781,
      "ideal": 3782,
      "wat": 3783,
      "wed": 3784,
      "za": 3785,
      "acid": 3786,
      "ilies": 3787,
      "lost": 3788,
      "uring": 3789,
      "nothing": 3790,
      "exchange": 3791,
      "mentary": 3792,
      "poor": 3793,
      "notice": 3794,
      "civil": 3795,
      "ounds": 3796,
      "fran": 3797,
      "someone": 3798,
      "possi": 3799,
      "buys": 3800,
      "talk": 3801,
      "timing": 3802,
      "haul": 3803,
      "june": 3804,
      "aware": 3805,
      "sensor": 3806,
      "ological": 3807,
      "brown": 3808,
      "april": 3809,
      "4wd": 3810,
      "cm": 3811,
      "dle": 3812,
      "rd": 3813,
      "tum": 3814,
      "tend": 3815,
      "inhi": 3816,
      "influ": 3817,
      "reb": 3818,
      "onto": 3819,
      "stick": 3820,
      "coast": 3821,
      "mode": 3822,
      "exe": 3823,
      "english": 3824,
      "istics": 3825,
      "delay": 3826,
      "jud": 3827,
      "himself": 3828,
      "birds": 3829,
      "schedule": 3830,
      "wonder": 3831,
      "continued": 3832,
      "welcome": 3833,
      "detect": 3834,
      "language": 3835,
      "metallic": 3836,
      "900": 3837,
      "broad": 3838,
      "dol": 3839,
      "hit": 3840,
      "mou": 3841,
      "mas": 3842,
      "ume": 3843,
      "infin": 3844,
      "align": 3845,
      "iced": 3846,
      "chap": 3847,
      "demo": 3848,
      "mete": 3849,
      "nego": 3850,
      "uration": 3851,
      "tele": 3852,
      "bump": 3853,
      "mental": 3854,
      "fection": 3855,
      "heart": 3856,
      "rails": 3857,
      "discount": 3858,
      "evidence": 3859,
      "institute": 3860,
      "1998": 3861,
      "huge": 3862,
      "dedic": 3863,
      "july": 3864,
      "trailers": 3865,
      "response": 3866,
      "extended": 3867,
      "devices": 3868,
      "understanding": 3869,
      "interested": 3870,
      "shape": 3871,
      "africa": 3872,
      "lexus": 3873,
      "negoti": 3874,
      "award": 3875,
      "bow": 3876,
      "crow": 3877,
      "ebay": 3878,
      "fs": 3879,
      "fel": 3880,
      "jack": 3881,
      "rout": 3882,
      "rated": 3883,
      "sand": 3884,
      "slight": 3885,
      "edm": 3886,
      "superi": 3887,
      "ables": 3888,
      "plat": 3889,
      "illed": 3890,
      "calls": 3891,
      "1997": 3892,
      "worldwide": 3893,
      "shopping": 3894,
      "groups": 3895,
      "legal": 3896,
      "satell": 3897,
      "stream": 3898,
      "properly": 3899,
      "practice": 3900,
      "advantage": 3901,
      "meaning": 3902,
      "record": 3903,
      "alexander": 3904,
      "louis": 3905,
      "dirt": 3906,
      "superior": 3907,
      "gal": 3908,
      "jet": 3909,
      "atmo": 3910,
      "determ": 3911,
      "determin": 3912,
      "ples": 3913,
      "fear": 3914,
      "optim": 3915,
      "doi": 3916,
      "otherwise": 3917,
      "evolution": 3918,
      "evalu": 3919,
      "worked": 3920,
      "logy": 3921,
      "belts": 3922,
      "primary": 3923,
      "harley": 3924,
      "particularly": 3925,
      "measure": 3926,
      "patients": 3927,
      "replaced": 3928,
      "appearance": 3929,
      "http": 3930,
      "prestig": 3931,
      "atmosp": 3932,
      "determine": 3933,
      "tac": 3934,
      "ux": 3935,
      "inactivation": 3936,
      "atv": 3937,
      "eding": 3938,
      "chi": 3939,
      "mption": 3940,
      "abilities": 3941,
      "promo": 3942,
      "saw": 3943,
      "presents": 3944,
      "flor": 3945,
      "ivity": 3946,
      "guid": 3947,
      "trying": 3948,
      "fortun": 3949,
      "families": 3950,
      "lancia": 3951,
      "suvs": 3952,
      "friends": 3953,
      "flood": 3954,
      "constant": 3955,
      "integrated": 3956,
      "extreme": 3957,
      "animal": 3958,
      "applied": 3959,
      "compatible": 3960,
      "prair": 3961,
      "jun": 3962,
      "lx": 3963,
      "nar": 3964,
      "psy": 3965,
      "pors": 3966,
      "xic": 3967,
      "inde": 3968,
      "mples": 3969,
      "contr": 3970,
      "kee": 3971,
      "ida": 3972,
      "libr": 3973,
      "illumin": 3974,
      "march": 3975,
      "colon": 3976,
      "gene": 3977,
      "tainment": 3978,
      "windscreen": 3979,
      "survi": 3980,
      "volume": 3981,
      "purchasing": 3982,
      "keeping": 3983,
      "iii": 3984,
      "cooling": 3985,
      "storm": 3986,
      "scoo": 3987,
      "objects": 3988,
      "davidson": 3989,
      "involved": 3990,
      "amazing": 3991,
      "airbags": 3992,
      "assemb": 3993,
      "behavior": 3994,
      "plastic": 3995,
      "shaft": 3996,
      "87": 3997,
      "bb": 3998,
      "bri": 3999,
      "east": 4000,
      "hay": 4001,
      "nine": 4002,
      "pit": 4003,
      "vw": 4004,
      "yellow": 4005,
      "intake": 4006,
      "err": 4007,
      "enthus": 4008,
      "itely": 4009,
      "mod": 4010,
      "lots": 4011,
      "wee": 4012,
      "die": 4013,
      "diversity": 4014,
      "apple": 4015,
      "party": 4016,
      "points": 4017,
      "update": 4018,
      "gray": 4019,
      "bright": 4020,
      "hook": 4021,
      "critical": 4022,
      "listing": 4023,
      "northern": 4024,
      "coverage": 4025,
      "sino": 4026,
      "purchased": 4027,
      "coupe": 4028,
      "tracking": 4029,
      "reflect": 4030,
      "willi": 4031,
      "parents": 4032,
      "doctor": 4033,
      "thousands": 4034,
      "enthusi": 4035,
      "bly": 4036,
      "dict": 4037,
      "md": 4038,
      "pto": 4039,
      "q2": 4040,
      "vans": 4041,
      "xle": 4042,
      "reh": 4043,
      "repe": 4044,
      "rod": 4045,
      "neigh": 4046,
      "und": 4047,
      "exc": 4048,
      "dim": 4049,
      "plans": 4050,
      "tag": 4051,
      "hear": 4052,
      "asts": 4053,
      "events": 4054,
      "command": 4055,
      "caused": 4056,
      "electr": 4057,
      "fitting": 4058,
      "developing": 4059,
      "folding": 4060,
      "poll": 4061,
      "giving": 4062,
      "voice": 4063,
      "selected": 4064,
      "reasons": 4065,
      "association": 4066,
      "expected": 4067,
      "acqua": 4068,
      "sleep": 4069,
      "british": 4070,
      "meteor": 4071,
      "dwar": 4072,
      "fab": 4073,
      "hgf": 4074,
      "jac": 4075,
      "kh": 4076,
      "ming": 4077,
      "pow": 4078,
      "onic": 4079,
      "stage": 4080,
      "escape": 4081,
      "elds": 4082,
      "sus": 4083,
      "conserv": 4084,
      "iring": 4085,
      "unless": 4086,
      "carbure": 4087,
      "ries": 4088,
      "heater": 4089,
      "steps": 4090,
      "hope": 4091,
      "marine": 4092,
      "howard": 4093,
      "whose": 4094,
      "possess": 4095,
      "lamps": 4096,
      "visual": 4097,
      "mounting": 4098,
      "male": 4099,
      "populations": 4100,
      "nsville": 4101,
      "announ": 4102,
      "magnet": 4103,
      "separate": 4104,
      "porsche": 4105,
      "aid": 4106,
      "bt": 4107,
      "fold": 4108,
      "kans": 4109,
      "q1": 4110,
      "rig": 4111,
      "rise": 4112,
      "recept": 4113,
      "station": 4114,
      "deci": 4115,
      "wid": 4116,
      "wipers": 4117,
      "trunk": 4118,
      "plenty": 4119,
      "feet": 4120,
      "clin": 4121,
      "goal": 4122,
      "compreh": 4123,
      "france": 4124,
      "colum": 4125,
      "corol": 4126,
      "counter": 4127,
      "charges": 4128,
      "occup": 4129,
      "removal": 4130,
      "hiace": 4131,
      "schools": 4132,
      "brownsville": 4133,
      "practical": 4134,
      "hunting": 4135,
      "combination": 4136,
      "definitely": 4137,
      "scientists": 4138,
      "princi": 4139,
      "cycles": 4140,
      "document": 4141,
      "category": 4142,
      "siriusxm": 4143,
      "infiniti": 4144,
      "kansas": 4145,
      "08": 4146,
      "09": 4147,
      "700": 4148,
      "ki": 4149,
      "sel": 4150,
      "va": 4151,
      "attemp": 4152,
      "acade": 4153,
      "chip": 4154,
      "coal": 4155,
      "trou": 4156,
      "loan": 4157,
      "iday": 4158,
      "lim": 4159,
      "apy": 4160,
      "desp": 4161,
      "centre": 4162,
      "salv": 4163,
      "useful": 4164,
      "diff": 4165,
      "seem": 4166,
      "submit": 4167,
      "apped": 4168,
      "joint": 4169,
      "optional": 4170,
      "capable": 4171,
      "drum": 4172,
      "osing": 4173,
      "appropri": 4174,
      "leader": 4175,
      "colorado": 4176,
      "professor": 4177,
      "gave": 4178,
      "organis": 4179,
      "orders": 4180,
      "tempor": 4181,
      "machine": 4182,
      "beginning": 4183,
      "ieved": 4184,
      "beautiful": 4185,
      "prairie": 4186,
      "56": 4187,
      "ba": 4188,
      "cies": 4189,
      "fight": 4190,
      "ibility": 4191,
      "rand": 4192,
      "rust": 4193,
      "tour": 4194,
      "ink": 4195,
      "ille": 4196,
      "moto": 4197,
      "mp3": 4198,
      "aul": 4199,
      "exten": 4200,
      "amin": 4201,
      "upper": 4202,
      "saf": 4203,
      "earli": 4204,
      "pressures": 4205,
      "hosp": 4206,
      "logical": 4207,
      "cry": 4208,
      "engineering": 4209,
      "obvious": 4210,
      "lamp": 4211,
      "cheap": 4212,
      "gler": 4213,
      "increases": 4214,
      "testing": 4215,
      "sky": 4216,
      "specifically": 4217,
      "mustang": 4218,
      "electricity": 4219,
      "bird": 4220,
      "rentals": 4221,
      "axle": 4222,
      "browse": 4223,
      "supplies": 4224,
      "elements": 4225,
      "monitoring": 4226,
      "square": 4227,
      "dynamic": 4228,
      "threat": 4229,
      "03": 4230,
      "kg": 4231,
      "phas": 4232,
      "rare": 4233,
      "init": 4234,
      "inject": 4235,
      "ston": 4236,
      "neur": 4237,
      "proof": 4238,
      "nove": 4239,
      "noise": 4240,
      "grass": 4241,
      "utility": 4242,
      "ester": 4243,
      "mats": 4244,
      "minor": 4245,
      "jection": 4246,
      "finally": 4247,
      "lighting": 4248,
      "hero": 4249,
      "durability": 4250,
      "mix": 4251,
      "manufactured": 4252,
      "communities": 4253,
      "approxim": 4254,
      "bullying": 4255,
      "certainly": 4256,
      "functional": 4257,
      "graph": 4258,
      "completed": 4259,
      "fixed": 4260,
      "prince": 4261,
      "status": 4262,
      "animals": 4263,
      "reserve": 4264,
      "fruit": 4265,
      "australia": 4266,
      "technicians": 4267,
      "collis": 4268,
      "membrane": 4269,
      "bumpers": 4270,
      "satellite": 4271,
      "assembly": 4272,
      "electrical": 4273,
      "66": 4274,
      "gent": 4275,
      "gay": 4276,
      "pat": 4277,
      "ture": 4278,
      "inct": 4279,
      "insul": 4280,
      "inspect": 4281,
      "stable": 4282,
      "told": 4283,
      "elim": 4284,
      "tible": 4285,
      "brac": 4286,
      "pressed": 4287,
      "causes": 4288,
      "regi": 4289,
      "surpr": 4290,
      "surgery": 4291,
      "purpose": 4292,
      "connection": 4293,
      "sedan": 4294,
      "hardware": 4295,
      "restor": 4296,
      "organization": 4297,
      "communication": 4298,
      "medicine": 4299,
      "introduced": 4300,
      "rapid": 4301,
      "battle": 4302,
      "ether": 4303,
      "golf": 4304,
      "hom": 4305,
      "hous": 4306,
      "james": 4307,
      "pun": 4308,
      "ration": 4309,
      "swe": 4310,
      "slip": 4311,
      "tight": 4312,
      "wran": 4313,
      "isra": 4314,
      "ica": 4315,
      "leaves": 4316,
      "eler": 4317,
      "dead": 4318,
      "depos": 4319,
      "terrain": 4320,
      "soph": 4321,
      "bucket": 4322,
      "ager": 4323,
      "dome": 4324,
      "camp": 4325,
      "durable": 4326,
      "additionally": 4327,
      "identify": 4328,
      "smaller": 4329,
      "broken": 4330,
      "projects": 4331,
      "accord": 4332,
      "answers": 4333,
      "remains": 4334,
      "failure": 4335,
      "prestige": 4336,
      "israel": 4337,
      "ape": 4338,
      "cs": 4339,
      "file": 4340,
      "ially": 4341,
      "kin": 4342,
      "tch": 4343,
      "atory": 4344,
      "ises": 4345,
      "aspect": 4346,
      "account": 4347,
      "cook": 4348,
      "mother": 4349,
      "moment": 4350,
      "geo": 4351,
      "config": 4352,
      "tie": 4353,
      "cards": 4354,
      "maha": 4355,
      "lies": 4356,
      "bug": 4357,
      "diet": 4358,
      "mention": 4359,
      "pray": 4360,
      "ends": 4361,
      "symp": 4362,
      "brought": 4363,
      "foli": 4364,
      "diseas": 4365,
      "colors": 4366,
      "availability": 4367,
      "1990": 4368,
      "towards": 4369,
      "tractors": 4370,
      "director": 4371,
      "specifications": 4372,
      "occurs": 4373,
      "release": 4374,
      "exceptional": 4375,
      "opportunities": 4376,
      "written": 4377,
      "dollar": 4378,
      "mouth": 4379,
      "scooter": 4380,
      "dwarf": 4381,
      "corolla": 4382,
      "initial": 4383,
      "elimin": 4384,
      "diseases": 4385,
      "61": 4386,
      "cad": 4387,
      "eight": 4388,
      "hop": 4389,
      "kno": 4390,
      "spark": 4391,
      "vill": 4392,
      "input": 4393,
      "thesis": 4394,
      "stress": 4395,
      "alle": 4396,
      "ari": 4397,
      "arts": 4398,
      "lets": 4399,
      "coat": 4400,
      "admini": 4401,
      "card": 4402,
      "lives": 4403,
      "wet": 4404,
      "proud": 4405,
      "span": 4406,
      "presence": 4407,
      "berg": 4408,
      "izations": 4409,
      "salt": 4410,
      "hyper": 4411,
      "strugg": 4412,
      "idea": 4413,
      "tests": 4414,
      "batteries": 4415,
      "manufacturing": 4416,
      "clearly": 4417,
      "cisco": 4418,
      "foods": 4419,
      "oxide": 4420,
      "mechanical": 4421,
      "destination": 4422,
      "tuning": 4423,
      "individuals": 4424,
      "speaker": 4425,
      "competitive": 4426,
      "patient": 4427,
      "cros": 4428,
      "observed": 4429,
      "august": 4430,
      "mobiles": 4431,
      "pretty": 4432,
      "solutions": 4433,
      "democr": 4434,
      "safely": 4435,
      "november": 4436,
      "57": 4437,
      "dress": 4438,
      "eb": 4439,
      "hone": 4440,
      "kel": 4441,
      "rup": 4442,
      "vac": 4443,
      "zed": 4444,
      "zing": 4445,
      "inf": 4446,
      "stro": 4447,
      "stere": 4448,
      "alp": 4449,
      "acura": 4450,
      "chron": 4451,
      "moist": 4452,
      "union": 4453,
      "pear": 4454,
      "dial": 4455,
      "illust": 4456,
      "dust": 4457,
      "saint": 4458,
      "drives": 4459,
      "impr": 4460,
      "minim": 4461,
      "genet": 4462,
      "jewish": 4463,
      "counties": 4464,
      "fiber": 4465,
      "voltage": 4466,
      "german": 4467,
      "crimin": 4468,
      "vanity": 4469,
      "wait": 4470,
      "operations": 4471,
      "operating": 4472,
      "atively": 4473,
      "approval": 4474,
      "seconds": 4475,
      "cleaning": 4476,
      "transportation": 4477,
      "majority": 4478,
      "meeting": 4479,
      "estimated": 4480,
      "spoil": 4481,
      "instrument": 4482,
      "challeng": 4483,
      "hurric": 4484,
      "classified": 4485,
      "astern": 4486,
      "opportunity": 4487,
      "accuracy": 4488,
      "exercise": 4489,
      "message": 4490,
      "consumption": 4491,
      "texas": 4492,
      "agreement": 4493,
      "salvage": 4494,
      "appropriate": 4495,
      "approximately": 4496,
      "wrangler": 4497,
      "eat": 4498,
      "fing": 4499,
      "father": 4500,
      "knew": 4501,
      "tren": 4502,
      "wis": 4503,
      "island": 4504,
      "lebr": 4505,
      "ilit": 4506,
      "forces": 4507,
      "adblue": 4508,
      "nee": 4509,
      "console": 4510,
      "celebr": 4511,
      "units": 4512,
      "bust": 4513,
      "agency": 4514,
      "ending": 4515,
      "intell": 4516,
      "greg": 4517,
      "imple": 4518,
      "engineered": 4519,
      "controlled": 4520,
      "headlight": 4521,
      "reduction": 4522,
      "filters": 4523,
      "connected": 4524,
      "allowing": 4525,
      "sounds": 4526,
      "eyes": 4527,
      "shock": 4528,
      "resistance": 4529,
      "enhance": 4530,
      "decrease": 4531,
      "citizen": 4532,
      "weeks": 4533,
      "carburetor": 4534,
      "despite": 4535,
      "59": 4536,
      "72": 4537,
      "band": 4538,
      "hes": 4539,
      "pp": 4540,
      "vity": 4541,
      "inv": 4542,
      "ony": 4543,
      "encour": 4544,
      "tober": 4545,
      "roo": 4546,
      "roman": 4547,
      "whom": 4548,
      "concept": 4549,
      "consum": 4550,
      "contribut": 4551,
      "kept": 4552,
      "auctions": 4553,
      "amic": 4554,
      "quotes": 4555,
      "febr": 4556,
      "domin": 4557,
      "print": 4558,
      "grille": 4559,
      "paid": 4560,
      "automobiles": 4561,
      "brush": 4562,
      "formation": 4563,
      "ishi": 4564,
      "cris": 4565,
      "changing": 4566,
      "portion": 4567,
      "choosing": 4568,
      "helped": 4569,
      "calling": 4570,
      "survey": 4571,
      "timate": 4572,
      "october": 4573,
      "turned": 4574,
      "bars": 4575,
      "inches": 4576,
      "dealerships": 4577,
      "protected": 4578,
      "contains": 4579,
      "maryland": 4580,
      "pipe": 4581,
      "quarter": 4582,
      "classification": 4583,
      "billion": 4584,
      "russian": 4585,
      "spirit": 4586,
      "situation": 4587,
      "titanium": 4588,
      "implement": 4589,
      "february": 4590,
      "04": 4591,
      "69": 4592,
      "gun": 4593,
      "gard": 4594,
      "hang": 4595,
      "zu": 4596,
      "anced": 4597,
      "orge": 4598,
      "orange": 4599,
      "arrange": 4600,
      "chick": 4601,
      "seven": 4602,
      "beach": 4603,
      "moved": 4604,
      "amg": 4605,
      "spin": 4606,
      "boot": 4607,
      "viol": 4608,
      "workers": 4609,
      "turf": 4610,
      "forest": 4611,
      "warm": 4612,
      "valu": 4613,
      "stored": 4614,
      "sett": 4615,
      "radiator": 4616,
      "described": 4617,
      "ltd": 4618,
      "records": 4619,
      "amazon": 4620,
      "pheas": 4621,
      "dream": 4622,
      "yamaha": 4623,
      "dividend": 4624,
      "registered": 4625,
      "dedicated": 4626,
      "comprehensive": 4627,
      "1000": 4628,
      "ae": 4629,
      "ahead": 4630,
      "lation": 4631,
      "none": 4632,
      "pg": 4633,
      "swi": 4634,
      "tilt": 4635,
      "infect": 4636,
      "alarm": 4637,
      "cooper": 4638,
      "sect": 4639,
      "veget": 4640,
      "beats": 4641,
      "wiper": 4642,
      "exclus": 4643,
      "ultimate": 4644,
      "clut": 4645,
      "cient": 4646,
      "intended": 4647,
      "crew": 4648,
      "blind": 4649,
      "adds": 4650,
      "specs": 4651,
      "locate": 4652,
      "tested": 4653,
      "passed": 4654,
      "wrap": 4655,
      "followed": 4656,
      "monthly": 4657,
      "sunroof": 4658,
      "itude": 4659,
      "sensors": 4660,
      "alternative": 4661,
      "convertible": 4662,
      "gateway": 4663,
      "frequently": 4664,
      "explore": 4665,
      "slightly": 4666,
      "aur": 4667,
      "mac": 4668,
      "nic": 4669,
      "oh": 4670,
      "sn": 4671,
      "zer": 4672,
      "ana": 4673,
      "reve": 4674,
      "enzy": 4675,
      "encies": 4676,
      "alone": 4677,
      "army": 4678,
      "chur": 4679,
      "sey": 4680,
      "adul": 4681,
      "resolution": 4682,
      "prophe": 4683,
      "weak": 4684,
      "thermal": 4685,
      "older": 4686,
      "qui": 4687,
      "ultra": 4688,
      "2022": 4689,
      "spor": 4690,
      "bru": 4691,
      "strateg": 4692,
      "assis": 4693,
      "former": 4694,
      "liner": 4695,
      "resulted": 4696,
      "writing": 4697,
      "famous": 4698,
      "imag": 4699,
      "responsi": 4700,
      "armrest": 4701,
      "cleaner": 4702,
      "trained": 4703,
      "middle": 4704,
      "allowed": 4705,
      "names": 4706,
      "absor": 4707,
      "fleet": 4708,
      "successful": 4709,
      "acceler": 4710,
      "diameter": 4711,
      "measures": 4712,
      "walk": 4713,
      "advice": 4714,
      "reports": 4715,
      "pattern": 4716,
      "updated": 4717,
      "receptor": 4718,
      "extensive": 4719,
      "phase": 4720,
      "collision": 4721,
      "intellig": 4722,
      "120": 4723,
      "68": 4724,
      "78": 4725,
      "bic": 4726,
      "mur": 4727,
      "ored": 4728,
      "pil": 4729,
      "q4": 4730,
      "rati": 4731,
      "infl": 4732,
      "ismo": 4733,
      "elph": 4734,
      "cep": 4735,
      "prom": 4736,
      "proced": 4737,
      "progress": 4738,
      "therapy": 4739,
      "ighter": 4740,
      "haz": 4741,
      "rav": 4742,
      "notes": 4743,
      "compli": 4744,
      "host": 4745,
      "commonly": 4746,
      "rolling": 4747,
      "partner": 4748,
      "ensity": 4749,
      "ensions": 4750,
      "adding": 4751,
      "twin": 4752,
      "helping": 4753,
      "heads": 4754,
      "subar": 4755,
      "instant": 4756,
      "occas": 4757,
      "removed": 4758,
      "virgin": 4759,
      "thinking": 4760,
      "muscle": 4761,
      "faster": 4762,
      "sensitive": 4763,
      "cabin": 4764,
      "kinds": 4765,
      "performed": 4766,
      "representatives": 4767,
      "reference": 4768,
      "carrier": 4769,
      "delivered": 4770,
      "technical": 4771,
      "privacy": 4772,
      "double": 4773,
      "licensing": 4774,
      "drugs": 4775,
      "comparison": 4776,
      "pipel": 4777,
      "florida": 4778,
      "neighbor": 4779,
      "63": 4780,
      "6x4": 4781,
      "fat": 4782,
      "gment": 4783,
      "knee": 4784,
      "las": 4785,
      "mich": 4786,
      "ometer": 4787,
      "pod": 4788,
      "task": 4789,
      "thy": 4790,
      "injection": 4791,
      "ona": 4792,
      "onco": 4793,
      "atis": 4794,
      "itut": 4795,
      "chic": 4796,
      "advis": 4797,
      "mole": 4798,
      "los": 4799,
      "cemeter": 4800,
      "proto": 4801,
      "iding": 4802,
      "bute": 4803,
      "quad": 4804,
      "compos": 4805,
      "elling": 4806,
      "pair": 4807,
      "branch": 4808,
      "formul": 4809,
      "corp": 4810,
      "poses": 4811,
      "rought": 4812,
      "guys": 4813,
      "subscri": 4814,
      "stuff": 4815,
      "differences": 4816,
      "signs": 4817,
      "student": 4818,
      "lane": 4819,
      "panels": 4820,
      "places": 4821,
      "shore": 4822,
      "vinyl": 4823,
      "previously": 4824,
      "humili": 4825,
      "regarding": 4826,
      "golden": 4827,
      "russia": 4828,
      "distribution": 4829,
      "execu": 4830,
      "fortunately": 4831,
      "width": 4832,
      "moisture": 4833,
      "church": 4834,
      "subaru": 4835,
      "53": 4836,
      "74": 4837,
      "hatch": 4838,
      "kay": 4839,
      "mice": 4840,
      "mally": 4841,
      "pc": 4842,
      "pac": 4843,
      "tent": 4844,
      "tree": 4845,
      "vation": 4846,
      "thread": 4847,
      "income": 4848,
      "ancient": 4849,
      "alert": 4850,
      "accent": 4851,
      "forum": 4852,
      "adelph": 4853,
      "trac": 4854,
      "congress": 4855,
      "confirm": 4856,
      "ament": 4857,
      "outstanding": 4858,
      "aving": 4859,
      "truly": 4860,
      "bert": 4861,
      "commiss": 4862,
      "letter": 4863,
      "foreign": 4864,
      "guard": 4865,
      "lightning": 4866,
      "designs": 4867,
      "1500": 4868,
      "lifetime": 4869,
      "waste": 4870,
      "springs": 4871,
      "sensing": 4872,
      "bridge": 4873,
      "properties": 4874,
      "annual": 4875,
      "petrol": 4876,
      "philadelph": 4877,
      "cumber": 4878,
      "speakers": 4879,
      "craft": 4880,
      "fanta": 4881,
      "cataly": 4882,
      "secret": 4883,
      "francisco": 4884,
      "inhibit": 4885,
      "illuminated": 4886,
      "decide": 4887,
      "trouble": 4888,
      "crisis": 4889,
      "51": 4890,
      "52": 4891,
      "93": 4892,
      "bits": 4893,
      "epa": 4894,
      "gon": 4895,
      "hr": 4896,
      "pounds": 4897,
      "sv": 4898,
      "sine": 4899,
      "ano": 4900,
      "anes": 4901,
      "enge": 4902,
      "isu": 4903,
      "rods": 4904,
      "bearing": 4905,
      "mploy": 4906,
      "arest": 4907,
      "teen": 4908,
      "dip": 4909,
      "appreci": 4910,
      "illing": 4911,
      "tages": 4912,
      "enders": 4913,
      "pain": 4914,
      "creating": 4915,
      "berries": 4916,
      "izes": 4917,
      "turning": 4918,
      "mud": 4919,
      "muf": 4920,
      "studied": 4921,
      "ification": 4922,
      "setting": 4923,
      "proteins": 4924,
      "police": 4925,
      "nearby": 4926,
      "operate": 4927,
      "expand": 4928,
      "reducing": 4929,
      "loyal": 4930,
      "wards": 4931,
      "grown": 4932,
      "culinary": 4933,
      "loaded": 4934,
      "loading": 4935,
      "manuals": 4936,
      "bolts": 4937,
      "couple": 4938,
      "labour": 4939,
      "named": 4940,
      "investment": 4941,
      "scrap": 4942,
      "carried": 4943,
      "explor": 4944,
      "suggests": 4945,
      "satisfied": 4946,
      "sustainable": 4947,
      "london": 4948,
      "baby": 4949,
      "fabric": 4950,
      "hospital": 4951,
      "spoiler": 4952,
      "clutch": 4953,
      "commission": 4954,
      "philadelphia": 4955,
      "0l": 4956,
      "drought": 4957,
      "ez": 4958,
      "eastern": 4959,
      "gap": 4960,
      "gone": 4961,
      "gif": 4962,
      "gmc": 4963,
      "lb": 4964,
      "mine": 4965,
      "pag": 4966,
      "rick": 4967,
      "sli": 4968,
      "vig": 4969,
      "vents": 4970,
      "wing": 4971,
      "yo": 4972,
      "thom": 4973,
      "renew": 4974,
      "thetic": 4975,
      "iso": 4976,
      "asd": 4977,
      "asks": 4978,
      "forts": 4979,
      "chassis": 4980,
      "sudan": 4981,
      "ares": 4982,
      "nearest": 4983,
      "consul": 4984,
      "contract": 4985,
      "usion": 4986,
      "lif": 4987,
      "shut": 4988,
      "excess": 4989,
      "amy": 4990,
      "dom": 4991,
      "pregn": 4992,
      "driven": 4993,
      "finished": 4994,
      "portfoli": 4995,
      "1800": 4996,
      "1994": 4997,
      "harm": 4998,
      "payments": 4999,
      "foundation": 5000,
      "continental": 5001,
      "severe": 5002,
      "temperatures": 5003,
      "santa": 5004,
      "professionals": 5005,
      "wagon": 5006,
      "recorded": 5007,
      "pieces": 5008,
      "taxes": 5009,
      "target": 5010,
      "modific": 5011,
      "attached": 5012,
      "teles": 5013,
      "nasa": 5014,
      "habitat": 5015,
      "immig": 5016,
      "gallery": 5017,
      "egypt": 5018,
      "adventure": 5019,
      "waters": 5020,
      "william": 5021,
      "stereo": 5022,
      "imprint": 5023,
      "fantastic": 5024,
      "muffl": 5025,
      "portfolio": 5026,
      "370": 5027,
      "450": 5028,
      "96": 5029,
      "ame": 5030,
      "cable": 5031,
      "fly": 5032,
      "gir": 5033,
      "hen": 5034,
      "hid": 5035,
      "ib": 5036,
      "mont": 5037,
      "reaction": 5038,
      "reverse": 5039,
      "orch": 5040,
      "toms": 5041,
      "leak": 5042,
      "roid": 5043,
      "territ": 5044,
      "unlike": 5045,
      "soil": 5046,
      "rim": 5047,
      "tape": 5048,
      "complic": 5049,
      "prepar": 5050,
      "truk": 5051,
      "genes": 5052,
      "seating": 5053,
      "greatly": 5054,
      "views": 5055,
      "backup": 5056,
      "knowing": 5057,
      "1993": 5058,
      "showing": 5059,
      "planning": 5060,
      "stery": 5061,
      "effectively": 5062,
      "resulting": 5063,
      "automatically": 5064,
      "cultural": 5065,
      "humans": 5066,
      "spray": 5067,
      "reliability": 5068,
      "darwin": 5069,
      "returned": 5070,
      "supplier": 5071,
      "mechanic": 5072,
      "benefit": 5073,
      "destroy": 5074,
      "instructions": 5075,
      "pull": 5076,
      "decades": 5077,
      "affected": 5078,
      "royal": 5079,
      "catalog": 5080,
      "upgraded": 5081,
      "bearings": 5082,
      "gauge": 5083,
      "crosso": 5084,
      "thomas": 5085,
      "71": 5086,
      "dll": 5087,
      "kers": 5088,
      "oma": 5089,
      "sr": 5090,
      "sight": 5091,
      "tout": 5092,
      "iny": 5093,
      "rebuilt": 5094,
      "iser": 5095,
      "leaving": 5096,
      "degree": 5097,
      "beta": 5098,
      "whate": 5099,
      "georg": 5100,
      "george": 5101,
      "concent": 5102,
      "proposed": 5103,
      "carol": 5104,
      "weap": 5105,
      "expo": 5106,
      "buick": 5107,
      "spread": 5108,
      "bric": 5109,
      "serving": 5110,
      "stron": 5111,
      "strate": 5112,
      "creation": 5113,
      "discovered": 5114,
      "discrimin": 5115,
      "centers": 5116,
      "correspon": 5117,
      "braided": 5118,
      "provider": 5119,
      "toward": 5120,
      "networking": 5121,
      "ideas": 5122,
      "statement": 5123,
      "motorcycles": 5124,
      "packages": 5125,
      "lubric": 5126,
      "carefully": 5127,
      "racks": 5128,
      "examples": 5129,
      "emphas": 5130,
      "miller": 5131,
      "usual": 5132,
      "circu": 5133,
      "recovery": 5134,
      "significantly": 5135,
      "guaranteed": 5136,
      "exercis": 5137,
      "biodiversity": 5138,
      "feedback": 5139,
      "initiative": 5140,
      "direction": 5141,
      "chapter": 5142,
      "sinotruk": 5143,
      "earlier": 5144,
      "struggle": 5145,
      "adults": 5146,
      "ratio": 5147,
      "whatever": 5148,
      "110": 5149,
      "62": 5150,
      "94": 5151,
      "ders": 5152,
      "gul": 5153,
      "gather": 5154,
      "pes": 5155,
      "scar": 5156,
      "alco": 5157,
      "accom": 5158,
      "construct": 5159,
      "unds": 5160,
      "ques": 5161,
      "domain": 5162,
      "immobil": 5163,
      "brings": 5164,
      "england": 5165,
      "bled": 5166,
      "ival": 5167,
      "shipped": 5168,
      "milk": 5169,
      "125": 5170,
      "purposes": 5171,
      "heric": 5172,
      "functions": 5173,
      "clock": 5174,
      "incredi": 5175,
      "harvest": 5176,
      "importance": 5177,
      "paying": 5178,
      "virt": 5179,
      "painted": 5180,
      "facilities": 5181,
      "mming": 5182,
      "placed": 5183,
      "stretch": 5184,
      "learned": 5185,
      "basis": 5186,
      "morris": 5187,
      "certific": 5188,
      "regularly": 5189,
      "challenge": 5190,
      "decided": 5191,
      "committed": 5192,
      "sized": 5193,
      "detection": 5194,
      "discuss": 5195,
      "greece": 5196,
      "revenues": 5197,
      "neutr": 5198,
      "ratings": 5199,
      "alignment": 5200,
      "edmunds": 5201,
      "guidance": 5202,
      "library": 5203,
      "domestic": 5204,
      "pearl": 5205,
      "reveal": 5206,
      "cemetery": 5207,
      "cumberland": 5208,
      "58": 5209,
      "dic": 5210,
      "lens": 5211,
      "lbs": 5212,
      "oe": 5213,
      "scan": 5214,
      "vaux": 5215,
      "x5": 5216,
      "reput": 5217,
      "theft": 5218,
      "orient": 5219,
      "ionally": 5220,
      "elig": 5221,
      "iling": 5222,
      "mexic": 5223,
      "absolut": 5224,
      "pros": 5225,
      "peter": 5226,
      "shell": 5227,
      "ault": 5228,
      "exceed": 5229,
      "manager": 5230,
      "agg": 5231,
      "bodies": 5232,
      "sym": 5233,
      "hoses": 5234,
      "truth": 5235,
      "frank": 5236,
      "impos": 5237,
      "colour": 5238,
      "lakh": 5239,
      "regions": 5240,
      "medium": 5241,
      "ponti": 5242,
      "starts": 5243,
      "consid": 5244,
      "consci": 5245,
      "radiation": 5246,
      "brea": 5247,
      "breeding": 5248,
      "brother": 5249,
      "locking": 5250,
      "feeling": 5251,
      "appears": 5252,
      "arent": 5253,
      "hundre": 5254,
      "supplied": 5255,
      "definition": 5256,
      "ridge": 5257,
      "released": 5258,
      "rules": 5259,
      "citizens": 5260,
      "cello": 5261,
      "neuro": 5262,
      "prepared": 5263,
      "rebates": 5264,
      "acquaint": 5265,
      "magnetic": 5266,
      "restoration": 5267,
      "stroke": 5268,
      "quiet": 5269,
      "isuzu": 5270,
      "slide": 5271,
      "vauxhall": 5272,
      "absolutely": 5273,
      "hundreds": 5274,
      "aper": 5275,
      "cular": 5276,
      "gel": 5277,
      "ktm": 5278,
      "pti": 5279,
      "rp": 5280,
      "sla": 5281,
      "eria": 5282,
      "theory": 5283,
      "argu": 5284,
      "arily": 5285,
      "rose": 5286,
      "chair": 5287,
      "sets": 5288,
      "oles": 5289,
      "api": 5290,
      "apart": 5291,
      "antic": 5292,
      "straps": 5293,
      "ranging": 5294,
      "lowest": 5295,
      "1991": 5296,
      "normally": 5297,
      "tons": 5298,
      "relatively": 5299,
      "bench": 5300,
      "warranties": 5301,
      "vote": 5302,
      "gaz": 5303,
      "holding": 5304,
      "happens": 5305,
      "brook": 5306,
      "reasonable": 5307,
      "morning": 5308,
      "oxid": 5309,
      "accident": 5310,
      "alternat": 5311,
      "establish": 5312,
      "resistant": 5313,
      "wireless": 5314,
      "grip": 5315,
      "substanti": 5316,
      "historical": 5317,
      "jersey": 5318,
      "suffer": 5319,
      "conservation": 5320,
      "registration": 5321,
      "symptoms": 5322,
      "consumers": 5323,
      "strategies": 5324,
      "toutatis": 5325,
      "exposure": 5326,
      "acquaintance": 5327,
      "5x": 5328,
      "64": 5329,
      "82": 5330,
      "aa": 5331,
      "bent": 5332,
      "bour": 5333,
      "cand": 5334,
      "crank": 5335,
      "fai": 5336,
      "hills": 5337,
      "nt": 5338,
      "pad": 5339,
      "sd": 5340,
      "song": 5341,
      "thou": 5342,
      "incent": 5343,
      "ancy": 5344,
      "rev": 5345,
      "rever": 5346,
      "represents": 5347,
      "ata": 5348,
      "android": 5349,
      "asp": 5350,
      "rotor": 5351,
      "moon": 5352,
      "conversion": 5353,
      "shine": 5354,
      "dio": 5355,
      "apol": 5356,
      "opin": 5357,
      "syri": 5358,
      "marke": 5359,
      "internal": 5360,
      "flash": 5361,
      "phen": 5362,
      "lax": 5363,
      "fields": 5364,
      "volvo": 5365,
      "visible": 5366,
      "join": 5367,
      "depth": 5368,
      "attack": 5369,
      "wrong": 5370,
      "healthy": 5371,
      "specification": 5372,
      "coolant": 5373,
      "thorough": 5374,
      "rotors": 5375,
      "adjustment": 5376,
      "spective": 5377,
      "holders": 5378,
      "graphy": 5379,
      "scene": 5380,
      "darfur": 5381,
      "banks": 5382,
      "articles": 5383,
      "filled": 5384,
      "teachers": 5385,
      "appointed": 5386,
      "patches": 5387,
      "variable": 5388,
      "savings": 5389,
      "advance": 5390,
      "african": 5391,
      "scratches": 5392,
      "copyright": 5393,
      "revenue": 5394,
      "relationship": 5395,
      "technique": 5396,
      "demonstrated": 5397,
      "narrow": 5398,
      "deposit": 5399,
      "village": 5400,
      "genetic": 5401,
      "garden": 5402,
      "pheasant": 5403,
      "rav4": 5404,
      "chicago": 5405,
      "catalytic": 5406,
      "circuit": 5407,
      "pontiac": 5408,
      "faith": 5409,
      "ama": 5410,
      "bat": 5411,
      "bacter": 5412,
      "dc": 5413,
      "dam": 5414,
      "fal": 5415,
      "fas": 5416,
      "iel": 5417,
      "len": 5418,
      "muse": 5419,
      "nations": 5420,
      "pages": 5421,
      "rv": 5422,
      "rum": 5423,
      "sx4": 5424,
      "wy": 5425,
      "yard": 5426,
      "era": 5427,
      "antra": 5428,
      "reck": 5429,
      "refin": 5430,
      "attribut": 5431,
      "enna": 5432,
      "stance": 5433,
      "lees": 5434,
      "elantra": 5435,
      "entially": 5436,
      "coach": 5437,
      "deb": 5438,
      "iron": 5439,
      "urban": 5440,
      "cart": 5441,
      "magn": 5442,
      "exclu": 5443,
      "perfection": 5444,
      "ulty": 5445,
      "illac": 5446,
      "hey": 5447,
      "ghost": 5448,
      "autos": 5449,
      "ignition": 5450,
      "corn": 5451,
      "efforts": 5452,
      "producing": 5453,
      "minimum": 5454,
      "maybe": 5455,
      "turkey": 5456,
      "crack": 5457,
      "monday": 5458,
      "choices": 5459,
      "values": 5460,
      "whereas": 5461,
      "transcri": 5462,
      "sells": 5463,
      "depends": 5464,
      "induced": 5465,
      "culture": 5466,
      "tribute": 5467,
      "treatments": 5468,
      "rule": 5469,
      "3500": 5470,
      "awd": 5471,
      "ordin": 5472,
      "ecosystem": 5473,
      "container": 5474,
      "interesting": 5475,
      "representative": 5476,
      "referred": 5477,
      "concern": 5478,
      "challenger": 5479,
      "employed": 5480,
      "replacing": 5481,
      "auxili": 5482,
      "compressor": 5483,
      "upgrades": 5484,
      "penn": 5485,
      "atmospheric": 5486,
      "chief": 5487,
      "promote": 5488,
      "ptosis": 5489,
      "ethernet": 5490,
      "cadillac": 5491,
      "administration": 5492,
      "alpha": 5493,
      "humiliation": 5494,
      "museum": 5495,
      "570": 5496,
      "games": 5497,
      "iest": 5498,
      "lad": 5499,
      "nm": 5500,
      "ore": 5501,
      "q3": 5502,
      "rh": 5503,
      "thro": 5504,
      "thick": 5505,
      "attr": 5506,
      "stake": 5507,
      "arab": 5508,
      "elite": 5509,
      "forget": 5510,
      "ches": 5511,
      "colo": 5512,
      "abil": 5513,
      "novel": 5514,
      "heating": 5515,
      "hael": 5516,
      "uphol": 5517,
      "spent": 5518,
      "grant": 5519,
      "stric": 5520,
      "disorder": 5521,
      "desal": 5522,
      "versat": 5523,
      "letters": 5524,
      "seeing": 5525,
      "backed": 5526,
      "suring": 5527,
      "subishi": 5528,
      "featured": 5529,
      "mitsubishi": 5530,
      "pride": 5531,
      "fitment": 5532,
      "videos": 5533,
      "relig": 5534,
      "turns": 5535,
      "radial": 5536,
      "luck": 5537,
      "checked": 5538,
      "ception": 5539,
      "inese": 5540,
      "tried": 5541,
      "potato": 5542,
      "burning": 5543,
      "organizations": 5544,
      "trims": 5545,
      "gloss": 5546,
      "perfectly": 5547,
      "biggest": 5548,
      "physic": 5549,
      "coupon": 5550,
      "995": 5551,
      "menis": 5552,
      "graded": 5553,
      "posted": 5554,
      "distinct": 5555,
      "authorized": 5556,
      "danger": 5557,
      "layers": 5558,
      "measured": 5559,
      "spoke": 5560,
      "employe": 5561,
      "enterpr": 5562,
      "independence": 5563,
      "ogle": 5564,
      "gearbox": 5565,
      "eventually": 5566,
      "characteristics": 5567,
      "trials": 5568,
      "sexual": 5569,
      "influence": 5570,
      "platform": 5571,
      "enthusiasts": 5572,
      "organisms": 5573,
      "temporary": 5574,
      "touring": 5575,
      "democratic": 5576,
      "neighborhood": 5577,
      "executive": 5578,
      "incentives": 5579,
      "auxiliary": 5580,
      "upholstery": 5581,
      "990": 5582,
      "ajo": 5583,
      "bound": 5584,
      "catch": 5585,
      "gps": 5586,
      "kis": 5587,
      "lam": 5588,
      "mist": 5589,
      "nut": 5590,
      "pist": 5591,
      "rpm": 5592,
      "sort": 5593,
      "vt": 5594,
      "wants": 5595,
      "zen": 5596,
      "ancing": 5597,
      "ensures": 5598,
      "sta": 5599,
      "arms": 5600,
      "edom": 5601,
      "ilig": 5602,
      "chinese": 5603,
      "vetr": 5604,
      "becomes": 5605,
      "adult": 5606,
      "widel": 5607,
      "tima": 5608,
      "oline": 5609,
      "dimming": 5610,
      "parties": 5611,
      "parrot": 5612,
      "comment": 5613,
      "goals": 5614,
      "comprom": 5615,
      "sail": 5616,
      "deser": 5617,
      "desert": 5618,
      "overhead": 5619,
      "minist": 5620,
      "causing": 5621,
      "seek": 5622,
      "stands": 5623,
      "glad": 5624,
      "puts": 5625,
      "providers": 5626,
      "developer": 5627,
      "funds": 5628,
      "processes": 5629,
      "passion": 5630,
      "borne": 5631,
      "typical": 5632,
      "michael": 5633,
      "satur": 5634,
      "ourselves": 5635,
      "figures": 5636,
      "1989": 5637,
      "external": 5638,
      "practices": 5639,
      "oxy": 5640,
      "accidents": 5641,
      "philo": 5642,
      "trusted": 5643,
      "freight": 5644,
      "freedom": 5645,
      "japanese": 5646,
      "fruits": 5647,
      "unemploy": 5648,
      "campervan": 5649,
      "legislature": 5650,
      "neurons": 5651,
      "brucello": 5652,
      "imagine": 5653,
      "protocol": 5654,
      "370z": 5655,
      "widely": 5656,
      "brucellosis": 5657,
      "54": 5658,
      "73": 5659,
      "79": 5660,
      "81": 5661,
      "dor": 5662,
      "gers": 5663,
      "hil": 5664,
      "jose": 5665,
      "lack": 5666,
      "lum": 5667,
      "nit": 5668,
      "nismo": 5669,
      "ply": 5670,
      "ports": 5671,
      "sac": 5672,
      "sides": 5673,
      "tough": 5674,
      "tane": 5675,
      "yz": 5676,
      "republic": 5677,
      "restrict": 5678,
      "albu": 5679,
      "outer": 5680,
      "esome": 5681,
      "itors": 5682,
      "leasing": 5683,
      "assu": 5684,
      "rote": 5685,
      "co2": 5686,
      "beam": 5687,
      "bears": 5688,
      "adop": 5689,
      "adian": 5690,
      "verty": 5691,
      "wife": 5692,
      "ceo": 5693,
      "residents": 5694,
      "carpet": 5695,
      "magaz": 5696,
      "shap": 5697,
      "shot": 5698,
      "austri": 5699,
      "parti": 5700,
      "poverty": 5701,
      "google": 5702,
      "willing": 5703,
      "foc": 5704,
      "precis": 5705,
      "discounts": 5706,
      "grey": 5707,
      "greek": 5708,
      "intermit": 5709,
      "berry": 5710,
      "impressive": 5711,
      "efs": 5712,
      "mostly": 5713,
      "flag": 5714,
      "airport": 5715,
      "lesson": 5716,
      "repaired": 5717,
      "belong": 5718,
      "stood": 5719,
      "volt": 5720,
      "hypo": 5721,
      "germany": 5722,
      "hub": 5723,
      "planets": 5724,
      "polit": 5725,
      "waiting": 5726,
      "founded": 5727,
      "synthetic": 5728,
      "transp": 5729,
      "styles": 5730,
      "clearance": 5731,
      "opening": 5732,
      "rotation": 5733,
      "smoke": 5734,
      "touchscreen": 5735,
      "scores": 5736,
      "navajo": 5737,
      "suppliers": 5738,
      "mechanics": 5739,
      "ulture": 5740,
      "continues": 5741,
      "suggested": 5742,
      "besides": 5743,
      "literally": 5744,
      "launched": 5745,
      "conducted": 5746,
      "homes": 5747,
      "punct": 5748,
      "settings": 5749,
      "pilot": 5750,
      "exercises": 5751,
      "considering": 5752,
      "intermittent": 5753,
      "az": 5754,
      "bia": 5755,
      "epo": 5756,
      "gged": 5757,
      "han": 5758,
      "nd": 5759,
      "pian": 5760,
      "rings": 5761,
      "sought": 5762,
      "yu": 5763,
      "aling": 5764,
      "altima": 5765,
      "cher": 5766,
      "chat": 5767,
      "meat": 5768,
      "meant": 5769,
      "wider": 5770,
      "sud": 5771,
      "lose": 5772,
      "logo": 5773,
      "aret": 5774,
      "confl": 5775,
      "conclus": 5776,
      "uries": 5777,
      "shed": 5778,
      "expressed": 5779,
      "quant": 5780,
      "sia": 5781,
      "raw": 5782,
      "rail": 5783,
      "raised": 5784,
      "hassle": 5785,
      "foss": 5786,
      "club": 5787,
      "powertrain": 5788,
      "viewing": 5789,
      "productive": 5790,
      "supple": 5791,
      "listen": 5792,
      "differential": 5793,
      "relative": 5794,
      "sellers": 5795,
      "shops": 5796,
      "wrapped": 5797,
      "painting": 5798,
      "gasoline": 5799,
      "athlet": 5800,
      "structures": 5801,
      "awesome": 5802,
      "circul": 5803,
      "screening": 5804,
      "property": 5805,
      "shifter": 5806,
      "communicate": 5807,
      "converter": 5808,
      "concerns": 5809,
      "hurst": 5810,
      "commitment": 5811,
      "arrived": 5812,
      "assem": 5813,
      "accurate": 5814,
      "vitamin": 5815,
      "obtained": 5816,
      "patterns": 5817,
      "surrounding": 5818,
      "favorite": 5819,
      "conventional": 5820,
      "aughter": 5821,
      "random": 5822,
      "virginia": 5823,
      "georgia": 5824,
      "carolina": 5825,
      "virtual": 5826,
      "leesburg": 5827,
      "aero": 5828,
      "bell": 5829,
      "gro": 5830,
      "hc": 5831,
      "lac": 5832,
      "m2": 5833,
      "mn": 5834,
      "oz": 5835,
      "pas": 5836,
      "psi": 5837,
      "paul": 5838,
      "vul": 5839,
      "wrote": 5840,
      "inner": 5841,
      "rection": 5842,
      "retain": 5843,
      "restored": 5844,
      "relax": 5845,
      "atom": 5846,
      "endu": 5847,
      "ensuring": 5848,
      "stun": 5849,
      "ald": 5850,
      "edul": 5851,
      "tot": 5852,
      "elder": 5853,
      "chile": 5854,
      "seed": 5855,
      "becoming": 5856,
      "moses": 5857,
      "wires": 5858,
      "sugar": 5859,
      "neither": 5860,
      "conference": 5861,
      "shor": 5862,
      "shad": 5863,
      "olds": 5864,
      "illino": 5865,
      "heard": 5866,
      "atest": 5867,
      "comments": 5868,
      "sph": 5869,
      "vibr": 5870,
      "foal": 5871,
      "serviced": 5872,
      "engers": 5873,
      "greatest": 5874,
      "msrp": 5875,
      "impress": 5876,
      "produces": 5877,
      "campa": 5878,
      "looked": 5879,
      "valid": 5880,
      "specified": 5881,
      "mitted": 5882,
      "closer": 5883,
      "assive": 5884,
      "installing": 5885,
      "putting": 5886,
      "reduces": 5887,
      "clients": 5888,
      "delivers": 5889,
      "game": 5890,
      "facilit": 5891,
      "gravity": 5892,
      "organic": 5893,
      "organized": 5894,
      "empire": 5895,
      "holes": 5896,
      "holds": 5897,
      "1987": 5898,
      "schedul": 5899,
      "jobs": 5900,
      "authority": 5901,
      "maintaining": 5902,
      "vintage": 5903,
      "teaching": 5904,
      "correctly": 5905,
      "adaptive": 5906,
      "recognized": 5907,
      "preferred": 5908,
      "christian": 5909,
      "sequence": 5910,
      "flexible": 5911,
      "slowly": 5912,
      "pleasant": 5913,
      "techniques": 5914,
      "tumor": 5915,
      "academic": 5916,
      "inspected": 5917,
      "kayak": 5918,
      "telescop": 5919,
      "complicated": 5920,
      "discrimination": 5921,
      "gulf": 5922,
      "mexico": 5923,
      "desalination": 5924,
      "illinois": 5925,
      "campaign": 5926,
      "5000": 5927,
      "astron": 5928,
      "bone": 5929,
      "gue": 5930,
      "ja": 5931,
      "knor": 5932,
      "killed": 5933,
      "obl": 5934,
      "pill": 5935,
      "tension": 5936,
      "tasks": 5937,
      "uco": 5938,
      "wn": 5939,
      "weld": 5940,
      "thr": 5941,
      "anger": 5942,
      "rely": 5943,
      "reci": 5944,
      "icing": 5945,
      "acle": 5946,
      "accomp": 5947,
      "chester": 5948,
      "lyn": 5949,
      "tee": 5950,
      "maps": 5951,
      "aulic": 5952,
      "rio": 5953,
      "export": 5954,
      "perman": 5955,
      "hep": 5956,
      "output": 5957,
      "dog": 5958,
      "worn": 5959,
      "1980": 5960,
      "immu": 5961,
      "syl": 5962,
      "preced": 5963,
      "desire": 5964,
      "marily": 5965,
      "friday": 5966,
      "izer": 5967,
      "partners": 5968,
      "cade": 5969,
      "versary": 5970,
      "stores": 5971,
      "knows": 5972,
      "searching": 5973,
      "replacements": 5974,
      "memor": 5975,
      "activated": 5976,
      "litre": 5977,
      "saying": 5978,
      "emble": 5979,
      "dependent": 5980,
      "secondary": 5981,
      "burn": 5982,
      "rising": 5983,
      "faces": 5984,
      "bigger": 5985,
      "motion": 5986,
      "bags": 5987,
      "denat": 5988,
      "electrons": 5989,
      "estimate": 5990,
      "stronger": 5991,
      "1971": 5992,
      "introduction": 5993,
      "concerned": 5994,
      "session": 5995,
      "silverado": 5996,
      "arrival": 5997,
      "consists": 5998,
      "regardless": 5999,
      "retailer": 6000,
      "revolutionary": 6001,
      "corporate": 6002,
      "hydraulic": 6003,
      "latency": 6004,
      "pleasure": 6005,
      "advertised": 6006,
      "convention": 6007,
      "dini": 6008,
      "felt": 6009,
      "indeed": 6010,
      "contrast": 6011,
      "aspects": 6012,
      "challenges": 6013,
      "vignet": 6014,
      "eligible": 6015,
      "aggressive": 6016,
      "meniscus": 6017,
      "kisi": 6018,
      "philosoph": 6019,
      "knorr": 6020,
      "immune": 6021,
      "91": 6022,
      "92": 6023,
      "bind": 6024,
      "cen": 6025,
      "cil": 6026,
      "cers": 6027,
      "df": 6028,
      "dale": 6029,
      "ec": 6030,
      "fif": 6031,
      "htm": 6032,
      "jes": 6033,
      "kil": 6034,
      "lun": 6035,
      "pure": 6036,
      "rou": 6037,
      "sor": 6038,
      "tz": 6039,
      "tics": 6040,
      "wreck": 6041,
      "yle": 6042,
      "zl": 6043,
      "inser": 6044,
      "insp": 6045,
      "recycl": 6046,
      "atra": 6047,
      "ariz": 6048,
      "tomat": 6049,
      "icies": 6050,
      "assure": 6051,
      "asia": 6052,
      "forced": 6053,
      "chero": 6054,
      "coating": 6055,
      "nest": 6056,
      "ids": 6057,
      "lived": 6058,
      "exposed": 6059,
      "buck": 6060,
      "div": 6061,
      "quail": 6062,
      "wasn": 6063,
      "civic": 6064,
      "grace": 6065,
      "ferr": 6066,
      "served": 6067,
      "evol": 6068,
      "bles": 6069,
      "delux": 6070,
      "daytime": 6071,
      "collabor": 6072,
      "flower": 6073,
      "phal": 6074,
      "versions": 6075,
      "regional": 6076,
      "background": 6077,
      "supposed": 6078,
      "subsequ": 6079,
      "instance": 6080,
      "ficial": 6081,
      "downgraded": 6082,
      "played": 6083,
      "links": 6084,
      "solute": 6085,
      "policies": 6086,
      "signals": 6087,
      "passengers": 6088,
      "starter": 6089,
      "americans": 6090,
      "originally": 6091,
      "publish": 6092,
      "famili": 6093,
      "angel": 6094,
      "lasting": 6095,
      "applicable": 6096,
      "crude": 6097,
      "bulbs": 6098,
      "cooler": 6099,
      "cooled": 6100,
      "ecological": 6101,
      "performing": 6102,
      "subjects": 6103,
      "petition": 6104,
      "1973": 6105,
      "craf": 6106,
      "waxes": 6107,
      "literature": 6108,
      "declar": 6109,
      "victor": 6110,
      "saving": 6111,
      "consistent": 6112,
      "smoothly": 6113,
      "discussion": 6114,
      "modified": 6115,
      "infotainment": 6116,
      "tipper": 6117,
      "directions": 6118,
      "utilized": 6119,
      "criteria": 6120,
      "psycho": 6121,
      "dimensions": 6122,
      "powder": 6123,
      "announced": 6124,
      "honest": 6125,
      "hurricane": 6126,
      "exclusive": 6127,
      "enzyme": 6128,
      "hazard": 6129,
      "diplo": 6130,
      "consult": 6131,
      "weapons": 6132,
      "substantial": 6133,
      "apolis": 6134,
      "colored": 6135,
      "piano": 6136,
      "denaturation": 6137,
      "tomato": 6138,
      "cherokee": 6139,
      "deluxe": 6140,
      "familiar": 6141,
      "dp": 6142,
      "ggl": 6143,
      "hend": 6144,
      "ike": 6145,
      "lap": 6146,
      "mt": 6147,
      "pic": 6148,
      "rant": 6149,
      "wan": 6150,
      "enclosed": 6151,
      "std": 6152,
      "isse": 6153,
      "itation": 6154,
      "lee": 6155,
      "chen": 6156,
      "dee": 6157,
      "deck": 6158,
      "trick": 6159,
      "loved": 6160,
      "tiv": 6161,
      "unfortunately": 6162,
      "promp": 6163,
      "carb": 6164,
      "peer": 6165,
      "ried": 6166,
      "exhi": 6167,
      "perception": 6168,
      "ambi": 6169,
      "dix": 6170,
      "dioxide": 6171,
      "quin": 6172,
      "plain": 6173,
      "opatra": 6174,
      "duke": 6175,
      "cles": 6176,
      "worry": 6177,
      "endor": 6178,
      "predic": 6179,
      "disaster": 6180,
      "achieved": 6181,
      "interface": 6182,
      "corro": 6183,
      "minute": 6184,
      "flight": 6185,
      "channel": 6186,
      "cleopatra": 6187,
      "mono": 6188,
      "chosen": 6189,
      "seemed": 6190,
      "findings": 6191,
      "surve": 6192,
      "lightweight": 6193,
      "gluco": 6194,
      "1992": 6195,
      "primarily": 6196,
      "nationwide": 6197,
      "varian": 6198,
      "accessory": 6199,
      "classroom": 6200,
      "mobility": 6201,
      "runner": 6202,
      "malay": 6203,
      "aska": 6204,
      "gasket": 6205,
      "sciences": 6206,
      "loads": 6207,
      "tues": 6208,
      "governor": 6209,
      "fewer": 6210,
      "crucial": 6211,
      "issued": 6212,
      "connector": 6213,
      "bedroom": 6214,
      "posts": 6215,
      "halo": 6216,
      "knowledgeable": 6217,
      "cylinders": 6218,
      "maintained": 6219,
      "integration": 6220,
      "acquire": 6221,
      "fishing": 6222,
      "communications": 6223,
      "matching": 6224,
      "variant": 6225,
      "straw": 6226,
      "reserved": 6227,
      "arrive": 6228,
      "landscape": 6229,
      "ieves": 6230,
      "recognition": 6231,
      "consumer": 6232,
      "expertise": 6233,
      "wildlife": 6234,
      "categories": 6235,
      "artificial": 6236,
      "explains": 6237,
      "circumference": 6238,
      "assessment": 6239,
      "wonderful": 6240,
      "routine": 6241,
      "meteorological": 6242,
      "jacob": 6243,
      "mentioned": 6244,
      "responsibility": 6245,
      "procedure": 6246,
      "quadra": 6247,
      "modifications": 6248,
      "muffler": 6249,
      "crossover": 6250,
      "fossil": 6251,
      "ferrari": 6252,
      "glucose": 6253,
      "112": 6254,
      "140": 6255,
      "bhp": 6256,
      "bicy": 6257,
      "dn": 6258,
      "ech": 6259,
      "jef": 6260,
      "mad": 6261,
      "pir": 6262,
      "sam": 6263,
      "sque": 6264,
      "tinted": 6265,
      "throw": 6266,
      "inqu": 6267,
      "restore": 6268,
      "atric": 6269,
      "attract": 6270,
      "atlan": 6271,
      "ende": 6272,
      "edia": 6273,
      "editor": 6274,
      "iconic": 6275,
      "ented": 6276,
      "veter": 6277,
      "degre": 6278,
      "modu": 6279,
      "trig": 6280,
      "terri": 6281,
      "tear": 6282,
      "mam": 6283,
      "amed": 6284,
      "ops": 6285,
      "manner": 6286,
      "canadian": 6287,
      "1970": 6288,
      "boys": 6289,
      "saab": 6290,
[...]
