{
  "version": "1.0",
  "truncation": null,
  "padding": null,
  "added_tokens": [
    {
      "id": 0,
      "content": "[PAD]",
      "single_word": false,
      "lstrip": false,
      "rstrip": false,
      "normalized": false,
      "special": true
    },
    {
      "id": 1,
      "content": "[UNK]",
      "single_word": false,
      "lstrip": false,
      "rstrip": false,
      "normalized": false,
      "special": true
    },
    {
      "id": 2,
      "content": "[CLS]",
      "single_word": false,
      "lstrip": false,
      "rstrip": false,
      "normalized": false,
      "special": true
    },
    {
      "id": 3,
      "content": "[SEP]",
      "single_word": false,
      "lstrip": false,
      "rstrip": false,
      "normalized": false,
      "special": true
    },
    {
      "id": 4,
      "content": "[MASK]",
      "single_word": false,
      "lstrip": false,
      "rstrip": false,
      "normalized": false,
      "special": true
    },
    {
      "id": 5,
      "content": "[BOS]",
      "single_word": false,
      "lstrip": false,
      "rstrip": false,
      "normalized": false,
      "special": true
    },
    {
      "id": 6,
      "content": "[EOS]",
      "single_word": false,
      "lstrip": false,
      "rstrip": false,
      "normalized": false,
      "special": true
    },
    {
      "id": 7,
      "content": "[EBITDA]",
      "single_word": false,
      "lstrip": false,
      "rstrip": false,
      "normalized": false,
      "special": true
    },
    {
      "id": 8,
      "content": "[EBIT]",
      "single_word": false,
      "lstrip": false,
      "rstrip": false,
      "normalized": false,
      "special": true
    },
    {
      "id": 9,
      "content": "[ROI]",
      "single_word": false,
      "lstrip": false,
      "rstrip": false,
      "normalized": false,
      "special": true
    },
    {
      "id": 10,
      "content": "[ROE]",
      "single_word": false,
      "lstrip": false,
      "rstrip": false,
      "normalized": false,
      "special": true
    },
    {
      "id": 11,
      "content": "[ROA]",
      "single_word": false,
      "lstrip": false,
      "rstrip": false,
      "normalized": false,
      "special": true
    },
    {
      "id": 12,
      "content": "[ROIC]",
      "single_word": false,
      "lstrip": false,
      "rstrip": false,
      "normalized": false,
      "special": true
    },
    {
      "id": 13,
      "content": "[WACC]",
      "single_word": false,
      "lstrip": false,
      "rstrip": false,
      "normalized": false,
      "special": true
    },
    {
      "id": 14,
      "content": "[DCF]",
      "single_word": false,
      "lstrip": false,
      "rstrip": false,
      "normalized": false,
      "special": true
    },
    {
      "id": 15,
      "content": "[NPV]",
      "single_word": false,
      "lstrip": false,
      "rstrip": false,
      "normalized": false,
      "special": true
    },
    {
      "id": 16,
      "content": "[IRR]",
      "single_word": false,
      "lstrip": false,
      "rstrip": false,
      "normalized": false,
      "special": true
    },
    {
      "id": 17,
      "content": "[P/E]",
      "single_word": false,
      "lstrip": false,
      "rstrip": false,
      "normalized": false,
      "special": true
    },
    {
      "id": 18,
      "content": "[EPS]",
      "single_word": false,
      "lstrip": false,
      "rstrip": false,
      "normalized": false,
      "special": true
    },
    {
      "id": 19,
      "content": "[P/B]",
      "single_word": false,
      "lstrip": false,
      "rstrip": false,
      "normalized": false,
      "special": true
    },
    {
      "id": 20,
      "content": "[P/S]",
      "single_word": false,
      "lstrip": false,
      "rstrip": false,
      "normalized": false,
      "special": true
    },
    {
      "id": 21,
      "content": "[CAGR]",
      "single_word": false,
      "lstrip": false,
      "rstrip": false,
      "normalized": false,
      "special": true
    },
    {
      "id": 22,
      "content": "[YoY]",
      "single_word": false,
      "lstrip": false,
      "rstrip": false,
      "normalized": false,
      "special": true
    },
    {
      "id": 23,
      "content": "[QoQ]",
      "single_word": false,
      "lstrip": false,
      "rstrip": false,
      "normalized": false,
      "special": true
    },
    {
      "id": 24,
      "content": "[MoM]",
      "single_word": false,
      "lstrip": false,
      "rstrip": false,
      "normalized": false,
      "special": true
    },
    {
      "id": 25,
      "content": "[TTM]",
      "single_word": false,
      "lstrip": false,
      "rstrip": false,
      "normalized": false,
      "special": true
    },
    {
      "id": 26,
      "content": "[LTM]",
      "single_word": false,
      "lstrip": false,
      "rstrip": false,
      "normalized": false,
      "special": true
    },
    {
      "id": 27,
      "content": "[10-K]",
      "single_word": false,
      "lstrip": false,
      "rstrip": false,
      "normalized": false,
      "special": true
    },
    {
      "id": 28,
      "content": "[10-Q]",
      "single_word": false,
      "lstrip": false,
      "rstrip": false,
      "normalized": false,
      "special": true
    },
    {
      "id": 29,
      "content": "[8-K]",
      "single_word": false,
      "lstrip": false,
      "rstrip": false,
      "normalized": false,
      "special": true
    },
    {
      "id": 30,
      "content": "[S-1]",
      "single_word": false,
      "lstrip": false,
      "rstrip": false,
      "normalized": false,
      "special": true
    },
    {
      "id": 31,
      "content": "[DEF14A]",
      "single_word": false,
      "lstrip": false,
      "rstrip": false,
      "normalized": false,
      "special": true
    },
    {
      "id": 32,
      "content": "[13F]",
      "single_word": false,
      "lstrip": false,
      "rstrip": false,
      "normalized": false,
      "special": true
    },
    {
      "id": 33,
      "content": "[Form4]",
      "single_word": false,
      "lstrip": false,
      "rstrip": false,
      "normalized": false,
      "special": true
    },
    {
      "id": 34,
      "content": "[GDP]",
      "single_word": false,
      "lstrip": false,
      "rstrip": false,
      "normalized": false,
      "special": true
    },
    {
      "id": 35,
      "content": "[CPI]",
      "single_word": false,
      "lstrip": false,
      "rstrip": false,
      "normalized": false,
      "special": true
    },
    {
      "id": 36,
      "content": "[PPI]",
      "single_word": false,
      "lstrip": false,
      "rstrip": false,
      "normalized": false,
      "special": true
    },
    {
      "id": 37,
      "content": "[FOMC]",
      "single_word": false,
      "lstrip": false,
      "rstrip": false,
      "normalized": false,
      "special": true
    },
    {
      "id": 38,
      "content": "[Fed]",
      "single_word": false,
      "lstrip": false,
      "rstrip": false,
      "normalized": false,
      "special": true
    },
    {
      "id": 39,
      "content": "[SEC]",
      "single_word": false,
      "lstrip": false,
      "rstrip": false,
      "normalized": false,
      "special": true
    },
    {
      "id": 40,
      "content": "[GAAP]",
      "single_word": false,
      "lstrip": false,
      "rstrip": false,
      "normalized": false,
      "special": true
    },
    {
      "id": 41,
      "content": "[IFRS]",
      "single_word": false,
      "lstrip": false,
      "rstrip": false,
      "normalized": false,
      "special": true
    },
    {
      "id": 42,
      "content": "[amortization]",
      "single_word": false,
      "lstrip": false,
      "rstrip": false,
      "normalized": false,
      "special": true
    },
    {
      "id": 43,
      "content": "[depreciation]",
      "single_word": false,
      "lstrip": false,
      "rstrip": false,
      "normalized": false,
      "special": true
    },
    {
      "id": 44,
      "content": "[accrual]",
      "single_word": false,
      "lstrip": false,
      "rstrip": false,
      "normalized": false,
      "special": true
    },
    {
      "id": 45,
      "content": "[leverage]",
      "single_word": false,
      "lstrip": false,
      "rstrip": false,
      "normalized": false,
      "special": true
    },
    {
      "id": 46,
      "content": "[liquidity]",
      "single_word": false,
      "lstrip": false,
      "rstrip": false,
      "normalized": false,
      "special": true
    },
    {
      "id": 47,
      "content": "[covenant]",
      "single_word": false,
      "lstrip": false,
      "rstrip": false,
      "normalized": false,
      "special": true
    },
    {
      "id": 48,
      "content": "[derivative]",
      "single_word": false,
      "lstrip": false,
      "rstrip": false,
      "normalized": false,
      "special": true
    },
    {
      "id": 49,
      "content": "[hedging]",
      "single_word": false,
      "lstrip": false,
      "rstrip": false,
      "normalized": false,
      "special": true
    },
    {
      "id": 50,
      "content": "[arbitrage]",
      "single_word": false,
      "lstrip": false,
      "rstrip": false,
      "normalized": false,
      "special": true
    },
    {
      "id": 51,
      "content": "[volatility]",
      "single_word": false,
      "lstrip": false,
      "rstrip": false,
      "normalized": false,
      "special": true
    },
    {
      "id": 52,
      "content": "[bullish]",
      "single_word": false,
      "lstrip": false,
      "rstrip": false,
      "normalized": false,
      "special": true
    },
    {
      "id": 53,
      "content": "[bearish]",
      "single_word": false,
      "lstrip": false,
      "rstrip": false,
      "normalized": false,
      "special": true
    },
    {
      "id": 54,
      "content": "[dividend]",
      "single_word": false,
      "lstrip": false,
      "rstrip": false,
      "normalized": false,
      "special": true
    },
    {
      "id": 55,
      "content": "[equity]",
      "single_word": false,
      "lstrip": false,
      "rstrip": false,
      "normalized": false,
      "special": true
    },
    {
      "id": 56,
      "content": "[liability]",
      "single_word": false,
      "lstrip": false,
      "rstrip": false,
      "normalized": false,
      "special": true
    },
    {
      "id": 57,
      "content": "[SKU]",
      "single_word": false,
      "lstrip": false,
      "rstrip": false,
      "normalized": false,
      "special": true
    },
    {
      "id": 58,
      "content": "[UPC]",
      "single_word": false,
      "lstrip": false,
      "rstrip": false,
      "normalized": false,
      "special": true
    },
    {
      "id": 59,
      "content": "[ASIN]",
      "single_word": false,
      "lstrip": false,
      "rstrip": false,
      "normalized": false,
      "special": true
    },
    {
      "id": 60,
      "content": "[EAN]",
      "single_word": false,
      "lstrip": false,
      "rstrip": false,
      "normalized": false,
      "special": true
    },
    {
      "id": 61,
      "content": "[GTIN]",
      "single_word": false,
      "lstrip": false,
      "rstrip": false,
      "normalized": false,
      "special": true
    },
    {
      "id": 62,
      "content": "[ISBN]",
      "single_word": false,
      "lstrip": false,
      "rstrip": false,
      "normalized": false,
      "special": true
    },
    {
      "id": 63,
      "content": "[MPN]",
      "single_word": false,
      "lstrip": false,
      "rstrip": false,
      "normalized": false,
      "special": true
    },
    {
      "id": 64,
      "content": "[HDMI]",
      "single_word": false,
      "lstrip": false,
      "rstrip": false,
      "normalized": false,
      "special": true
    },
    {
      "id": 65,
      "content": "[USB-C]",
      "single_word": false,
      "lstrip": false,
      "rstrip": false,
      "normalized": false,
      "special": true
    },
    {
      "id": 66,
      "content": "[USB-A]",
      "single_word": false,
      "lstrip": false,
      "rstrip": false,
      "normalized": false,
      "special": true
    },
    {
      "id": 67,
      "content": "[Bluetooth]",
      "single_word": false,
      "lstrip": false,
      "rstrip": false,
      "normalized": false,
      "special": true
    },
    {
      "id": 68,
      "content": "[WiFi]",
      "single_word": false,
      "lstrip": false,
      "rstrip": false,
      "normalized": false,
      "special": true
    },
    {
      "id": 69,
      "content": "[NFC]",
      "single_word": false,
      "lstrip": false,
      "rstrip": false,
      "normalized": false,
      "special": true
    },
    {
      "id": 70,
      "content": "[RFID]",
      "single_word": false,
      "lstrip": false,
      "rstrip": false,
      "normalized": false,
      "special": true
    },
    {
      "id": 71,
      "content": "[polyester]",
      "single_word": false,
      "lstrip": false,
      "rstrip": false,
      "normalized": false,
      "special": true
    },
    {
      "id": 72,
      "content": "[cotton]",
      "single_word": false,
      "lstrip": false,
      "rstrip": false,
      "normalized": false,
      "special": true
    },
    {
      "id": 73,
      "content": "[nylon]",
      "single_word": false,
      "lstrip": false,
      "rstrip": false,
      "normalized": false,
      "special": true
    },
    {
      "id": 74,
      "content": "[spandex]",
      "single_word": false,
      "lstrip": false,
      "rstrip": false,
      "normalized": false,
      "special": true
    },
    {
      "id": 75,
      "content": "[viscose]",
      "single_word": false,
      "lstrip": false,
      "rstrip": false,
      "normalized": false,
      "special": true
    },
    {
      "id": 76,
      "content": "[rayon]",
      "single_word": false,
      "lstrip": false,
      "rstrip": false,
      "normalized": false,
      "special": true
    },
    {
      "id": 77,
      "content": "[waterproof]",
      "single_word": false,
      "lstrip": false,
      "rstrip": false,
      "normalized": false,
      "special": true
    },
    {
      "id": 78,
      "content": "[breathable]",
      "single_word": false,
      "lstrip": false,
      "rstrip": false,
      "normalized": false,
      "special": true
    },
    {
      "id": 79,
      "content": "[antimicrobial]",
      "single_word": false,
      "lstrip": false,
      "rstrip": false,
      "normalized": false,
      "special": true
    },
    {
      "id": 80,
      "content": "[hypoallergenic]",
      "single_word": false,
      "lstrip": false,
      "rstrip": false,
      "normalized": false,
      "special": true
    },
    {
      "id": 81,
      "content": "[eco-friendly]",
      "single_word": false,
      "lstrip": false,
      "rstrip": false,
      "normalized": false,
      "special": true
    },
    {
      "id": 82,
      "content": "[sustainable]",
      "single_word": false,
      "lstrip": false,
      "rstrip": false,
      "normalized": false,
      "special": true
    },
    {
      "id": 83,
      "content": "[organic]",
      "single_word": false,
      "lstrip": false,
      "rstrip": false,
      "normalized": false,
      "special": true
    },
    {
      "id": 84,
      "content": "[vegan]",
      "single_word": false,
      "lstrip": false,
      "rstrip": false,
      "normalized": false,
      "special": true
    },
    {
      "id": 85,
      "content": "[cruelty-free]",
      "single_word": false,
      "lstrip": false,
      "rstrip": false,
      "normalized": false,
      "special": true
    },
    {
      "id": 86,
      "content": "[XS]",
      "single_word": false,
      "lstrip": false,
      "rstrip": false,
      "normalized": false,
      "special": true
    },
    {
      "id": 87,
      "content": "[XXL]",
      "single_word": false,
      "lstrip": false,
      "rstrip": false,
      "normalized": false,
      "special": true
    },
    {
      "id": 88,
      "content": "[XXXL]",
      "single_word": false,
      "lstrip": false,
      "rstrip": false,
      "normalized": false,
      "special": true
    },
    {
      "id": 89,
      "content": "[petite]",
      "single_word": false,
      "lstrip": false,
      "rstrip": false,
      "normalized": false,
      "special": true
    },
    {
      "id": 90,
      "content": "[plus-size]",
      "single_word": false,
      "lstrip": false,
      "rstrip": false,
      "normalized": false,
      "special": true
    },
    {
      "id": 91,
      "content": "[maternity]",
      "single_word": false,
      "lstrip": false,
      "rstrip": false,
      "normalized": false,
      "special": true
    },
    {
      "id": 92,
      "content": "[refurbished]",
      "single_word": false,
      "lstrip": false,
      "rstrip": false,
      "normalized": false,
      "special": true
    },
    {
      "id": 93,
      "content": "[pre-owned]",
      "single_word": false,
      "lstrip": false,
      "rstrip": false,
      "normalized": false,
      "special": true
    },
    {
      "id": 94,
      "content": "[open-box]",
      "single_word": false,
      "lstrip": false,
      "rstrip": false,
      "normalized": false,
      "special": true
    },
    {
      "id": 95,
      "content": "[clearance]",
      "single_word": false,
      "lstrip": false,
      "rstrip": false,
      "normalized": false,
      "special": true
    },
    {
      "id": 96,
      "content": "[bestseller]",
      "single_word": false,
      "lstrip": false,
      "rstrip": false,
      "normalized": false,
      "special": true
    },
    {
      "id": 97,
      "content": "[new-arrival]",
      "single_word": false,
      "lstrip": false,
      "rstrip": false,
      "normalized": false,
      "special": true
    },
    {
      "id": 98,
      "content": "[limited-edition]",
      "single_word": false,
      "lstrip": false,
      "rstrip": false,
      "normalized": false,
      "special": true
    },
    {
      "id": 99,
      "content": "[exclusive]",
      "single_word": false,
      "lstrip": false,
      "rstrip": false,
      "normalized": false,
      "special": true
    },
    {
      "id": 100,
      "content": "[ISSN]",
      "single_word": false,
      "lstrip": false,
      "rstrip": false,
      "normalized": false,
      "special": true
    },
    {
      "id": 101,
      "content": "[JAN]",
      "single_word": false,
      "lstrip": false,
      "rstrip": false,
      "normalized": false,
      "special": true
    },
    {
      "id": 102,
      "content": "[PLU]",
      "single_word": false,
      "lstrip": false,
      "rstrip": false,
      "normalized": false,
      "special": true
    },
    {
      "id": 103,
      "content": "[QR-Code]",
      "single_word": false,
      "lstrip": false,
      "rstrip": false,
      "normalized": false,
      "special": true
    },
    {
      "id": 104,
      "content": "[Barcode]",
      "single_word": false,
      "lstrip": false,
      "rstrip": false,
      "normalized": false,
      "special": true
    },
    {
      "id": 105,
      "content": "[Model-No]",
      "single_word": false,
      "lstrip": false,
      "rstrip": false,
      "normalized": false,
      "special": true
    },
    {
      "id": 106,
      "content": "[Serial-No]",
      "single_word": false,
      "lstrip": false,
      "rstrip": false,
      "normalized": false,
      "special": true
    },
    {
      "id": 107,
      "content": "[Batch-No]",
      "single_word": false,
      "lstrip": false,
      "rstrip": false,
      "normalized": false,
      "special": true
    },
    {
      "id": 108,
      "content": "[Micro-USB]",
      "single_word": false,
      "lstrip": false,
      "rstrip": false,
      "normalized": false,
      "special": true
    },
    {
      "id": 109,
      "content": "[Mini-USB]",
      "single_word": false,
      "lstrip": false,
      "rstrip": false,
      "normalized": false,
      "special": true
    },
    {
      "id": 110,
      "content": "[Lightning]",
      "single_word": false,
      "lstrip": false,
      "rstrip": false,
      "normalized": false,
      "special": true
    },
    {
      "id": 111,
      "content": "[Thunderbolt]",
      "single_word": false,
      "lstrip": false,
      "rstrip": false,
      "normalized": false,
      "special": true
    },
    {
      "id": 112,
      "content": "[DisplayPort]",
      "single_word": false,
      "lstrip": false,
      "rstrip": false,
      "normalized": false,
      "special": true
    },
    {
      "id": 113,
      "content": "[VGA]",
      "single_word": false,
      "lstrip": false,
      "rstrip": false,
      "normalized": false,
      "special": true
    },
    {
      "id": 114,
      "content": "[DVI]",
      "single_word": false,
      "lstrip": false,
      "rstrip": false,
      "normalized": false,
      "special": true
    },
    {
      "id": 115,
      "content": "[Ethernet]",
      "single_word": false,
      "lstrip": false,
      "rstrip": false,
      "normalized": false,
      "special": true
    },
    {
      "id": 116,
      "content": "[RJ45]",
      "single_word": false,
      "lstrip": false,
      "rstrip": false,
      "normalized": false,
      "special": true
    },
    {
      "id": 117,
      "content": "[Aux]",
      "single_word": false,
      "lstrip": false,
      "rstrip": false,
      "normalized": false,
      "special": true
    },
    {
      "id": 118,
      "content": "[Jack]",
      "single_word": false,
      "lstrip": false,
      "rstrip": false,
      "normalized": false,
      "special": true
    },
    {
      "id": 119,
      "content": "[GPS]",
      "single_word": false,
      "lstrip": false,
      "rstrip": false,
      "normalized": false,
      "special": true
    },
    {
      "id": 120,
      "content": "[LTE]",
      "single_word": false,
      "lstrip": false,
      "rstrip": false,
      "normalized": false,
      "special": true
    },
    {
      "id": 121,
      "content": "[5G]",
      "single_word": false,
      "lstrip": false,
      "rstrip": false,
      "normalized": false,
      "special": true
    },
    {
      "id": 122,
      "content": "[4G]",
      "single_word": false,
      "lstrip": false,
      "rstrip": false,
      "normalized": false,
      "special": true
    },
    {
      "id": 123,
      "content": "[3G]",
      "single_word": false,
      "lstrip": false,
      "rstrip": false,
      "normalized": false,
      "special": true
    },
    {
      "id": 124,
      "content": "[Zigbee]",
      "single_word": false,
      "lstrip": false,
      "rstrip": false,
      "normalized": false,
      "special": true
    },
    {
      "id": 125,
      "content": "[Z-Wave]",
      "single_word": false,
      "lstrip": false,
      "rstrip": false,
      "normalized": false,
      "special": true
    },
    {
      "id": 126,
      "content": "[LoRaWAN]",
      "single_word": false,
      "lstrip": false,
      "rstrip": false,
      "normalized": false,
      "special": true
    },
    {
      "id": 127,
      "content": "[Infrared]",
      "single_word": false,
      "lstrip": false,
      "rstrip": false,
      "normalized": false,
      "special": true
    },
    {
      "id": 128,
      "content": "[Qi-Charging]",
      "single_word": false,
      "lstrip": false,
      "rstrip": false,
      "normalized": false,
      "special": true
    },
    {
      "id": 129,
      "content": "[MagSafe]",
      "single_word": false,
      "lstrip": false,
      "rstrip": false,
      "normalized": false,
      "special": true
    },
    {
      "id": 130,
      "content": "[4K]",
      "single_word": false,
      "lstrip": false,
      "rstrip": false,
      "normalized": false,
      "special": true
    },
    {
      "id": 131,
      "content": "[8K]",
      "single_word": false,
      "lstrip": false,
      "rstrip": false,
      "normalized": false,
      "special": true
    },
    {
      "id": 132,
      "content": "[HD]",
      "single_word": false,
      "lstrip": false,
      "rstrip": false,
      "normalized": false,
      "special": true
    },
    {
      "id": 133,
      "content": "[FHD]",
      "single_word": false,
      "lstrip": false,
      "rstrip": false,
      "normalized": false,
      "special": true
    },
    {
      "id": 134,
      "content": "[QHD]",
      "single_word": false,
      "lstrip": false,
      "rstrip": false,
      "normalized": false,
      "special": true
    },
    {
      "id": 135,
      "content": "[UHD]",
      "single_word": false,
      "lstrip": false,
      "rstrip": false,
      "normalized": false,
      "special": true
    },
    {
      "id": 136,
      "content": "[HDR]",
      "single_word": false,
      "lstrip": false,
      "rstrip": false,
      "normalized": false,
      "special": true
    },
    {
      "id": 137,
      "content": "[HDR10]",
      "single_word": false,
      "lstrip": false,
      "rstrip": false,
      "normalized": false,
      "special": true
    },
    {
      "id": 138,
      "content": "[Dolby-Vision]",
      "single_word": false,
      "lstrip": false,
      "rstrip": false,
      "normalized": false,
      "special": true
    },
    {
      "id": 139,
      "content": "[OLED]",
      "single_word": false,
      "lstrip": false,
      "rstrip": false,
      "normalized": false,
      "special": true
    },
    {
      "id": 140,
      "content": "[QLED]",
      "single_word": false,
      "lstrip": false,
      "rstrip": false,
      "normalized": false,
      "special": true
    },
    {
      "id": 141,
      "content": "[AMOLED]",
      "single_word": false,
      "lstrip": false,
      "rstrip": false,
      "normalized": false,
      "special": true
    },
    {
      "id": 142,
      "content": "[IPS]",
      "single_word": false,
      "lstrip": false,
      "rstrip": false,
      "normalized": false,
      "special": true
    },
    {
      "id": 143,
      "content": "[LCD]",
      "single_word": false,
      "lstrip": false,
      "rstrip": false,
      "normalized": false,
      "special": true
    },
    {
      "id": 144,
      "content": "[LED]",
      "single_word": false,
      "lstrip": false,
      "rstrip": false,
      "normalized": false,
      "special": true
    },
    {
      "id": 145,
      "content": "[Micro-LED]",
      "single_word": false,
      "lstrip": false,
      "rstrip": false,
      "normalized": false,
      "special": true
    },
    {
      "id": 146,
      "content": "[Mini-LED]",
      "single_word": false,
      "lstrip": false,
      "rstrip": false,
      "normalized": false,
      "special": true
    },
    {
      "id": 147,
      "content": "[Retina]",
      "single_word": false,
      "lstrip": false,
      "rstrip": false,
      "normalized": false,
      "special": true
    },
    {
      "id": 148,
      "content": "[Gorilla-Glass]",
      "single_word": false,
      "lstrip": false,
      "rstrip": false,
      "normalized": false,
      "special": true
    },
    {
      "id": 149,
      "content": "[Anti-glare]",
      "single_word": false,
      "lstrip": false,
      "rstrip": false,
      "normalized": false,
      "special": true
    },
    {
      "id": 150,
      "content": "[Touchscreen]",
      "single_word": false,
      "lstrip": false,
      "rstrip": false,
      "normalized": false,
      "special": true
    },
    {
      "id": 151,
      "content": "[60Hz]",
      "single_word": false,
      "lstrip": false,
      "rstrip": false,
      "normalized": false,
      "special": true
    },
    {
      "id": 152,
      "content": "[90Hz]",
      "single_word": false,
      "lstrip": false,
      "rstrip": false,
      "normalized": false,
      "special": true
    },
    {
      "id": 153,
      "content": "[120Hz]",
      "single_word": false,
      "lstrip": false,
      "rstrip": false,
      "normalized": false,
      "special": true
    },
    {
      "id": 154,
      "content": "[144Hz]",
      "single_word": false,
      "lstrip": false,
      "rstrip": false,
      "normalized": false,
      "special": true
    },
    {
      "id": 155,
      "content": "[240Hz]",
      "single_word": false,
      "lstrip": false,
      "rstrip": false,
      "normalized": false,
      "special": true
    },
    {
      "id": 156,
      "content": "[360Hz]",
      "single_word": false,
      "lstrip": false,
      "rstrip": false,
      "normalized": false,
      "special": true
    },
    {
      "id": 157,
      "content": "[Dolby-Atmos]",
      "single_word": false,
      "lstrip": false,
      "rstrip": false,
      "normalized": false,
      "special": true
    },
    {
      "id": 158,
      "content": "[DTS]",
      "single_word": false,
      "lstrip": false,
      "rstrip": false,
      "normalized": false,
      "special": true
    },
    {
      "id": 159,
      "content": "[Hi-Res]",
      "single_word": false,
      "lstrip": false,
      "rstrip": false,
      "normalized": false,
      "special": true
    },
    {
      "id": 160,
      "content": "[Noise-Cancelling]",
      "single_word": false,
      "lstrip": false,
      "rstrip": false,
      "normalized": false,
      "special": true
    },
    {
      "id": 161,
      "content": "[ANC]",
      "single_word": false,
      "lstrip": false,
      "rstrip": false,
      "normalized": false,
      "special": true
    },
    {
      "id": 162,
      "content": "[Transparency-Mode]",
      "single_word": false,
      "lstrip": false,
      "rstrip": false,
      "normalized": false,
      "special": true
    },
    {
      "id": 163,
      "content": "[CPU]",
      "single_word": false,
      "lstrip": false,
      "rstrip": false,
      "normalized": false,
      "special": true
    },
    {
      "id": 164,
      "content": "[GPU]",
      "single_word": false,
      "lstrip": false,
      "rstrip": false,
      "normalized": false,
      "special": true
    },
    {
      "id": 165,
      "content": "[RAM]",
      "single_word": false,
      "lstrip": false,
      "rstrip": false,
      "normalized": false,
      "special": true
    },
    {
      "id": 166,
      "content": "[ROM]",
      "single_word": false,
      "lstrip": false,
      "rstrip": false,
      "normalized": false,
      "special": true
    },
    {
      "id": 167,
      "content": "[SSD]",
      "single_word": false,
      "lstrip": false,
      "rstrip": false,
      "normalized": false,
      "special": true
    },
    {
      "id": 168,
      "content": "[HDD]",
      "single_word": false,
      "lstrip": false,
      "rstrip": false,
      "normalized": false,
      "special": true
    },
    {
      "id": 169,
      "content": "[NVMe]",
      "single_word": false,
      "lstrip": false,
      "rstrip": false,
      "normalized": false,
      "special": true
    },
    {
      "id": 170,
      "content": "[SATA]",
      "single_word": false,
      "lstrip": false,
      "rstrip": false,
      "normalized": false,
      "special": true
    },
    {
      "id": 171,
      "content": "[PCIe]",
      "single_word": false,
      "lstrip": false,
      "rstrip": false,
      "normalized": false,
      "special": true
    },
    {
      "id": 172,
      "content": "[M.2]",
      "single_word": false,
      "lstrip": false,
      "rstrip": false,
      "normalized": false,
      "special": true
    },
    {
      "id": 173,
      "content": "[DDR3]",
      "single_word": false,
      "lstrip": false,
      "rstrip": false,
      "normalized": false,
      "special": true
    },
    {
      "id": 174,
      "content": "[DDR4]",
      "single_word": false,
      "lstrip": false,
      "rstrip": false,
      "normalized": false,
      "special": true
    },
    {
      "id": 175,
      "content": "[DDR5]",
      "single_word": false,
      "lstrip": false,
      "rstrip": false,
      "normalized": false,
      "special": true
    },
    {
      "id": 176,
      "content": "[LPDDR]",
      "single_word": false,
      "lstrip": false,
      "rstrip": false,
      "normalized": false,
      "special": true
    },
    {
      "id": 177,
      "content": "[GDDR]",
      "single_word": false,
      "lstrip": false,
      "rstrip": false,
      "normalized": false,
      "special": true
    },
    {
      "id": 178,
      "content": "[mAh]",
      "single_word": false,
      "lstrip": false,
      "rstrip": false,
      "normalized": false,
      "special": true
    },
    {
      "id": 179,
      "content": "[Wh]",
      "single_word": false,
      "lstrip": false,
      "rstrip": false,
      "normalized": false,
      "special": true
    },
    {
      "id": 180,
      "content": "[Li-Ion]",
      "single_word": false,
      "lstrip": false,
      "rstrip": false,
      "normalized": false,
      "special": true
    },
    {
      "id": 181,
      "content": "[Li-Po]",
      "single_word": false,
      "lstrip": false,
      "rstrip": false,
      "normalized": false,
      "special": true
    },
    {
      "id": 182,
      "content": "[Fast-Charge]",
      "single_word": false,
      "lstrip": false,
      "rstrip": false,
      "normalized": false,
      "special": true
    },
    {
      "id": 183,
      "content": "[Power-Delivery]",
      "single_word": false,
      "lstrip": false,
      "rstrip": false,
      "normalized": false,
      "special": true
    },
    {
      "id": 184,
      "content": "[GaN]",
      "single_word": false,
      "lstrip": false,
      "rstrip": false,
      "normalized": false,
      "special": true
    },
    {
      "id": 185,
      "content": "[IP67]",
      "single_word": false,
      "lstrip": false,
      "rstrip": false,
      "normalized": false,
      "special": true
    },
    {
      "id": 186,
      "content": "[IP68]",
      "single_word": false,
      "lstrip": false,
      "rstrip": false,
      "normalized": false,
      "special": true
    },
    {
      "id": 187,
      "content": "[Water-Resistant]",
      "single_word": false,
      "lstrip": false,
      "rstrip": false,
      "normalized": false,
      "special": true
    },
    {
      "id": 188,
      "content": "[Dust-Proof]",
      "single_word": false,
      "lstrip": false,
      "rstrip": false,
      "normalized": false,
      "special": true
    },
    {
      "id": 189,
      "content": "[Shock-Proof]",
      "single_word": false,
      "lstrip": false,
      "rstrip": false,
      "normalized": false,
      "special": true
    },
    {
      "id": 190,
      "content": "[Dual-SIM]",
      "single_word": false,
      "lstrip": false,
      "rstrip": false,
      "normalized": false,
      "special": true
    },
    {
      "id": 191,
      "content": "[eSIM]",
      "single_word": false,
      "lstrip": false,
      "rstrip": false,
      "normalized": false,
      "special": true
    },
    {
      "id": 192,
      "content": "[Unlocked]",
      "single_word": false,
      "lstrip": false,
      "rstrip": false,
      "normalized": false,
      "special": true
    },
    {
      "id": 193,
      "content": "[Jailbroken]",
      "single_word": false,
      "lstrip": false,
      "rstrip": false,
      "normalized": false,
      "special": true
    },
    {
      "id": 194,
      "content": "[Rooted]",
      "single_word": false,
      "lstrip": false,
      "rstrip": false,
      "normalized": false,
      "special": true
    },
    {
      "id": 195,
      "content": "[Windows]",
      "single_word": false,
      "lstrip": false,
      "rstrip": false,
      "normalized": false,
      "special": true
    },
    {
      "id": 196,
      "content": "[macOS]",
      "single_word": false,
      "lstrip": false,
      "rstrip": false,
      "normalized": false,
      "special": true
    },
    {
      "id": 197,
      "content": "[iOS]",
      "single_word": false,
      "lstrip": false,
      "rstrip": false,
      "normalized": false,
      "special": true
    },
    {
      "id": 198,
      "content": "[Android]",
      "single_word": false,
      "lstrip": false,
      "rstrip": false,
      "normalized": false,
      "special": true
    },
    {
      "id": 199,
      "content": "[Linux]",
      "single_word": false,
      "lstrip": false,
      "rstrip": false,
      "normalized": false,
      "special": true
    },
    {
      "id": 200,
      "content": "[ChromeOS]",
      "single_word": false,
      "lstrip": false,
      "rstrip": false,
      "normalized": false,
      "special": true
    },
    {
      "id": 201,
      "content": "[elastane]",
      "single_word": false,
      "lstrip": false,
      "rstrip": false,
      "normalized": false,
      "special": true
    },
    {
      "id": 202,
      "content": "[denim]",
      "single_word": false,
      "lstrip": false,
      "rstrip": false,
      "normalized": false,
      "special": true
    },
    {
      "id": 203,
      "content": "[leather]",
      "single_word": false,
      "lstrip": false,
      "rstrip": false,
      "normalized": false,
      "special": true
    },
    {
      "id": 204,
      "content": "[suede]",
      "single_word": false,
      "lstrip": false,
      "rstrip": false,
      "normalized": false,
      "special": true
    },
    {
      "id": 205,
      "content": "[silk]",
      "single_word": false,
      "lstrip": false,
      "rstrip": false,
      "normalized": false,
      "special": true
    },
    {
      "id": 206,
      "content": "[linen]",
      "single_word": false,
      "lstrip": false,
      "rstrip": false,
      "normalized": false,
      "special": true
    },
    {
      "id": 207,
      "content": "[cashmere]",
      "single_word": false,
      "lstrip": false,
      "rstrip": false,
      "normalized": false,
      "special": true
    },
    {
      "id": 208,
      "content": "[wool]",
      "single_word": false,
      "lstrip": false,
      "rstrip": false,
      "normalized": false,
      "special": true
    },
    {
      "id": 209,
      "content": "[merino]",
      "single_word": false,
      "lstrip": false,
      "rstrip": false,
      "normalized": false,
      "special": true
    },
    {
      "id": 210,
      "content": "[fleece]",
      "single_word": false,
      "lstrip": false,
      "rstrip": false,
      "normalized": false,
      "special": true
    },
    {
      "id": 211,
      "content": "[velvet]",
      "single_word": false,
      "lstrip": false,
      "rstrip": false,
      "normalized": false,
      "special": true
    },
    {
      "id": 212,
      "content": "[corduroy]",
      "single_word": false,
      "lstrip": false,
      "rstrip": false,
      "normalized": false,
      "special": true
    },
    {
      "id": 213,
      "content": "[flannel]",
      "single_word": false,
      "lstrip": false,
      "rstrip": false,
      "normalized": false,
      "special": true
    },
    {
      "id": 214,
      "content": "[chiffon]",
      "single_word": false,
      "lstrip": false,
      "rstrip": false,
      "normalized": false,
      "special": true
    },
    {
      "id": 215,
      "content": "[satin]",
      "single_word": false,
      "lstrip": false,
      "rstrip": false,
      "normalized": false,
      "special": true
    },
    {
      "id": 216,
      "content": "[lace]",
      "single_word": false,
      "lstrip": false,
      "rstrip": false,
      "normalized": false,
      "special": true
    },
    {
      "id": 217,
      "content": "[canvas]",
      "single_word": false,
      "lstrip": false,
      "rstrip": false,
      "normalized": false,
      "special": true
    },
    {
      "id": 218,
      "content": "[mesh]",
      "single_word": false,
      "lstrip": false,
      "rstrip": false,
      "normalized": false,
      "special": true
    },
    {
      "id": 219,
      "content": "[neoprene]",
      "single_word": false,
      "lstrip": false,
      "rstrip": false,
      "normalized": false,
      "special": true
    },
    {
      "id": 220,
      "content": "[microfiber]",
      "single_word": false,
      "lstrip": false,
      "rstrip": false,
      "normalized": false,
      "special": true
    },
    {
      "id": 221,
      "content": "[gore-tex]",
      "single_word": false,
      "lstrip": false,
      "rstrip": false,
      "normalized": false,
      "special": true
    },
    {
      "id": 222,
      "content": "[thermal]",
      "single_word": false,
      "lstrip": false,
      "rstrip": false,
      "normalized": false,
      "special": true
    },
    {
      "id": 223,
      "content": "[gold-plated]",
      "single_word": false,
      "lstrip": false,
      "rstrip": false,
      "normalized": false,
      "special": true
    },
    {
      "id": 224,
      "content": "[sterling-silver]",
      "single_word": false,
      "lstrip": false,
      "rstrip": false,
      "normalized": false,
      "special": true
    },
    {
      "id": 225,
      "content": "[stainless-steel]",
      "single_word": false,
      "lstrip": false,
      "rstrip": false,
      "normalized": false,
      "special": true
    },
    {
      "id": 226,
      "content": "[titanium]",
      "single_word": false,
      "lstrip": false,
      "rstrip": false,
      "normalized": false,
      "special": true
    },
    {
      "id": 227,
      "content": "[carbide]",
      "single_word": false,
      "lstrip": false,
      "rstrip": false,
      "normalized": false,
      "special": true
    },
    {
      "id": 228,
      "content": "[moisture-wicking]",
      "single_word": false,
      "lstrip": false,
      "rstrip": false,
      "normalized": false,
      "special": true
    },
    {
      "id": 229,
      "content": "[quick-dry]",
      "single_word": false,
      "lstrip": false,
      "rstrip": false,
      "normalized": false,
      "special": true
    },
    {
      "id": 230,
      "content": "[wrinkle-free]",
      "single_word": false,
      "lstrip": false,
      "rstrip": false,
      "normalized": false,
      "special": true
    },
    {
      "id": 231,
      "content": "[slim-fit]",
      "single_word": false,
      "lstrip": false,
      "rstrip": false,
      "normalized": false,
      "special": true
    },
    {
      "id": 232,
      "content": "[regular-fit]",
      "single_word": false,
      "lstrip": false,
      "rstrip": false,
      "normalized": false,
      "special": true
    },
    {
      "id": 233,
      "content": "[loose-fit]",
      "single_word": false,
      "lstrip": false,
      "rstrip": false,
      "normalized": false,
      "special": true
    },
    {
      "id": 234,
      "content": "[oversized]",
      "single_word": false,
      "lstrip": false,
      "rstrip": false,
      "normalized": false,
      "special": true
    },
    {
      "id": 235,
      "content": "[skinny]",
      "single_word": false,
      "lstrip": false,
      "rstrip": false,
      "normalized": false,
      "special": true
    },
    {
      "id": 236,
      "content": "[tapered]",
      "single_word": false,
      "lstrip": false,
      "rstrip": false,
      "normalized": false,
      "special": true
    },
    {
      "id": 237,
      "content": "[bootcut]",
      "single_word": false,
      "lstrip": false,
      "rstrip": false,
      "normalized": false,
      "special": true
    },
    {
      "id": 238,
      "content": "[straight-leg]",
      "single_word": false,
      "lstrip": false,
      "rstrip": false,
      "normalized": false,
      "special": true
    },
    {
      "id": 239,
      "content": "[high-rise]",
      "single_word": false,
      "lstrip": false,
      "rstrip": false,
      "normalized": false,
      "special": true
    },
    {
      "id": 240,
      "content": "[mid-rise]",
      "single_word": false,
      "lstrip": false,
      "rstrip": false,
      "normalized": false,
      "special": true
    },
    {
      "id": 241,
      "content": "[low-rise]",
      "single_word": false,
      "lstrip": false,
      "rstrip": false,
      "normalized": false,
      "special": true
    },
    {
      "id": 242,
      "content": "[v-neck]",
      "single_word": false,
      "lstrip": false,
      "rstrip": false,
      "normalized": false,
      "special": true
    },
    {
      "id": 243,
      "content": "[crew-neck]",
      "single_word": false,
      "lstrip": false,
      "rstrip": false,
      "normalized": false,
      "special": true
    },
    {
      "id": 244,
      "content": "[turtleneck]",
      "single_word": false,
      "lstrip": false,
      "rstrip": false,
      "normalized": false,
      "special": true
    },
    {
      "id": 245,
      "content": "[mock-neck]",
      "single_word": false,
      "lstrip": false,
      "rstrip": false,
      "normalized": false,
      "special": true
    },
    {
      "id": 246,
      "content": "[halter]",
      "single_word": false,
      "lstrip": false,
      "rstrip": false,
      "normalized": false,
      "special": true
    },
    {
      "id": 247,
      "content": "[strapless]",
      "single_word": false,
      "lstrip": false,
      "rstrip": false,
      "normalized": false,
      "special": true
    },
    {
      "id": 248,
      "content": "[long-sleeve]",
      "single_word": false,
      "lstrip": false,
      "rstrip": false,
      "normalized": false,
      "special": true
    },
    {
      "id": 249,
      "content": "[short-sleeve]",
      "single_word": false,
      "lstrip": false,
      "rstrip": false,
      "normalized": false,
      "special": true
    },
    {
      "id": 250,
      "content": "[sleeveless]",
      "single_word": false,
      "lstrip": false,
      "rstrip": false,
      "normalized": false,
      "special": true
    },
    {
      "id": 251,
      "content": "[cap-sleeve]",
      "single_word": false,
      "lstrip": false,
      "rstrip": false,
      "normalized": false,
      "special": true
    },
    {
      "id": 252,
      "content": "[raglan]",
      "single_word": false,
      "lstrip": false,
      "rstrip": false,
      "normalized": false,
      "special": true
    },
    {
      "id": 253,
      "content": "[S]",
      "single_word": false,
      "lstrip": false,
      "rstrip": false,
      "normalized": false,
      "special": true
    },
    {
      "id": 254,
      "content": "[M]",
      "single_word": false,
      "lstrip": false,
      "rstrip": false,
      "normalized": false,
      "special": true
    },
    {
      "id": 255,
      "content": "[L]",
      "single_word": false,
      "lstrip": false,
      "rstrip": false,
      "normalized": false,
      "special": true
    },
    {
      "id": 256,
      "content": "[XL]",
      "single_word": false,
      "lstrip": false,
      "rstrip": false,
      "normalized": false,
      "special": true
    },
    {
      "id": 257,
      "content": "[XXXXL]",
      "single_word": false,
      "lstrip": false,
      "rstrip": false,
      "normalized": false,
      "special": true
    },
    {
      "id": 258,
      "content": "[One-Size]",
      "single_word": false,
      "lstrip": false,
      "rstrip": false,
      "normalized": false,
      "special": true
    },
    {
      "id": 259,
      "content": "[tall]",
      "single_word": false,
      "lstrip": false,
      "rstrip": false,
      "normalized": false,
      "special": true
    },
    {
      "id": 260,
      "content": "[big-and-tall]",
      "single_word": false,
      "lstrip": false,
      "rstrip": false,
      "normalized": false,
      "special": true
    },
    {
      "id": 261,
      "content": "[infant]",
      "single_word": false,
      "lstrip": false,
      "rstrip": false,
      "normalized": false,
      "special": true
    },
    {
      "id": 262,
      "content": "[toddler]",
      "single_word": false,
      "lstrip": false,
      "rstrip": false,
      "normalized": false,
      "special": true
    },
    {
      "id": 263,
      "content": "[kids]",
      "single_word": false,
      "lstrip": false,
      "rstrip": false,
      "normalized": false,
      "special": true
    },
    {
      "id": 264,
      "content": "[junior]",
      "single_word": false,
      "lstrip": false,
      "rstrip": false,
      "normalized": false,
      "special": true
    },
    {
      "id": 265,
      "content": "[unisex]",
      "single_word": false,
      "lstrip": false,
      "rstrip": false,
      "normalized": false,
      "special": true
    },
    {
      "id": 266,
      "content": "[mens]",
      "single_word": false,
      "lstrip": false,
      "rstrip": false,
      "normalized": false,
      "special": true
    },
    {
      "id": 267,
      "content": "[womens]",
      "single_word": false,
      "lstrip": false,
      "rstrip": false,
      "normalized": false,
      "special": true
    },
    {
      "id": 268,
      "content": "[non-comedogenic]",
      "single_word": false,
      "lstrip": false,
      "rstrip": false,
      "normalized": false,
      "special": true
    },
    {
      "id": 269,
      "content": "[dermatologist-tested]",
      "single_word": false,
      "lstrip": false,
      "rstrip": false,
      "normalized": false,
      "special": true
    },
    {
      "id": 270,
      "content": "[sulfate-free]",
      "single_word": false,
      "lstrip": false,
      "rstrip": false,
      "normalized": false,
      "special": true
    },
    {
      "id": 271,
      "content": "[paraben-free]",
      "single_word": false,
      "lstrip": false,
      "rstrip": false,
      "normalized": false,
      "special": true
    },
    {
      "id": 272,
      "content": "[phthalate-free]",
      "single_word": false,
      "lstrip": false,
      "rstrip": false,
      "normalized": false,
      "special": true
    },
    {
      "id": 273,
      "content": "[silicone-free]",
      "single_word": false,
      "lstrip": false,
      "rstrip": false,
      "normalized": false,
      "special": true
    },
    {
      "id": 274,
      "content": "[oil-free]",
      "single_word": false,
      "lstrip": false,
      "rstrip": false,
      "normalized": false,
      "special": true
    },
    {
      "id": 275,
      "content": "[fragrance-free]",
      "single_word": false,
      "lstrip": false,
      "rstrip": false,
      "normalized": false,
      "special": true
    },
    {
      "id": 276,
      "content": "[alcohol-free]",
      "single_word": false,
      "lstrip": false,
      "rstrip": false,
      "normalized": false,
      "special": true
    },
    {
      "id": 277,
      "content": "[gluten-free]",
      "single_word": false,
      "lstrip": false,
      "rstrip": false,
      "normalized": false,
      "special": true
    },
    {
      "id": 278,
      "content": "[natural]",
      "single_word": false,
      "lstrip": false,
      "rstrip": false,
      "normalized": false,
      "special": true
    },
    {
      "id": 279,
      "content": "[clean-beauty]",
      "single_word": false,
      "lstrip": false,
      "rstrip": false,
      "normalized": false,
      "special": true
    },
    {
      "id": 280,
      "content": "[SPF]",
      "single_word": false,
      "lstrip": false,
      "rstrip": false,
      "normalized": false,
      "special": true
    },
    {
      "id": 281,
      "content": "[PA+++]",
      "single_word": false,
      "lstrip": false,
      "rstrip": false,
      "normalized": false,
      "special": true
    },
    {
      "id": 282,
      "content": "[UVA]",
      "single_word": false,
      "lstrip": false,
      "rstrip": false,
      "normalized": false,
      "special": true
    },
    {
      "id": 283,
      "content": "[UVB]",
      "single_word": false,
      "lstrip": false,
      "rstrip": false,
      "normalized": false,
      "special": true
    },
    {
      "id": 284,
      "content": "[broad-spectrum]",
      "single_word": false,
      "lstrip": false,
      "rstrip": false,
      "normalized": false,
      "special": true
    },
    {
      "id": 285,
      "content": "[retinol]",
      "single_word": false,
      "lstrip": false,
      "rstrip": false,
      "normalized": false,
      "special": true
    },
    {
      "id": 286,
      "content": "[hyaluronic-acid]",
      "single_word": false,
      "lstrip": false,
      "rstrip": false,
      "normalized": false,
      "special": true
    },
    {
      "id": 287,
      "content": "[vitamin-c]",
      "single_word": false,
      "lstrip": false,
      "rstrip": false,
      "normalized": false,
      "special": true
    },
    {
      "id": 288,
      "content": "[niacinamide]",
      "single_word": false,
      "lstrip": false,
      "rstrip": false,
      "normalized": false,
      "special": true
    },
    {
      "id": 289,
      "content": "[salicylic-acid]",
      "single_word": false,
      "lstrip": false,
      "rstrip": false,
      "normalized": false,
      "special": true
    },
    {
      "id": 290,
      "content": "[matte]",
      "single_word": false,
      "lstrip": false,
      "rstrip": false,
      "normalized": false,
      "special": true
    },
    {
      "id": 291,
      "content": "[glossy]",
      "single_word": false,
      "lstrip": false,
      "rstrip": false,
      "normalized": false,
      "special": true
    },
    {
      "id": 292,
      "content": "[dewy]",
      "single_word": false,
      "lstrip": false,
      "rstrip": false,
      "normalized": false,
      "special": true
    },
    {
      "id": 293,
      "content": "[shimmer]",
      "single_word": false,
      "lstrip": false,
      "rstrip": false,
      "normalized": false,
      "special": true
    },
    {
      "id": 294,
      "content": "[metallic]",
      "single_word": false,
      "lstrip": false,
      "rstrip": false,
      "normalized": false,
      "special": true
    },
    {
      "id": 295,
      "content": "[HEPA]",
      "single_word": false,
      "lstrip": false,
      "rstrip": false,
      "normalized": false,
      "special": true
    },
    {
      "id": 296,
      "content": "[BPA-free]",
      "single_word": false,
      "lstrip": false,
      "rstrip": false,
      "normalized": false,
      "special": true
    },
    {
      "id": 297,
      "content": "[dishwasher-safe]",
      "single_word": false,
      "lstrip": false,
      "rstrip": false,
      "normalized": false,
      "special": true
    },
    {
      "id": 298,
      "content": "[microwave-safe]",
      "single_word": false,
      "lstrip": false,
      "rstrip": false,
      "normalized": false,
      "special": true
    },
    {
      "id": 299,
      "content": "[oven-safe]",
      "single_word": false,
      "lstrip": false,
      "rstrip": false,
      "normalized": false,
      "special": true
    },
    {
      "id": 300,
      "content": "[induction]",
      "single_word": false,
      "lstrip": false,
      "rstrip": false,
      "normalized": false,
      "special": true
    },
    {
      "id": 301,
      "content": "[convection]",
      "single_word": false,
      "lstrip": false,
      "rstrip": false,
      "normalized": false,
      "special": true
    },
    {
      "id": 302,
      "content": "[inverter]",
      "single_word": false,
      "lstrip": false,
      "rstrip": false,
      "normalized": false,
      "special": true
    },
    {
      "id": 303,
      "content": "[energy-star]",
      "single_word": false,
      "lstrip": false,
      "rstrip": false,
      "normalized": false,
      "special": true
    },
    {
      "id": 304,
      "content": "[BTU]",
      "single_word": false,
      "lstrip": false,
      "rstrip": false,
      "normalized": false,
      "special": true
    },
    {
      "id": 305,
      "content": "[CFM]",
      "single_word": false,
      "lstrip": false,
      "rstrip": false,
      "normalized": false,
      "special": true
    },
    {
      "id": 306,
      "content": "[RPM]",
      "single_word": false,
      "lstrip": false,
      "rstrip": false,
      "normalized": false,
      "special": true
    },
    {
      "id": 307,
      "content": "[decibel]",
      "single_word": false,
      "lstrip": false,
      "rstrip": false,
      "normalized": false,
      "special": true
    },
    {
      "id": 308,
      "content": "[voltage]",
      "single_word": false,
      "lstrip": false,
      "rstrip": false,
      "normalized": false,
      "special": true
    },
    {
      "id": 309,
      "content": "[wattage]",
      "single_word": false,
      "lstrip": false,
      "rstrip": false,
      "normalized": false,
      "special": true
    },
    {
      "id": 310,
      "content": "[lumen]",
      "single_word": false,
      "lstrip": false,
      "rstrip": false,
      "normalized": false,
      "special": true
    },
    {
      "id": 311,
      "content": "[kelvin]",
      "single_word": false,
      "lstrip": false,
      "rstrip": false,
      "normalized": false,
      "special": true
    },
    {
      "id": 312,
      "content": "[smart-home]",
      "single_word": false,
      "lstrip": false,
      "rstrip": false,
      "normalized": false,
      "special": true
    },
    {
      "id": 313,
      "content": "[IoT]",
      "single_word": false,
      "lstrip": false,
      "rstrip": false,
      "normalized": false,
      "special": true
    },
    {
      "id": 314,
      "content": "[Alexa]",
      "single_word": false,
      "lstrip": false,
      "rstrip": false,
      "normalized": false,
      "special": true
    },
    {
      "id": 315,
      "content": "[Google-Assistant]",
      "single_word": false,
      "lstrip": false,
      "rstrip": false,
      "normalized": false,
      "special": true
    },
    {
      "id": 316,
      "content": "[Siri]",
      "single_word": false,
      "lstrip": false,
      "rstrip": false,
      "normalized": false,
      "special": true
    },
    {
      "id": 317,
      "content": "[HomeKit]",
      "single_word": false,
      "lstrip": false,
      "rstrip": false,
      "normalized": false,
      "special": true
    },
    {
      "id": 318,
      "content": "[used-like-new]",
      "single_word": false,
      "lstrip": false,
      "rstrip": false,
      "normalized": false,
      "special": true
    },
    {
      "id": 319,
      "content": "[renewed]",
      "single_word": false,
      "lstrip": false,
      "rstrip": false,
      "normalized": false,
      "special": true
    },
    {
      "id": 320,
      "content": "[trending]",
      "single_word": false,
      "lstrip": false,
      "rstrip": false,
      "normalized": false,
      "special": true
    },
    {
      "id": 321,
      "content": "[bundle]",
      "single_word": false,
      "lstrip": false,
      "rstrip": false,
      "normalized": false,
      "special": true
    },
    {
      "id": 322,
      "content": "[gift-set]",
      "single_word": false,
      "lstrip": false,
      "rstrip": false,
      "normalized": false,
      "special": true
    },
    {
      "id": 323,
      "content": "[multipack]",
      "single_word": false,
      "lstrip": false,
      "rstrip": false,
      "normalized": false,
      "special": true
    },
    {
      "id": 324,
      "content": "[prime]",
      "single_word": false,
      "lstrip": false,
      "rstrip": false,
      "normalized": false,
      "special": true
    },
    {
      "id": 325,
      "content": "[express-shipping]",
      "single_word": false,
      "lstrip": false,
      "rstrip": false,
      "normalized": false,
      "special": true
    },
    {
      "id": 326,
      "content": "[same-day]",
      "single_word": false,
      "lstrip": false,
      "rstrip": false,
      "normalized": false,
      "special": true
    },
    {
      "id": 327,
      "content": "[next-day]",
      "single_word": false,
      "lstrip": false,
      "rstrip": false,
      "normalized": false,
      "special": true
    },
    {
      "id": 328,
      "content": "[curbside-pickup]",
      "single_word": false,
      "lstrip": false,
      "rstrip": false,
      "normalized": false,
      "special": true
    },
    {
      "id": 329,
      "content": "[backorder]",
      "single_word": false,
      "lstrip": false,
      "rstrip": false,
      "normalized": false,
      "special": true
    },
    {
      "id": 330,
      "content": "[pre-order]",
      "single_word": false,
      "lstrip": false,
      "rstrip": false,
      "normalized": false,
      "special": true
    },
    {
      "id": 331,
      "content": "[out-of-stock]",
      "single_word": false,
      "lstrip": false,
      "rstrip": false,
      "normalized": false,
      "special": true
    },
    {
      "id": 332,
      "content": "[in-stock]",
      "single_word": false,
      "lstrip": false,
      "rstrip": false,
      "normalized": false,
      "special": true
    },
    {
      "id": 333,
      "content": "[dropshipping]",
      "single_word": false,
      "lstrip": false,
      "rstrip": false,
      "normalized": false,
      "special": true
    },
    {
      "id": 334,
      "content": "[discount]",
      "single_word": false,
      "lstrip": false,
      "rstrip": false,
      "normalized": false,
      "special": true
    },
    {
      "id": 335,
      "content": "[promo-code]",
      "single_word": false,
      "lstrip": false,
      "rstrip": false,
      "normalized": false,
      "special": true
    },
    {
      "id": 336,
      "content": "[coupon]",
      "single_word": false,
      "lstrip": false,
      "rstrip": false,
      "normalized": false,
      "special": true
    },
    {
      "id": 337,
      "content": "[voucher]",
      "single_word": false,
      "lstrip": false,
      "rstrip": false,
      "normalized": false,
      "special": true
    },
    {
      "id": 338,
      "content": "[cashback]",
      "single_word": false,
      "lstrip": false,
      "rstrip": false,
      "normalized": false,
      "special": true
    },
    {
      "id": 339,
      "content": "[rebate]",
      "single_word": false,
      "lstrip": false,
      "rstrip": false,
      "normalized": false,
      "special": true
    },
    {
      "id": 340,
      "content": "[BOGO]",
      "single_word": false,
      "lstrip": false,
      "rstrip": false,
      "normalized": false,
      "special": true
    },
    {
      "id": 341,
      "content": "[flash-sale]",
      "single_word": false,
      "lstrip": false,
      "rstrip": false,
      "normalized": false,
      "special": true
    },
    {
      "id": 342,
      "content": "[clearance-sale]",
      "single_word": false,
      "lstrip": false,
      "rstrip": false,
      "normalized": false,
      "special": true
    },
    {
      "id": 343,
      "content": "[final-sale]",
      "single_word": false,
      "lstrip": false,
      "rstrip": false,
      "normalized": false,
      "special": true
    },
    {
      "id": 344,
      "content": "[Black-Friday]",
      "single_word": false,
      "lstrip": false,
      "rstrip": false,
      "normalized": false,
      "special": true
    },
    {
      "id": 345,
      "content": "[Cyber-Monday]",
      "single_word": false,
      "lstrip": false,
      "rstrip": false,
      "normalized": false,
      "special": true
    },
    {
      "id": 346,
      "content": "[Prime-Day]",
      "single_word": false,
      "lstrip": false,
      "rstrip": false,
      "normalized": false,
      "special": true
    },
    {
      "id": 347,
      "content": "[holiday-deal]",
      "single_word": false,
      "lstrip": false,
      "rstrip": false,
      "normalized": false,
      "special": true
    },
    {
      "id": 348,
      "content": "[BNPL]",
      "single_word": false,
      "lstrip": false,
      "rstrip": false,
      "normalized": false,
      "special": true
    },
    {
      "id": 349,
      "content": "[EMI]",
      "single_word": false,
      "lstrip": false,
      "rstrip": false,
      "normalized": false,
      "special": true
    },
    {
      "id": 350,
      "content": "[no-cost-EMI]",
      "single_word": false,
      "lstrip": false,
      "rstrip": false,
      "normalized": false,
      "special": true
    },
    {
      "id": 351,
      "content": "[APR]",
      "single_word": false,
      "lstrip": false,
      "rstrip": false,
      "normalized": false,
      "special": true
    },
    {
      "id": 352,
      "content": "[credit-card]",
      "single_word": false,
      "lstrip": false,
      "rstrip": false,
      "normalized": false,
      "special": true
    },
    {
      "id": 353,
      "content": "[debit-card]",
      "single_word": false,
      "lstrip": false,
      "rstrip": false,
      "normalized": false,
      "special": true
    },
    {
      "id": 354,
      "content": "[wallet]",
      "single_word": false,
      "lstrip": false,
      "rstrip": false,
      "normalized": false,
      "special": true
    },
    {
      "id": 355,
      "content": "[crypto]",
      "single_word": false,
      "lstrip": false,
      "rstrip": false,
      "normalized": false,
      "special": true
    },
    {
      "id": 356,
      "content": "[loyalty-points]",
      "single_word": false,
      "lstrip": false,
      "rstrip": false,
      "normalized": false,
      "special": true
    },
    {
      "id": 357,
      "content": "[rewards]",
      "single_word": false,
      "lstrip": false,
      "rstrip": false,
      "normalized": false,
      "special": true
    },
    {
      "id": 358,
      "content": "[subscription]",
      "single_word": false,
      "lstrip": false,
      "rstrip": false,
      "normalized": false,
      "special": true
    }
  ],
  "normalizer": {
    "type": "Sequence",
    "normalizers": [
      {
        "type": "NFD"
      },
      {
        "type": "Lowercase"
      },
      {
        "type": "StripAccents"
      }
    ]
  },
  "pre_tokenizer": {
    "type": "Sequence",
    "pretokenizers": [
      {
        "type": "WhitespaceSplit"
      },
      {
        "type": "Punctuation",
        "behavior": "Isolated"
      }
    ]
  },
  "post_processor": {
    "type": "TemplateProcessing",
    "single": [
      {
        "SpecialToken": {
          "id": "[CLS]",
          "type_id": 0
        }
      },
      {
        "Sequence": {
          "id": "A",
          "type_id": 0
        }
      },
      {
        "SpecialToken": {
          "id": "[SEP]",
          "type_id": 0
        }
      }
    ],
    "pair": [
      {
        "SpecialToken": {
          "id": "[CLS]",
          "type_id": 0
        }
      },
      {
        "Sequence": {
          "id": "A",
          "type_id": 0
        }
      },
      {
        "SpecialToken": {
          "id": "[SEP]",
          "type_id": 0
        }
      },
      {
        "Sequence": {
          "id": "B",
          "type_id": 0
        }
      },
      {
        "SpecialToken": {
          "id": "[SEP]",
          "type_id": 0
        }
      }
    ],
    "special_tokens": {
      "[CLS]": {
        "id": "[CLS]",
        "ids": [
          2
        ],
        "tokens": [
          "[CLS]"
        ]
      },
      "[SEP]": {
        "id": "[SEP]",
        "ids": [
          3
        ],
        "tokens": [
          "[SEP]"
        ]
      }
    }
  },
  "decoder": {
    "type": "BPEDecoder",
    "suffix": "</w>"
  },
  "model": {
    "type": "BPE",
    "dropout": null,
    "unk_token": "[UNK]",
    "continuing_subword_prefix": null,
    "end_of_word_suffix": null,
    "fuse_unk": false,
    "byte_fallback": false,
    "ignore_merges": false,
    "vocab": {
      "[PAD]": 0,
      "[UNK]": 1,
      "[CLS]": 2,
      "[SEP]": 3,
      "[MASK]": 4,
      "[BOS]": 5,
      "[EOS]": 6,
      "[EBITDA]": 7,
      "[EBIT]": 8,
      "[ROI]": 9,
      "[ROE]": 10,
      "[ROA]": 11,
      "[ROIC]": 12,
      "[WACC]": 13,
      "[DCF]": 14,
      "[NPV]": 15,
      "[IRR]": 16,
      "[P/E]": 17,
      "[EPS]": 18,
      "[P/B]": 19,
      "[P/S]": 20,
      "[CAGR]": 21,
      "[YoY]": 22,
      "[QoQ]": 23,
      "[MoM]": 24,
      "[TTM]": 25,
      "[LTM]": 26,
      "[10-K]": 27,
      "[10-Q]": 28,
      "[8-K]": 29,
      "[S-1]": 30,
      "[DEF14A]": 31,
      "[13F]": 32,
      "[Form4]": 33,
      "[GDP]": 34,
      "[CPI]": 35,
      "[PPI]": 36,
      "[FOMC]": 37,
      "[Fed]": 38,
      "[SEC]": 39,
      "[GAAP]": 40,
      "[IFRS]": 41,
      "[amortization]": 42,
      "[depreciation]": 43,
      "[accrual]": 44,
      "[leverage]": 45,
      "[liquidity]": 46,
      "[covenant]": 47,
      "[derivative]": 48,
      "[hedging]": 49,
      "[arbitrage]": 50,
      "[volatility]": 51,
      "[bullish]": 52,
      "[bearish]": 53,
      "[dividend]": 54,
      "[equity]": 55,
      "[liability]": 56,
      "[SKU]": 57,
      "[UPC]": 58,
      "[ASIN]": 59,
      "[EAN]": 60,
      "[GTIN]": 61,
      "[ISBN]": 62,
      "[MPN]": 63,
      "[HDMI]": 64,
      "[USB-C]": 65,
      "[USB-A]": 66,
      "[Bluetooth]": 67,
      "[WiFi]": 68,
      "[NFC]": 69,
      "[RFID]": 70,
      "[polyester]": 71,
      "[cotton]": 72,
      "[nylon]": 73,
      "[spandex]": 74,
      "[viscose]": 75,
      "[rayon]": 76,
      "[waterproof]": 77,
      "[breathable]": 78,
      "[antimicrobial]": 79,
      "[hypoallergenic]": 80,
      "[eco-friendly]": 81,
      "[sustainable]": 82,
      "[organic]": 83,
      "[vegan]": 84,
      "[cruelty-free]": 85,
      "[XS]": 86,
      "[XXL]": 87,
      "[XXXL]": 88,
      "[petite]": 89,
      "[plus-size]": 90,
      "[maternity]": 91,
      "[refurbished]": 92,
      "[pre-owned]": 93,
      "[open-box]": 94,
      "[clearance]": 95,
      "[bestseller]": 96,
      "[new-arrival]": 97,
      "[limited-edition]": 98,
      "[exclusive]": 99,
      "[ISSN]": 100,
      "[JAN]": 101,
      "[PLU]": 102,
      "[QR-Code]": 103,
      "[Barcode]": 104,
      "[Model-No]": 105,
      "[Serial-No]": 106,
      "[Batch-No]": 107,
      "[Micro-USB]": 108,
      "[Mini-USB]": 109,
      "[Lightning]": 110,
      "[Thunderbolt]": 111,
      "[DisplayPort]": 112,
      "[VGA]": 113,
      "[DVI]": 114,
      "[Ethernet]": 115,
      "[RJ45]": 116,
      "[Aux]": 117,
      "[Jack]": 118,
      "[GPS]": 119,
      "[LTE]": 120,
      "[5G]": 121,
      "[4G]": 122,
      "[3G]": 123,
      "[Zigbee]": 124,
      "[Z-Wave]": 125,
      "[LoRaWAN]": 126,
      "[Infrared]": 127,
      "[Qi-Charging]": 128,
      "[MagSafe]": 129,
      "[4K]": 130,
      "[8K]": 131,
      "[HD]": 132,
      "[FHD]": 133,
      "[QHD]": 134,
      "[UHD]": 135,
      "[HDR]": 136,
      "[HDR10]": 137,
      "[Dolby-Vision]": 138,
      "[OLED]": 139,
      "[QLED]": 140,
      "[AMOLED]": 141,
      "[IPS]": 142,
      "[LCD]": 143,
      "[LED]": 144,
      "[Micro-LED]": 145,
      "[Mini-LED]": 146,
      "[Retina]": 147,
      "[Gorilla-Glass]": 148,
      "[Anti-glare]": 149,
      "[Touchscreen]": 150,
      "[60Hz]": 151,
      "[90Hz]": 152,
      "[120Hz]": 153,
      "[144Hz]": 154,
      "[240Hz]": 155,
      "[360Hz]": 156,
      "[Dolby-Atmos]": 157,
      "[DTS]": 158,
      "[Hi-Res]": 159,
      "[Noise-Cancelling]": 160,
      "[ANC]": 161,
      "[Transparency-Mode]": 162,
      "[CPU]": 163,
      "[GPU]": 164,
      "[RAM]": 165,
      "[ROM]": 166,
      "[SSD]": 167,
      "[HDD]": 168,
      "[NVMe]": 169,
      "[SATA]": 170,
      "[PCIe]": 171,
      "[M.2]": 172,
      "[DDR3]": 173,
      "[DDR4]": 174,
      "[DDR5]": 175,
      "[LPDDR]": 176,
      "[GDDR]": 177,
      "[mAh]": 178,
      "[Wh]": 179,
      "[Li-Ion]": 180,
      "[Li-Po]": 181,
      "[Fast-Charge]": 182,
      "[Power-Delivery]": 183,
      "[GaN]": 184,
      "[IP67]": 185,
      "[IP68]": 186,
      "[Water-Resistant]": 187,
      "[Dust-Proof]": 188,
      "[Shock-Proof]": 189,
      "[Dual-SIM]": 190,
      "[eSIM]": 191,
      "[Unlocked]": 192,
      "[Jailbroken]": 193,
      "[Rooted]": 194,
      "[Windows]": 195,
      "[macOS]": 196,
      "[iOS]": 197,
      "[Android]": 198,
      "[Linux]": 199,
      "[ChromeOS]": 200,
      "[elastane]": 201,
      "[denim]": 202,
      "[leather]": 203,
      "[suede]": 204,
      "[silk]": 205,
      "[linen]": 206,
      "[cashmere]": 207,
      "[wool]": 208,
      "[merino]": 209,
      "[fleece]": 210,
      "[velvet]": 211,
      "[corduroy]": 212,
      "[flannel]": 213,
      "[chiffon]": 214,
      "[satin]": 215,
      "[lace]": 216,
      "[canvas]": 217,
      "[mesh]": 218,
      "[neoprene]": 219,
      "[microfiber]": 220,
      "[gore-tex]": 221,
      "[thermal]": 222,
      "[gold-plated]": 223,
      "[sterling-silver]": 224,
      "[stainless-steel]": 225,
      "[titanium]": 226,
      "[carbide]": 227,
      "[moisture-wicking]": 228,
      "[quick-dry]": 229,
      "[wrinkle-free]": 230,
      "[slim-fit]": 231,
      "[regular-fit]": 232,
      "[loose-fit]": 233,
      "[oversized]": 234,
      "[skinny]": 235,
      "[tapered]": 236,
      "[bootcut]": 237,
      "[straight-leg]": 238,
      "[high-rise]": 239,
      "[mid-rise]": 240,
      "[low-rise]": 241,
      "[v-neck]": 242,
      "[crew-neck]": 243,
      "[turtleneck]": 244,
      "[mock-neck]": 245,
      "[halter]": 246,
      "[strapless]": 247,
      "[long-sleeve]": 248,
      "[short-sleeve]": 249,
      "[sleeveless]": 250,
      "[cap-sleeve]": 251,
      "[raglan]": 252,
      "[S]": 253,
      "[M]": 254,
      "[L]": 255,
      "[XL]": 256,
      "[XXXXL]": 257,
      "[One-Size]": 258,
      "[tall]": 259,
      "[big-and-tall]": 260,
      "[infant]": 261,
      "[toddler]": 262,
      "[kids]": 263,
      "[junior]": 264,
      "[unisex]": 265,
      "[mens]": 266,
      "[womens]": 267,
      "[non-comedogenic]": 268,
      "[dermatologist-tested]": 269,
      "[sulfate-free]": 270,
      "[paraben-free]": 271,
      "[phthalate-free]": 272,
      "[silicone-free]": 273,
      "[oil-free]": 274,
      "[fragrance-free]": 275,
      "[alcohol-free]": 276,
      "[gluten-free]": 277,
      "[natural]": 278,
      "[clean-beauty]": 279,
      "[SPF]": 280,
      "[PA+++]": 281,
      "[UVA]": 282,
      "[UVB]": 283,
      "[broad-spectrum]": 284,
      "[retinol]": 285,
      "[hyaluronic-acid]": 286,
      "[vitamin-c]": 287,
      "[niacinamide]": 288,
      "[salicylic-acid]": 289,
      "[matte]": 290,
      "[glossy]": 291,
      "[dewy]": 292,
      "[shimmer]": 293,
      "[metallic]": 294,
      "[HEPA]": 295,
      "[BPA-free]": 296,
      "[dishwasher-safe]": 297,
      "[microwave-safe]": 298,
      "[oven-safe]": 299,
      "[induction]": 300,
      "[convection]": 301,
      "[inverter]": 302,
      "[energy-star]": 303,
      "[BTU]": 304,
      "[CFM]": 305,
      "[RPM]": 306,
      "[decibel]": 307,
      "[voltage]": 308,
      "[wattage]": 309,
      "[lumen]": 310,
      "[kelvin]": 311,
      "[smart-home]": 312,
      "[IoT]": 313,
      "[Alexa]": 314,
      "[Google-Assistant]": 315,
      "[Siri]": 316,
      "[HomeKit]": 317,
      "[used-like-new]": 318,
      "[renewed]": 319,
      "[trending]": 320,
      "[bundle]": 321,
      "[gift-set]": 322,
      "[multipack]": 323,
      "[prime]": 324,
      "[express-shipping]": 325,
      "[same-day]": 326,
      "[next-day]": 327,
      "[curbside-pickup]": 328,
      "[backorder]": 329,
      "[pre-order]": 330,
      "[out-of-stock]": 331,
      "[in-stock]": 332,
      "[dropshipping]": 333,
      "[discount]": 334,
      "[promo-code]": 335,
      "[coupon]": 336,
      "[voucher]": 337,
      "[cashback]": 338,
      "[rebate]": 339,
      "[BOGO]": 340,
      "[flash-sale]": 341,
      "[clearance-sale]": 342,
      "[final-sale]": 343,
      "[Black-Friday]": 344,
      "[Cyber-Monday]": 345,
      "[Prime-Day]": 346,
      "[holiday-deal]": 347,
      "[BNPL]": 348,
      "[EMI]": 349,
      "[no-cost-EMI]": 350,
      "[APR]": 351,
      "[credit-card]": 352,
      "[debit-card]": 353,
      "[wallet]": 354,
      "[crypto]": 355,
      "[loyalty-points]": 356,
      "[rewards]": 357,
      "[subscription]": 358,
      "!": 359,
      "\"": 360,
      "#": 361,
      "$": 362,
      "%": 363,
      "&": 364,
      "'": 365,
      "(": 366,
      ")": 367,
      "*": 368,
      "+": 369,
      ",": 370,
      "-": 371,
      ".": 372,
      "/": 373,
      "0": 374,
      "1": 375,
      "2": 376,
      "3": 377,
      "4": 378,
      "5": 379,
      "6": 380,
      "7": 381,
      "8": 382,
      "9": 383,
      ":": 384,
      ";": 385,
      "<": 386,
      "=": 387,
      ">": 388,
      "?": 389,
      "@": 390,
      "[": 391,
      "\\": 392,
      "]": 393,
      "^": 394,
      "_": 395,
      "`": 396,
      "a": 397,
      "b": 398,
      "c": 399,
      "d": 400,
      "e": 401,
      "f": 402,
      "g": 403,
      "h": 404,
      "i": 405,
      "j": 406,
      "k": 407,
      "l": 408,
      "m": 409,
      "n": 410,
      "o": 411,
      "p": 412,
      "q": 413,
      "r": 414,
      "s": 415,
      "t": 416,
      "u": 417,
      "v": 418,
      "w": 419,
      "x": 420,
      "y": 421,
      "z": 422,
      "|": 423,
      "}": 424,
      "~": 425,
      "£": 426,
      "¦": 427,
      "©": 428,
      "®": 429,
      "¯": 430,
      "°": 431,
      "²": 432,
      "³": 433,
      "·": 434,
      "¹": 435,
      "º": 436,
      "»": 437,
      "½": 438,
      "¾": 439,
      "¿": 440,
      "×": 441,
      "æ": 442,
      "đ": 443,
      "œ": 444,
      "ɔ": 445,
      "ə": 446,
      "ɪ": 447,
      "ˈ": 448,
      "ː": 449,
      "˚": 450,
      "˜": 451,
      "в": 452,
      "ж": 453,
      "о": 454,
      "т": 455,
      "ا": 456,
      "ر": 457,
      "ظ": 458,
      "ق": 459,
      "ل": 460,
      "م": 461,
      "ه": 462,
      "അ": 463,
      "ആ": 464,
      "ഉ": 465,
      "എ": 466,
      "ഏ": 467,
      "ഐ": 468,
      "ഓ": 469,
      "ക": 470,
      "ഗ": 471,
      "ങ": 472,
      "ച": 473,
      "ട": 474,
      "ഡ": 475,
      "ണ": 476,
      "ത": 477,
      "ദ": 478,
      "ന": 479,
      "പ": 480,
      "ഫ": 481,
      "ബ": 482,
      "ഭ": 483,
      "മ": 484,
      "യ": 485,
      "ര": 486,
      "റ": 487,
      "ല": 488,
      "വ": 489,
      "ഷ": 490,
      "സ": 491,
      "ൻ": 492,
      "ർ": 493,
      "ൽ": 494,
      "ൾ": 495,
      "ก": 496,
      "จ": 497,
      "น": 498,
      "ฟ": 499,
      "ย": 500,
      "ร": 501,
      "า": 502,
      "ไ": 503,
      "ᄀ": 504,
      "ᄂ": 505,
      "ᄃ": 506,
      "ᄅ": 507,
      "ᄉ": 508,
      "ᄋ": 509,
      "ᅡ": 510,
      "ᅢ": 511,
      "ᅥ": 512,
      "ᅩ": 513,
      "ᅬ": 514,
      "ᅳ": 515,
      "ᅵ": 516,
      "ᆨ": 517,
      "ᆫ": 518,
      "ᆯ": 519,
      "ᆸ": 520,
      "ᆹ": 521,
      "ᆺ": 522,
      "ᆼ": 523,
      "‐": 524,
      "‒": 525,
      "–": 526,
      "—": 527,
      "‘": 528,
      "’": 529,
      "‚": 530,
      "“": 531,
      "”": 532,
      "†": 533,
      "•": 534,
      "…": 535,
      "″": 536,
      "‹": 537,
      "›": 538,
      "€": 539,
      "₹": 540,
      "™": 541,
      "→": 542,
      "►": 543,
      "●": 544,
      "☆": 545,
      "☎": 546,
      "♦": 547,
      "✅": 548,
      "✓": 549,
      "✨": 550,
      "❤": 551,
      "➔": 552,
      "➤": 553,
      "。": 554,
      "【": 555,
      "】": 556,
      "ア": 557,
      "ィ": 558,
      "テ": 559,
      "マ": 560,
      "ル": 561,
      "・": 562,
      "円": 563,
      "婧": 564,
      "嵁": 565,
      "日": 566,
      "榗": 567,
      "檇": 568,
      "檚": 569,
      "涓": 570,
      "潵": 571,
      "産": 572,
      "规": 573,
      "鈥": 574,
      "鏄": 575,
      "鏍": 576,
      "！": 577,
      "，": 578,
      "：": 579,
      "�": 580,
      "🇸": 581,
      "🇺": 582,
      "💵": 583,
      "😁": 584,
      "😍": 585,
      "🤙": 586,
      "in": 587,
      "th": 588,
      "er": 589,
      "an": 590,
      "re": 591,
      "on": 592,
      "or": 593,
      "ou": 594,
      "ar": 595,
      "the": 596,
      "at": 597,
      "le": 598,
      "st": 599,
      "en": 600,
      "al": 601,
      "to": 602,
      "and": 603,
      "ing": 604,
      "ed": 605,
      "ic": 606,
      "it": 607,
      "is": 608,
      "es": 609,
      "ro": 610,
      "you": 611,
      "as": 612,
      "for": 613,
      "el": 614,
      "of": 615,
      "ac": 616,
      "ion": 617,
      "ve": 618,
      "il": 619,
      "co": 620,
      "ch": 621,
      "se": 622,
      "ad": 623,
      "tr": 624,
      "wi": 625,
      "car": 626,
      "ow": 627,
      "mo": 628,
      "de": 629,
      "ver": 630,
      "ent": 631,
      "ge": 632,
      "be": 633,
      "ig": 634,
      "wh": 635,
      "with": 636,
      "ti": 637,
      "ke": 638,
      "me": 639,
      "all": 640,
      "your": 641,
      "mp": 642,
      "ab": 643,
      "ne": 644,
      "au": 645,
      "ri": 646,
      "su": 647,
      "are": 648,
      "con": 649,
      "lo": 650,
      "ay": 651,
      "ter": 652,
      "sp": 653,
      "ct": 654,
      "us": 655,
      "ir": 656,
      "we": 657,
      "ce": 658,
      "sh": 659,
      "00": 660,
      "ur": 661,
      "ex": 662,
      "ly": 663,
      "pro": 664,
      "ts": 665,
      "ma": 666,
      "per": 667,
      "li": 668,
      "igh": 669,
      "so": 670,
      "res": 671,
      "bu": 672,
      "ot": 673,
      "qu": 674,
      "ra": 675,
      "si": 676,
      "un": 677,
      "ation": 678,
      "ck": 679,
      "that": 680,
      "our": 681,
      "icle": 682,
      "te": 683,
      "veh": 684,
      "vehicle": 685,
      "ice": 686,
      "ind": 687,
      "fe": 688,
      "ers": 689,
      "lu": 690,
      "ta": 691,
      "this": 692,
      "if": 693,
      "20": 694,
      "pl": 695,
      "ol": 696,
      "ust": 697,
      "able": 698,
      "sa": 699,
      "ther": 700,
      "ha": 701,
      "ine": 702,
      "can": 703,
      "ul": 704,
      "id": 705,
      "par": 706,
      "ment": 707,
      "ill": 708,
      "man": 709,
      "auto": 710,
      "ack": 711,
      "one": 712,
      "ty": 713,
      "ity": 714,
      "act": 715,
      "op": 716,
      "out": 717,
      "am": 718,
      "com": 719,
      "ser": 720,
      "rom": 721,
      "ste": 722,
      "od": 723,
      "ap": 724,
      "comp": 725,
      "from": 726,
      "up": 727,
      "les": 728,
      "du": 729,
      "he": 730,
      "oun": 731,
      "go": 732,
      "pa": 733,
      "dri": 734,
      "av": 735,
      "ight": 736,
      "new": 737,
      "have": 738,
      "ate": 739,
      "di": 740,
      "tru": 741,
      "serv": 742,
      "eng": 743,
      "pr": 744,
      "off": 745,
      "ip": 746,
      "whe": 747,
      "ess": 748,
      "do": 749,
      "spe": 750,
      "will": 751,
      "not": 752,
      "um": 753,
      "vi": 754,
      "ag": 755,
      "by": 756,
      "19": 757,
      "truck": 758,
      "end": 759,
      "wheel": 760,
      "inc": 761,
      "no": 762,
      "ort": 763,
      "very": 764,
      "any": 765,
      "del": 766,
      "ok": 767,
      "more": 768,
      "ass": 769,
      "ower": 770,
      "om": 771,
      "ail": 772,
      "ard": 773,
      "ran": 774,
      "deal": 775,
      "pe": 776,
      "ace": 777,
      "cont": 778,
      "bo": 779,
      "own": 780,
      "ction": 781,
      "get": 782,
      "ition": 783,
      "ld": 784,
      "po": 785,
      "cars": 786,
      "int": 787,
      "age": 788,
      "ell": 789,
      "201": 790,
      "ant": 791,
      "wor": 792,
      "ated": 793,
      "power": 794,
      "ron": 795,
      "des": 796,
      "mi": 797,
      "seat": 798,
      "da": 799,
      "bi": 800,
      "che": 801,
      "ase": 802,
      "service": 803,
      "parts": 804,
      "was": 805,
      "pre": 806,
      "ere": 807,
      "has": 808,
      "bra": 809,
      "der": 810,
      "its": 811,
      "mat": 812,
      "engine": 813,
      "used": 814,
      "ick": 815,
      "tion": 816,
      "rol": 817,
      "fi": 818,
      "way": 819,
      "fron": 820,
      "nt": 821,
      "ally": 822,
      "gre": 823,
      "ans": 824,
      "ies": 825,
      "rear": 826,
      "br": 827,
      "front": 828,
      "ors": 829,
      "inclu": 830,
      "need": 831,
      "sy": 832,
      "af": 833,
      "ful": 834,
      "ci": 835,
      "im": 836,
      "gh": 837,
      "look": 838,
      "but": 839,
      "tires": 840,
      "la": 841,
      "ite": 842,
      "high": 843,
      "red": 844,
      "acc": 845,
      "mar": 846,
      "model": 847,
      "buy": 848,
      "dition": 849,
      "ign": 850,
      "gr": 851,
      "day": 852,
      "200": 853,
      "price": 854,
      "now": 855,
      "inter": 856,
      "ance": 857,
      "best": 858,
      "led": 859,
      "ho": 860,
      "fin": 861,
      "repa": 862,
      "they": 863,
      "ould": 864,
      "stem": 865,
      "when": 866,
      "system": 867,
      "ough": 868,
      "air": 869,
      "also": 870,
      "dis": 871,
      "place": 872,
      "than": 873,
      "time": 874,
      "ye": 875,
      "atu": 876,
      "fact": 877,
      "ound": 878,
      "cl": 879,
      "cust": 880,
      "sion": 881,
      "just": 882,
      "ship": 883,
      "great": 884,
      "custom": 885,
      "ree": 886,
      "manu": 887,
      "avail": 888,
      "repair": 889,
      "ut": 890,
      "control": 891,
      "work": 892,
      "ven": 893,
      "form": 894,
      "my": 895,
      "ble": 896,
      "tire": 897,
      "fo": 898,
      "tor": 899,
      "wind": 900,
      "est": 901,
      "ich": 902,
      "ving": 903,
      "cle": 904,
      "kes": 905,
      "over": 906,
      "ting": 907,
      "qual": 908,
      "10": 909,
      "ford": 910,
      "ew": 911,
      "let": 912,
      "ence": 913,
      "available": 914,
      "vehicles": 915,
      "produ": 916,
      "make": 917,
      "ast": 918,
      "other": 919,
      "tur": 920,
      "inst": 921,
      "50": 922,
      "cy": 923,
      "road": 924,
      "offer": 925,
      "view": 926,
      "some": 927,
      "ber": 928,
      "ory": 929,
      "ior": 930,
      "mer": 931,
      "ices": 932,
      "dealer": 933,
      "loc": 934,
      "star": 935,
      "ple": 936,
      "ach": 937,
      "find": 938,
      "fer": 939,
      "hel": 940,
      "most": 941,
      "quality": 942,
      "year": 943,
      "which": 944,
      "sure": 945,
      "eas": 946,
      "there": 947,
      "bl": 948,
      "pp": 949,
      "col": 950,
      "sale": 951,
      "ous": 952,
      "part": 953,
      "featu": 954,
      "ive": 955,
      "head": 956,
      "back": 957,
      "ding": 958,
      "sc": 959,
      "drive": 960,
      "king": 961,
      "ru": 962,
      "read": 963,
      "ade": 964,
      "low": 965,
      "like": 966,
      "ain": 967,
      "help": 968,
      "ely": 969,
      "how": 970,
      "mon": 971,
      "less": 972,
      "fit": 973,
      "rent": 974,
      "ist": 975,
      "line": 976,
      "brake": 977,
      "char": 978,
      "ced": 979,
      "ep": 980,
      "ket": 981,
      "je": 982,
      "good": 983,
      "these": 984,
      "ong": 985,
      "exper": 986,
      "ility": 987,
      "ms": 988,
      "ry": 989,
      "stand": 990,
      "use": 991,
      "war": 992,
      "side": 993,
      "tail": 994,
      "driver": 995,
      "pur": 996,
      "chan": 997,
      "only": 998,
      "ks": 999,
      "condition": 1000,
      "imp": 1001,
      "min": 1002,
      "may": 1003,
      "perfor": 1004,
      "ish": 1005,
      "product": 1006,
      "performan": 1007,
      "replace": 1008,
      "cover": 1009,
      "about": 1010,
      "performance": 1011,
      "val": 1012,
      "sport": 1013,
      "ia": 1014,
      "ele": 1015,
      "design": 1016,
      "what": 1017,
      "ings": 1018,
      "light": 1019,
      "tive": 1020,
      "top": 1021,
      "rest": 1022,
      "mit": 1023,
      "cor": 1024,
      "option": 1025,
      "every": 1026,
      "ering": 1027,
      "000": 1028,
      "ze": 1029,
      "bel": 1030,
      "ash": 1031,
      "ure": 1032,
      "fu": 1033,
      "gl": 1034,
      "vid": 1035,
      "ations": 1036,
      "et": 1037,
      "vent": 1038,
      "see": 1039,
      "mis": 1040,
      "ota": 1041,
      "cho": 1042,
      "wheels": 1043,
      "features": 1044,
      "bat": 1045,
      "hand": 1046,
      "12": 1047,
      "fuel": 1048,
      "dif": 1049,
      "automo": 1050,
      "list": 1051,
      "tain": 1052,
      "cial": 1053,
      "well": 1054,
      "want": 1055,
      "van": 1056,
      "motor": 1057,
      "jo": 1058,
      "their": 1059,
      "gen": 1060,
      "purch": 1061,
      "trans": 1062,
      "free": 1063,
      "mu": 1064,
      "come": 1065,
      "chev": 1066,
      "replacement": 1067,
      "cent": 1068,
      "ience": 1069,
      "old": 1070,
      "gu": 1071,
      "been": 1072,
      "pos": 1073,
      "shop": 1074,
      "tech": 1075,
      "ise": 1076,
      "matic": 1077,
      "ef": 1078,
      "ning": 1079,
      "seats": 1080,
      "ody": 1081,
      "easy": 1082,
      "ctr": 1083,
      "pres": 1084,
      "row": 1085,
      "ount": 1086,
      "set": 1087,
      "electr": 1088,
      "pack": 1089,
      "ial": 1090,
      "access": 1091,
      "ire": 1092,
      "hon": 1093,
      "rack": 1094,
      "eld": 1095,
      "speed": 1096,
      "batter": 1097,
      "manufact": 1098,
      "cur": 1099,
      "ights": 1100,
      "safe": 1101,
      "inform": 1102,
      "requ": 1103,
      "trail": 1104,
      "spec": 1105,
      "range": 1106,
      "toy": 1107,
      "hau": 1108,
      "steering": 1109,
      "body": 1110,
      "ves": 1111,
      "call": 1112,
      "review": 1113,
      "tow": 1114,
      "15": 1115,
      "after": 1116,
      "right": 1117,
      "take": 1118,
      "wo": 1119,
      "warran": 1120,
      "reg": 1121,
      "bike": 1122,
      "thing": 1123,
      "toyota": 1124,
      "fir": 1125,
      "provid": 1126,
      "brand": 1127,
      "ary": 1128,
      "ping": 1129,
      "san": 1130,
      "remo": 1131,
      "mper": 1132,
      "ax": 1133,
      "ded": 1134,
      "tract": 1135,
      "bet": 1136,
      "automatic": 1137,
      "ph": 1138,
      "here": 1139,
      "ll": 1140,
      "rat": 1141,
      "sub": 1142,
      "sell": 1143,
      "cost": 1144,
      "honda": 1145,
      "sto": 1146,
      "fic": 1147,
      "information": 1148,
      "interior": 1149,
      "charg": 1150,
      "pass": 1151,
      "check": 1152,
      "black": 1153,
      "standard": 1154,
      "cam": 1155,
      "oil": 1156,
      "pay": 1157,
      "ft": 1158,
      "ring": 1159,
      "18": 1160,
      "full": 1161,
      "class": 1162,
      "16": 1163,
      "son": 1164,
      "ved": 1165,
      "equ": 1166,
      "lea": 1167,
      "door": 1168,
      "market": 1169,
      "ca": 1170,
      "play": 1171,
      "vide": 1172,
      "down": 1173,
      "fl": 1174,
      "kit": 1175,
      "vis": 1176,
      "don": 1177,
      "even": 1178,
      "know": 1179,
      "vol": 1180,
      "them": 1181,
      "lar": 1182,
      "long": 1183,
      "looking": 1184,
      "bus": 1185,
      "try": 1186,
      "audi": 1187,
      "ari": 1188,
      "ens": 1189,
      "fort": 1190,
      "many": 1191,
      "ose": 1192,
      "battery": 1193,
      "rad": 1194,
      "199": 1195,
      "thr": 1196,
      "cer": 1197,
      "miles": 1198,
      "bile": 1199,
      "mission": 1200,
      "lights": 1201,
      "ds": 1202,
      "mir": 1203,
      "supp": 1204,
      "online": 1205,
      "ular": 1206,
      "experience": 1207,
      "warranty": 1208,
      "lock": 1209,
      "ext": 1210,
      "exc": 1211,
      "differ": 1212,
      "chevro": 1213,
      "hy": 1214,
      "buil": 1215,
      "30": 1216,
      "cap": 1217,
      "ps": 1218,
      "install": 1219,
      "mirr": 1220,
      "chevrolet": 1221,
      "rid": 1222,
      "paint": 1223,
      "ability": 1224,
      "where": 1225,
      "under": 1226,
      "fect": 1227,
      "vel": 1228,
      "pri": 1229,
      "pick": 1230,
      "detail": 1231,
      "near": 1232,
      "comm": 1233,
      "manual": 1234,
      "fore": 1235,
      "start": 1236,
      "sele": 1237,
      "offers": 1238,
      "manufactur": 1239,
      "24": 1240,
      "ile": 1241,
      "orig": 1242,
      "who": 1243,
      "through": 1244,
      "origin": 1245,
      "key": 1246,
      "equip": 1247,
      "ific": 1248,
      "ster": 1249,
      "comes": 1250,
      "window": 1251,
      "ben": 1252,
      "cess": 1253,
      "ents": 1254,
      "iz": 1255,
      "made": 1256,
      "ater": 1257,
      "port": 1258,
      "ton": 1259,
      "services": 1260,
      "ased": 1261,
      "driving": 1262,
      "models": 1263,
      "lin": 1264,
      "num": 1265,
      "run": 1266,
      "ical": 1267,
      "ak": 1268,
      "please": 1269,
      "nis": 1270,
      "roof": 1271,
      "much": 1272,
      "oth": 1273,
      "rental": 1274,
      "assi": 1275,
      "shi": 1276,
      "glass": 1277,
      "fil": 1278,
      "har": 1279,
      "lit": 1280,
      "ily": 1281,
      "trim": 1282,
      "size": 1283,
      "customer": 1284,
      "bm": 1285,
      "company": 1286,
      "ss": 1287,
      "first": 1288,
      "lue": 1289,
      "shield": 1290,
      "without": 1291,
      "show": 1292,
      "ments": 1293,
      "clean": 1294,
      "iver": 1295,
      "would": 1296,
      "addition": 1297,
      "original": 1298,
      "bs": 1299,
      "blue": 1300,
      "ue": 1301,
      "ram": 1302,
      "today": 1303,
      "super": 1304,
      "dealership": 1305,
      "ories": 1306,
      "arch": 1307,
      "safety": 1308,
      "40": 1309,
      "special": 1310,
      "io": 1311,
      "options": 1312,
      "should": 1313,
      "exhau": 1314,
      "exhaust": 1315,
      "ille": 1316,
      "sty": 1317,
      "windshield": 1318,
      "11": 1319,
      "ler": 1320,
      "into": 1321,
      "put": 1322,
      "tu": 1323,
      "keep": 1324,
      "turn": 1325,
      "trailer": 1326,
      "land": 1327,
      "search": 1328,
      "disc": 1329,
      "tim": 1330,
      "purchase": 1331,
      "vari": 1332,
      "trucks": 1333,
      "mile": 1334,
      "bmw": 1335,
      "rect": 1336,
      "main": 1337,
      "different": 1338,
      "99": 1339,
      "while": 1340,
      "sive": 1341,
      "load": 1342,
      "including": 1343,
      "years": 1344,
      "bar": 1345,
      "elle": 1346,
      "products": 1347,
      "ped": 1348,
      "sing": 1349,
      "suv": 1350,
      "test": 1351,
      "17": 1352,
      "ges": 1353,
      "contact": 1354,
      "color": 1355,
      "prote": 1356,
      "cal": 1357,
      "inch": 1358,
      "transmission": 1359,
      "clo": 1360,
      "tra": 1361,
      "premi": 1362,
      "passeng": 1363,
      "nissan": 1364,
      "60": 1365,
      "limit": 1366,
      "sales": 1367,
      "needs": 1368,
      "dur": 1369,
      "then": 1370,
      "comple": 1371,
      "cash": 1372,
      "fun": 1373,
      "two": 1374,
      "such": 1375,
      "electric": 1376,
      "month": 1377,
      "ating": 1378,
      "tran": 1379,
      "type": 1380,
      "prices": 1381,
      "designed": 1382,
      "perfect": 1383,
      "does": 1384,
      "accessories": 1385,
      "add": 1386,
      "leather": 1387,
      "mm": 1388,
      "dep": 1389,
      "before": 1390,
      "provide": 1391,
      "25": 1392,
      "70": 1393,
      "point": 1394,
      "specific": 1395,
      "13": 1396,
      "sat": 1397,
      "cau": 1398,
      "dod": 1399,
      "ling": 1400,
      "gest": 1401,
      "conne": 1402,
      "que": 1403,
      "room": 1404,
      "sin": 1405,
      "log": 1406,
      "dodge": 1407,
      "bol": 1408,
      "bag": 1409,
      "ted": 1410,
      "excelle": 1411,
      "assist": 1412,
      "x4": 1413,
      "ates": 1414,
      "ever": 1415,
      "comfort": 1416,
      "shipping": 1417,
      "sm": 1418,
      "merced": 1419,
      "details": 1420,
      "ie": 1421,
      "len": 1422,
      "simp": 1423,
      "80": 1424,
      "fol": 1425,
      "ide": 1426,
      "mercedes": 1427,
      "package": 1428,
      "ric": 1429,
      "maz": 1430,
      "quick": 1431,
      "14": 1432,
      "gas": 1433,
      "brakes": 1434,
      "include": 1435,
      "hard": 1436,
      "wag": 1437,
      "premium": 1438,
      "lt": 1439,
      "tit": 1440,
      "better": 1441,
      "wide": 1442,
      "excellent": 1443,
      "adjust": 1444,
      "heated": 1445,
      "includes": 1446,
      "cted": 1447,
      "life": 1448,
      "factory": 1449,
      "filter": 1450,
      "ger": 1451,
      "100": 1452,
      "cu": 1453,
      "each": 1454,
      "tle": 1455,
      "ines": 1456,
      "exp": 1457,
      "em": 1458,
      "were": 1459,
      "ional": 1460,
      "ctions": 1461,
      "ways": 1462,
      "scre": 1463,
      "passenger": 1464,
      "care": 1465,
      "coun": 1466,
      "commend": 1467,
      "complete": 1468,
      "brid": 1469,
      "iness": 1470,
      "customers": 1471,
      "cyl": 1472,
      "cre": 1473,
      "automotive": 1474,
      "ces": 1475,
      "recommend": 1476,
      "ient": 1477,
      "ension": 1478,
      "wiring": 1479,
      "exter": 1480,
      "steel": 1481,
      "dama": 1482,
      "home": 1483,
      "change": 1484,
      "number": 1485,
      "vo": 1486,
      "ions": 1487,
      "ready": 1488,
      "amp": 1489,
      "ator": 1490,
      "had": 1491,
      "uk": 1492,
      "classic": 1493,
      "sed": 1494,
      "ville": 1495,
      "around": 1496,
      "lex": 1497,
      "depend": 1498,
      "cou": 1499,
      "tou": 1500,
      "cargo": 1501,
      "ride": 1502,
      "stock": 1503,
      "pan": 1504,
      "tan": 1505,
      "max": 1506,
      "quest": 1507,
      "plus": 1508,
      "app": 1509,
      "heav": 1510,
      "radio": 1511,
      "give": 1512,
      "sur": 1513,
      "ason": 1514,
      "met": 1515,
      "allow": 1516,
      "consi": 1517,
      "owner": 1518,
      "turbo": 1519,
      "transport": 1520,
      "22": 1521,
      "cause": 1522,
      "area": 1523,
      "ged": 1524,
      "mount": 1525,
      "pic": 1526,
      "business": 1527,
      "35": 1528,
      "cc": 1529,
      "fast": 1530,
      "pu": 1531,
      "order": 1532,
      "limited": 1533,
      "fri": 1534,
      "oper": 1535,
      "local": 1536,
      "equipment": 1537,
      "could": 1538,
      "plic": 1539,
      "2018": 1540,
      "touch": 1541,
      "cru": 1542,
      "2019": 1543,
      "arm": 1544,
      "unk": 1545,
      "location": 1546,
      "import": 1547,
      "hp": 1548,
      "acing": 1549,
      "process": 1550,
      "box": 1551,
      "fied": 1552,
      "cylind": 1553,
      "ired": 1554,
      "buying": 1555,
      "manufacturer": 1556,
      "must": 1557,
      "sign": 1558,
      "exterior": 1559,
      "itch": 1560,
      "finish": 1561,
      "solu": 1562,
      "sible": 1563,
      "88": 1564,
      "ask": 1565,
      "oft": 1566,
      "both": 1567,
      "last": 1568,
      "value": 1569,
      "mileage": 1570,
      "cli": 1571,
      "prof": 1572,
      "quot": 1573,
      "deals": 1574,
      "ject": 1575,
      "ame": 1576,
      "dr": 1577,
      "choose": 1578,
      "automobile": 1579,
      "90": 1580,
      "four": 1581,
      "xt": 1582,
      "small": 1583,
      "lot": 1584,
      "pric": 1585,
      "phone": 1586,
      "heavy": 1587,
      "cab": 1588,
      "smo": 1589,
      "ati": 1590,
      "diag": 1591,
      "mart": 1592,
      "style": 1593,
      "bikes": 1594,
      "cing": 1595,
      "ward": 1596,
      "applic": 1597,
      "dual": 1598,
      "audio": 1599,
      "profess": 1600,
      "sens": 1601,
      "secon": 1602,
      "firest": 1603,
      "rece": 1604,
      "rome": 1605,
      "sun": 1606,
      "nolog": 1607,
      "technolog": 1608,
      "visit": 1609,
      "benz": 1610,
      "brow": 1611,
      "oney": 1612,
      "dies": 1613,
      "included": 1614,
      "jeep": 1615,
      "gener": 1616,
      "center": 1617,
      "firestone": 1618,
      "lan": 1619,
      "money": 1620,
      "indust": 1621,
      "fully": 1622,
      "effic": 1623,
      "hi": 1624,
      "ian": 1625,
      "mul": 1626,
      "display": 1627,
      "28": 1628,
      "city": 1629,
      "wd": 1630,
      "water": 1631,
      "using": 1632,
      "reviews": 1633,
      "screen": 1634,
      "diesel": 1635,
      "sil": 1636,
      "current": 1637,
      "mirrors": 1638,
      "fam": 1639,
      "med": 1640,
      "cool": 1641,
      "unit": 1642,
      "got": 1643,
      "motorcy": 1644,
      "pop": 1645,
      "person": 1646,
      "same": 1647,
      "going": 1648,
      "friend": 1649,
      "tyre": 1650,
      "follow": 1651,
      "wagen": 1652,
      "big": 1653,
      "wa": 1654,
      "ero": 1655,
      "lug": 1656,
      "built": 1657,
      "ption": 1658,
      "level": 1659,
      "conven": 1660,
      "volks": 1661,
      "ww": 1662,
      "era": 1663,
      "ren": 1664,
      "ensive": 1665,
      "because": 1666,
      "finance": 1667,
      "ness": 1668,
      "alum": 1669,
      "ush": 1670,
      "professional": 1671,
      "volkswagen": 1672,
      "gi": 1673,
      "sal": 1674,
      "stop": 1675,
      "next": 1676,
      "conf": 1677,
      "appro": 1678,
      "cat": 1679,
      "nor": 1680,
      "reli": 1681,
      "orts": 1682,
      "net": 1683,
      "rap": 1684,
      "alumin": 1685,
      "21": 1686,
      "lic": 1687,
      "ual": 1688,
      "always": 1689,
      "allo": 1690,
      "makes": 1691,
      "below": 1692,
      "remote": 1693,
      "based": 1694,
      "conver": 1695,
      "owned": 1696,
      "tractor": 1697,
      "why": 1698,
      "within": 1699,
      "deliver": 1700,
      "inten": 1701,
      "ross": 1702,
      "ang": 1703,
      "ley": 1704,
      "mainten": 1705,
      "duty": 1706,
      "whether": 1707,
      "large": 1708,
      "cylinder": 1709,
      "sel": 1710,
      "2015": 1711,
      "days": 1712,
      "lead": 1713,
      "mem": 1714,
      "clear": 1715,
      "26": 1716,
      "pol": 1717,
      "provides": 1718,
      "bolt": 1719,
      "maintenance": 1720,
      "tors": 1721,
      "art": 1722,
      "spon": 1723,
      "rain": 1724,
      "team": 1725,
      "wash": 1726,
      "windows": 1727,
      "kits": 1728,
      "mil": 1729,
      "nav": 1730,
      "inspe": 1731,
      "tiv": 1732,
      "making": 1733,
      "direct": 1734,
      "connect": 1735,
      "att": 1736,
      "train": 1737,
      "series": 1738,
      "mirror": 1739,
      "consider": 1740,
      "alloy": 1741,
      "27": 1742,
      "chrome": 1743,
      "dai": 1744,
      "500": 1745,
      "ner": 1746,
      "ob": 1747,
      "sco": 1748,
      "white": 1749,
      "spare": 1750,
      "technology": 1751,
      "inside": 1752,
      "invent": 1753,
      "ury": 1754,
      "undai": 1755,
      "incre": 1756,
      "dealers": 1757,
      "ien": 1758,
      "oem": 1759,
      "susp": 1760,
      "feel": 1761,
      "happ": 1762,
      "upgr": 1763,
      "choice": 1764,
      "second": 1765,
      "pes": 1766,
      "vet": 1767,
      "ched": 1768,
      "book": 1769,
      "ought": 1770,
      "hyundai": 1771,
      "additional": 1772,
      "suspension": 1773,
      "23": 1774,
      "onic": 1775,
      "mechan": 1776,
      "webs": 1777,
      "eric": 1778,
      "redu": 1779,
      "still": 1780,
      "ensure": 1781,
      "tage": 1782,
      "198": 1783,
      "2013": 1784,
      "thanks": 1785,
      "ized": 1786,
      "since": 1787,
      "bed": 1788,
      "lux": 1789,
      "belt": 1790,
      "joy": 1791,
      "lower": 1792,
      "rs": 1793,
      "wax": 1794,
      "being": 1795,
      "ween": 1796,
      "lamp": 1797,
      "between": 1798,
      "certi": 1799,
      "away": 1800,
      "ban": 1801,
      "shif": 1802,
      "few": 1803,
      "americ": 1804,
      "finan": 1805,
      "suppli": 1806,
      "popular": 1807,
      "late": 1808,
      "nice": 1809,
      "stri": 1810,
      "engines": 1811,
      "town": 1812,
      "installation": 1813,
      "bro": 1814,
      "vin": 1815,
      "respon": 1816,
      "advan": 1817,
      "tyres": 1818,
      "techn": 1819,
      "important": 1820,
      "fits": 1821,
      "pad": 1822,
      "sou": 1823,
      "smart": 1824,
      "anti": 1825,
      "aluminum": 1826,
      "flo": 1827,
      "ata": 1828,
      "abs": 1829,
      "ople": 1830,
      "95": 1831,
      "gar": 1832,
      "hour": 1833,
      "save": 1834,
      "present": 1835,
      "cr": 1836,
      "entry": 1837,
      "rover": 1838,
      "asing": 1839,
      "open": 1840,
      "dump": 1841,
      "fix": 1842,
      "airbag": 1843,
      "multi": 1844,
      "mobile": 1845,
      "ters": 1846,
      "people": 1847,
      "charge": 1848,
      "questions": 1849,
      "done": 1850,
      "sound": 1851,
      "va": 1852,
      "those": 1853,
      "resu": 1854,
      "aran": 1855,
      "2014": 1856,
      "grou": 1857,
      "extend": 1858,
      "tank": 1859,
      "solution": 1860,
      "found": 1861,
      "hu": 1862,
      "ima": 1863,
      "nation": 1864,
      "tun": 1865,
      "won": 1866,
      "enjoy": 1867,
      "tooth": 1868,
      "suit": 1869,
      "extra": 1870,
      "ress": 1871,
      "afford": 1872,
      "hold": 1873,
      "camera": 1874,
      "erial": 1875,
      "weight": 1876,
      "mail": 1877,
      "compon": 1878,
      "finit": 1879,
      "impro": 1880,
      "listings": 1881,
      "cruise": 1882,
      "silver": 1883,
      "hor": 1884,
      "hol": 1885,
      "sk": 1886,
      "sw": 1887,
      "sli": 1888,
      "proble": 1889,
      "pers": 1890,
      "step": 1891,
      "appoint": 1892,
      "contin": 1893,
      "getting": 1894,
      "click": 1895,
      "however": 1896,
      "drivers": 1897,
      "pressure": 1898,
      "selection": 1899,
      "family": 1900,
      "following": 1901,
      "group": 1902,
      "fre": 1903,
      "gate": 1904,
      "gear": 1905,
      "2017": 1906,
      "guaran": 1907,
      "bur": 1908,
      "world": 1909,
      "material": 1910,
      "select": 1911,
      "bluetooth": 1912,
      "75": 1913,
      "fac": 1914,
      "repl": 1915,
      "state": 1916,
      "hood": 1917,
      "colle": 1918,
      "conditions": 1919,
      "guarante": 1920,
      "cd": 1921,
      "ium": 1922,
      "rel": 1923,
      "reason": 1924,
      "ics": 1925,
      "job": 1926,
      "bor": 1927,
      "ek": 1928,
      "gm": 1929,
      "really": 1930,
      "trad": 1931,
      "systems": 1932,
      "ga": 1933,
      "moun": 1934,
      "igation": 1935,
      "require": 1936,
      "function": 1937,
      "damage": 1938,
      "vette": 1939,
      "dash": 1940,
      "ii": 1941,
      "ove": 1942,
      "arn": 1943,
      "stor": 1944,
      "trip": 1945,
      "bumper": 1946,
      "ature": 1947,
      "maintain": 1948,
      "motorcycle": 1949,
      "inventory": 1950,
      "bin": 1951,
      "date": 1952,
      "pm": 1953,
      "tes": 1954,
      "once": 1955,
      "ense": 1956,
      "tool": 1957,
      "commer": 1958,
      "website": 1959,
      "cir": 1960,
      "dy": 1961,
      "kn": 1962,
      "racing": 1963,
      "ware": 1964,
      "stain": 1965,
      "trav": 1966,
      "carri": 1967,
      "auction": 1968,
      "2020": 1969,
      "worth": 1970,
      "conditioning": 1971,
      "possible": 1972,
      "payment": 1973,
      "build": 1974,
      "fur": 1975,
      "mid": 1976,
      "though": 1977,
      "stra": 1978,
      "too": 1979,
      "pear": 1980,
      "everything": 1981,
      "fan": 1982,
      "mach": 1983,
      "plug": 1984,
      "ered": 1985,
      "spr": 1986,
      "compact": 1987,
      "speak": 1988,
      "little": 1989,
      "45": 1990,
      "did": 1991,
      "ging": 1992,
      "hire": 1993,
      "name": 1994,
      "ost": 1995,
      "alled": 1996,
      "types": 1997,
      "compare": 1998,
      "post": 1999,
      "2016": 2000,
      "base": 2001,
      "might": 2002,
      "three": 2003,
      "exce": 2004,
      "fees": 2005,
      "looks": 2006,
      "apply": 2007,
      "ff": 2008,
      "zuk": 2009,
      "suzuk": 2010,
      "wear": 2011,
      "running": 2012,
      "showroom": 2013,
      "hist": 2014,
      "pt": 2015,
      "braking": 2016,
      "repairs": 2017,
      "charger": 2018,
      "cali": 2019,
      "simple": 2020,
      "certified": 2021,
      "suzuki": 2022,
      "amaz": 2023,
      "bre": 2024,
      "bad": 2025,
      "cri": 2026,
      "ier": 2027,
      "ken": 2028,
      "win": 2029,
      "love": 2030,
      "sold": 2031,
      "friendly": 2032,
      "luxury": 2033,
      "components": 2034,
      "bal": 2035,
      "cket": 2036,
      "tal": 2037,
      "trust": 2038,
      "never": 2039,
      "compan": 2040,
      "rub": 2041,
      "covers": 2042,
      "harness": 2043,
      "single": 2044,
      "protection": 2045,
      "smooth": 2046,
      "44": 2047,
      "dav": 2048,
      "mb": 2049,
      "non": 2050,
      "til": 2051,
      "v8": 2052,
      "thin": 2053,
      "thor": 2054,
      "return": 2055,
      "stru": 2056,
      "sum": 2057,
      "conom": 2058,
      "having": 2059,
      "ident": 2060,
      "installed": 2061,
      "electronic": 2062,
      "locks": 2063,
      "29": 2064,
      "str": 2065,
      "proper": 2066,
      "tax": 2067,
      "197": 2068,
      "board": 2069,
      "located": 2070,
      "pickup": 2071,
      "mazda": 2072,
      "panel": 2073,
      "commercial": 2074,
      "sler": 2075,
      "pet": 2076,
      "rysler": 2077,
      "corvette": 2078,
      "support": 2079,
      "cra": 2080,
      "flu": 2081,
      "chrysler": 2082,
      "aux": 2083,
      "196": 2084,
      "match": 2085,
      "times": 2086,
      "case": 2087,
      "dro": 2088,
      "ny": 2089,
      "pho": 2090,
      "lease": 2091,
      "ision": 2092,
      "temper": 2093,
      "answ": 2094,
      "accor": 2095,
      "easily": 2096,
      "regist": 2097,
      "equipped": 2098,
      "reliable": 2099,
      "travel": 2100,
      "4x4": 2101,
      "ago": 2102,
      "ctive": 2103,
      "data": 2104,
      "fra": 2105,
      "face": 2106,
      "junk": 2107,
      "ns": 2108,
      "round": 2109,
      "soft": 2110,
      "stu": 2111,
      "siz": 2112,
      "owners": 2113,
      "pricing": 2114,
      "36": 2115,
      "39": 2116,
      "bay": 2117,
      "eu": 2118,
      "econom": 2119,
      "fm": 2120,
      "ied": 2121,
      "another": 2122,
      "atch": 2123,
      "alo": 2124,
      "plan": 2125,
      "video": 2126,
      "certain": 2127,
      "months": 2128,
      "gestone": 2129,
      "title": 2130,
      "diagram": 2131,
      "industry": 2132,
      "250": 2133,
      "48": 2134,
      "bility": 2135,
      "cred": 2136,
      "gra": 2137,
      "ities": 2138,
      "itive": 2139,
      "seal": 2140,
      "sever": 2141,
      "verage": 2142,
      "means": 2143,
      "mpg": 2144,
      "compet": 2145,
      "vious": 2146,
      "again": 2147,
      "scrat": 2148,
      "mini": 2149,
      "traction": 2150,
      "self": 2151,
      "history": 2152,
      "fle": 2153,
      "fill": 2154,
      "ome": 2155,
      "inte": 2156,
      "rance": 2157,
      "partic": 2158,
      "bridgestone": 2159,
      "affordable": 2160,
      "storage": 2161,
      "gth": 2162,
      "kind": 2163,
      "tread": 2164,
      "retail": 2165,
      "ative": 2166,
      "ential": 2167,
      "sports": 2168,
      "protect": 2169,
      "simply": 2170,
      "quote": 2171,
      "happy": 2172,
      "37": 2173,
      "97": 2174,
      "ark": 2175,
      "moving": 2176,
      "dev": 2177,
      "terms": 2178,
      "bul": 2179,
      "capac": 2180,
      "financing": 2181,
      "horse": 2182,
      "stainless": 2183,
      "david": 2184,
      "150": 2185,
      "thus": 2186,
      "stic": 2187,
      "motors": 2188,
      "above": 2189,
      "space": 2190,
      "expe": 2191,
      "buyers": 2192,
      "required": 2193,
      "store": 2194,
      "keyless": 2195,
      "efficient": 2196,
      "floor": 2197,
      "hours": 2198,
      "companies": 2199,
      "frame": 2200,
      "credit": 2201,
      "integr": 2202,
      "average": 2203,
      "email": 2204,
      "pul": 2205,
      "pie": 2206,
      "ina": 2207,
      "insu": 2208,
      "asse": 2209,
      "ably": 2210,
      "reser": 2211,
      "rail": 2212,
      "deli": 2213,
      "bring": 2214,
      "hose": 2215,
      "works": 2216,
      "working": 2217,
      "feature": 2218,
      "headlights": 2219,
      "aftermarket": 2220,
      "comfortable": 2221,
      "country": 2222,
      "eco": 2223,
      "mate": 2224,
      "pon": 2225,
      "tic": 2226,
      "ert": 2227,
      "recent": 2228,
      "acy": 2229,
      "imum": 2230,
      "controller": 2231,
      "warning": 2232,
      "chevy": 2233,
      "regular": 2234,
      "prior": 2235,
      "mounted": 2236,
      "delivery": 2237,
      "bon": 2238,
      "issu": 2239,
      "rot": 2240,
      "version": 2241,
      "bud": 2242,
      "correct": 2243,
      "technic": 2244,
      "cul": 2245,
      "ety": 2246,
      "kia": 2247,
      "ule": 2248,
      "real": 2249,
      "ised": 2250,
      "ado": 2251,
      "due": 2252,
      "ground": 2253,
      "selling": 2254,
      "camper": 2255,
      "navigation": 2256,
      "resul": 2257,
      "bit": 2258,
      "dra": 2259,
      "km": 2260,
      "ually": 2261,
      "ys": 2262,
      "rock": 2263,
      "carry": 2264,
      "maj": 2265,
      "300": 2266,
      "ious": 2267,
      "sit": 2268,
      "site": 2269,
      "ital": 2270,
      "covery": 2271,
      "adap": 2272,
      "perform": 2273,
      "compati": 2274,
      "torque": 2275,
      "brands": 2276,
      "satis": 2277,
      "titan": 2278,
      "fluid": 2279,
      "scratch": 2280,
      "ju": 2281,
      "wel": 2282,
      "aro": 2283,
      "carf": 2284,
      "fog": 2285,
      "valve": 2286,
      "towing": 2287,
      "provided": 2288,
      "climate": 2289,
      "personal": 2290,
      "pads": 2291,
      "known": 2292,
      "capacity": 2293,
      "33": 2294,
      "ls": 2295,
      "say": 2296,
      "sched": 2297,
      "arri": 2298,
      "kets": 2299,
      "spot": 2300,
      "park": 2301,
      "highly": 2302,
      "costs": 2303,
      "extre": 2304,
      "ample": 2305,
      "latest": 2306,
      "clu": 2307,
      "track": 2308,
      "beet": 2309,
      "short": 2310,
      "uni": 2311,
      "parking": 2312,
      "dist": 2313,
      "descri": 2314,
      "offering": 2315,
      "handle": 2316,
      "hybrid": 2317,
      "convenience": 2318,
      "american": 2319,
      "garage": 2320,
      "major": 2321,
      "beetle": 2322,
      "49": 2323,
      "mind": 2324,
      "zone": 2325,
      "ately": 2326,
      "secur": 2327,
      "trade": 2328,
      "wire": 2329,
      "height": 2330,
      "prevent": 2331,
      "controls": 2332,
      "position": 2333,
      "bought": 2334,
      "cas": 2335,
      "siri": 2336,
      "idence": 2337,
      "accur": 2338,
      "thank": 2339,
      "wood": 2340,
      "charging": 2341,
      "expensive": 2342,
      "several": 2343,
      "fair": 2344,
      "hd": 2345,
      "oud": 2346,
      "adver": 2347,
      "beau": 2348,
      "ird": 2349,
      "week": 2350,
      "cia": 2351,
      "items": 2352,
      "camaro": 2353,
      "national": 2354,
      "temperature": 2355,
      "budget": 2356,
      "gs": 2357,
      "hot": 2358,
      "hind": 2359,
      "tx": 2360,
      "vir": 2361,
      "aced": 2362,
      "dest": 2363,
      "ties": 2364,
      "highway": 2365,
      "fitted": 2366,
      "adjustable": 2367,
      "photo": 2368,
      "horsepower": 2369,
      "flow": 2370,
      "flex": 2371,
      "snow": 2372,
      "vic": 2373,
      "ann": 2374,
      "outs": 2375,
      "atv": 2376,
      "edge": 2377,
      "ild": 2378,
      "2000": 2379,
      "2002": 2380,
      "genu": 2381,
      "providing": 2382,
      "variety": 2383,
      "inspection": 2384,
      "appointment": 2385,
      "further": 2386,
      "security": 2387,
      "55": 2388,
      "cut": 2389,
      "gin": 2390,
      "hitch": 2391,
      "iled": 2392,
      "stree": 2393,
      "along": 2394,
      "edition": 2395,
      "forward": 2396,
      "rims": 2397,
      "lift": 2398,
      "2021": 2399,
      "plate": 2400,
      "cially": 2401,
      "item": 2402,
      "offered": 2403,
      "starting": 2404,
      "ished": 2405,
      "player": 2406,
      "longer": 2407,
      "link": 2408,
      "south": 2409,
      "ather": 2410,
      "bas": 2411,
      "bil": 2412,
      "cast": 2413,
      "glo": 2414,
      "ize": 2415,
      "mal": 2416,
      "nam": 2417,
      "pat": 2418,
      "tom": 2419,
      "bear": 2420,
      "usa": 2421,
      "univer": 2422,
      "combin": 2423,
      "prest": 2424,
      "aff": 2425,
      "discovery": 2426,
      "flat": 2427,
      "during": 2428,
      "allows": 2429,
      "pictu": 2430,
      "www": 2431,
      "insurance": 2432,
      "usu": 2433,
      "simil": 2434,
      "ages": 2435,
      "fitting": 2436,
      "expert": 2437,
      "seller": 2438,
      "charged": 2439,
      "pump": 2440,
      "confidence": 2441,
      "economy": 2442,
      "genuine": 2443,
      "similar": 2444,
      "gt": 2445,
      "sl": 2446,
      "ants": 2447,
      "leg": 2448,
      "left": 2449,
      "stability": 2450,
      "sec": 2451,
      "exact": 2452,
      "bump": 2453,
      "note": 2454,
      "powered": 2455,
      "highest": 2456,
      "helpful": 2457,
      "often": 2458,
      "switch": 2459,
      "carfax": 2460,
      "sirius": 2461,
      "47": 2462,
      "ama": 2463,
      "bid": 2464,
      "hill": 2465,
      "v6": 2466,
      "wr": 2467,
      "xm": 2468,
      "things": 2469,
      "illu": 2470,
      "child": 2471,
      "dec": 2472,
      "devel": 2473,
      "said": 2474,
      "appear": 2475,
      "page": 2476,
      "buyer": 2477,
      "howo": 2478,
      "metal": 2479,
      "upgrade": 2480,
      "lamps": 2481,
      "euro": 2482,
      "cour": 2483,
      "gau": 2484,
      "active": 2485,
      "tri": 2486,
      "tern": 2487,
      "sho": 2488,
      "lum": 2489,
      "complet": 2490,
      "fiat": 2491,
      "interest": 2492,
      "rating": 2493,
      "discount": 2494,
      "quickly": 2495,
      "currently": 2496,
      "guarantee": 2497,
      "unique": 2498,
      "advert": 2499,
      "develop": 2500,
      "4wd": 2501,
      "bers": 2502,
      "ses": 2503,
      "vary": 2504,
      "yes": 2505,
      "ino": 2506,
      "ream": 2507,
      "org": 2508,
      "learn": 2509,
      "staff": 2510,
      "enh": 2511,
      "enough": 2512,
      "across": 2513,
      "become": 2514,
      "meth": 2515,
      "shaf": 2516,
      "prog": 2517,
      "previous": 2518,
      "needed": 2519,
      "2005": 2520,
      "foc": 2521,
      "changes": 2522,
      "wanted": 2523,
      "effe": 2524,
      "various": 2525,
      "efficien": 2526,
      "north": 2527,
      "rubber": 2528,
      "particular": 2529,
      "assemb": 2530,
      "results": 2531,
      "800": 2532,
      "ured": 2533,
      "states": 2534,
      "added": 2535,
      "enter": 2536,
      "west": 2537,
      "weather": 2538,
      "temp": 2539,
      "overall": 2540,
      "trailers": 2541,
      "haul": 2542,
      "lexus": 2543,
      "priced": 2544,
      "application": 2545,
      "street": 2546,
      "31": 2547,
      "32": 2548,
      "cro": 2549,
      "cross": 2550,
      "ures": 2551,
      "report": 2552,
      "stron": 2553,
      "example": 2554,
      "indi": 2555,
      "2012": 2556,
      "dak": 2557,
      "prefer": 2558,
      "something": 2559,
      "close": 2560,
      "maximum": 2561,
      "convenient": 2562,
      "tesla": 2563,
      "sizes": 2564,
      "piece": 2565,
      "rails": 2566,
      "secure": 2567,
      "efficiency": 2568,
      "06": 2569,
      "86": 2570,
      "den": 2571,
      "nc": 2572,
      "push": 2573,
      "vans": 2574,
      "almost": 2575,
      "indic": 2576,
      "cheap": 2577,
      "2009": 2578,
      "belts": 2579,
      "guide": 2580,
      "lines": 2581,
      "harley": 2582,
      "member": 2583,
      "exception": 2584,
      "dir": 2585,
      "tre": 2586,
      "term": 2587,
      "boost": 2588,
      "utes": 2589,
      "regard": 2590,
      "suvs": 2591,
      "metall": 2592,
      "lancia": 2593,
      "universal": 2594,
      "individ": 2595,
      "dakota": 2596,
      "46": 2597,
      "400": 2598,
      "76": 2599,
      "cum": 2600,
      "fa": 2601,
      "lx": 2602,
      "pc": 2603,
      "pors": 2604,
      "itor": 2605,
      "activ": 2606,
      "advent": 2607,
      "move": 2608,
      "india": 2609,
      "windscreen": 2610,
      "racks": 2611,
      "address": 2612,
      "depending": 2613,
      "industri": 2614,
      "scoo": 2615,
      "airbags": 2616,
      "pictures": 2617,
      "metallic": 2618,
      "350": 2619,
      "cles": 2620,
      "fine": 2621,
      "pip": 2622,
      "vw": 2623,
      "season": 2624,
      "ades": 2625,
      "carbu": 2626,
      "author": 2627,
      "amount": 2628,
      "priv": 2629,
      "manufacturers": 2630,
      "whole": 2631,
      "cloth": 2632,
      "coupe": 2633,
      "leading": 2634,
      "compatible": 2635,
      "schedule": 2636,
      "outside": 2637,
      "ba": 2638,
      "cable": 2639,
      "ei": 2640,
      "emp": 2641,
      "ians": 2642,
      "xle": 2643,
      "allen": 2644,
      "vest": 2645,
      "heat": 2646,
      "2010": 2647,
      "shopping": 2648,
      "request": 2649,
      "subject": 2650,
      "radi": 2651,
      "sino": 2652,
      "receive": 2653,
      "wait": 2654,
      "advanced": 2655,
      "expect": 2656,
      "43": 2657,
      "85": 2658,
      "ived": 2659,
      "ka": 2660,
      "pin": 2661,
      "ux": 2662,
      "ura": 2663,
      "ided": 2664,
      "ateg": 2665,
      "195": 2666,
      "anywhere": 2667,
      "roll": 2668,
      "handling": 2669,
      "damaged": 2670,
      "gives": 2671,
      "nsville": 2672,
      "davidson": 2673,
      "porsche": 2674,
      "carbure": 2675,
      "ear": 2676,
      "his": 2677,
      "ige": 2678,
      "ires": 2679,
      "rust": 2680,
      "tch": 2681,
      "vs": 2682,
      "infinit": 2683,
      "rebuild": 2684,
      "entr": 2685,
      "wipers": 2686,
      "ently": 2687,
      "necess": 2688,
      "soci": 2689,
      "commit": 2690,
      "doors": 2691,
      "button": 2692,
      "instru": 2693,
      "easier": 2694,
      "came": 2695,
      "brownsville": 2696,
      "hiace": 2697,
      "license": 2698,
      "shift": 2699,
      "siriusxm": 2700,
      "infiniti": 2701,
      "87": 2702,
      "ale": 2703,
      "ebay": 2704,
      "rd": 2705,
      "sour": 2706,
      "total": 2707,
      "rod": 2708,
      "rodu": 2709,
      "spac": 2710,
      "expl": 2711,
      "sole": 2712,
      "resist": 2713,
      "common": 2714,
      "heater": 2715,
      "rank": 2716,
      "experien": 2717,
      "listed": 2718,
      "purchasing": 2719,
      "firm": 2720,
      "superior": 2721,
      "length": 2722,
      "sensor": 2723,
      "mounting": 2724,
      "program": 2725,
      "imat": 2726,
      "mand": 2727,
      "rate": 2728,
      "tt": 2729,
      "table": 2730,
      "represent": 2731,
      "ensu": 2732,
      "depart": 2733,
      "tible": 2734,
      "master": 2735,
      "fee": 2736,
      "tailed": 2737,
      "avo": 2738,
      "agric": 2739,
      "introdu": 2740,
      "green": 2741,
      "ledge": 2742,
      "coll": 2743,
      "experts": 2744,
      "axle": 2745,
      "rentals": 2746,
      "county": 2747,
      "multiple": 2748,
      "problem": 2749,
      "think": 2750,
      "agricul": 2751,
      "ideal": 2752,
      "invest": 2753,
      "enthus": 2754,
      "espe": 2755,
      "aser": 2756,
      "adv": 2757,
      "tip": 2758,
      "meet": 2759,
      "consu": 2760,
      "contain": 2761,
      "lid": 2762,
      "actual": 2763,
      "anything": 2764,
      "matter": 2765,
      "field": 2766,
      "2006": 2767,
      "internet": 2768,
      "yet": 2769,
      "pped": 2770,
      "monitor": 2771,
      "corol": 2772,
      "remove": 2773,
      "charges": 2774,
      "doesn": 2775,
      "straight": 2776,
      "technicians": 2777,
      "usually": 2778,
      "bumpers": 2779,
      "dirt": 2780,
      "enthusi": 2781,
      "02": 2782,
      "ouble": 2783,
      "icy": 2784,
      "challen": 2785,
      "ada": 2786,
      "vers": 2787,
      "spring": 2788,
      "actually": 2789,
      "mats": 2790,
      "five": 2791,
      "laim": 2792,
      "2008": 2793,
      "tural": 2794,
      "standing": 2795,
      "valu": 2796,
      "supply": 2797,
      "commun": 2798,
      "sedan": 2799,
      "mustang": 2800,
      "united": 2801,
      "suitable": 2802,
      "amazing": 2803,
      "welcome": 2804,
      "description": 2805,
      "industrial": 2806,
      "agricultural": 2807,
      "far": 2808,
      "gri": 2809,
      "her": 2810,
      "na": 2811,
      "went": 2812,
      "wran": 2813,
      "wise": 2814,
      "ints": 2815,
      "sta": 2816,
      "detailed": 2817,
      "terrain": 2818,
      "she": 2819,
      "project": 2820,
      "plast": 2821,
      "powerful": 2822,
      "fiber": 2823,
      "higher": 2824,
      "locations": 2825,
      "reviewed": 2826,
      "knowledge": 2827,
      "assistance": 2828,
      "shaft": 2829,
      "focus": 2830,
      "either": 2831,
      "especially": 2832,
      "wrangl": 2833,
      "centr": 2834,
      "mely": 2835,
      "tac": 2836,
      "align": 2837,
      "coat": 2838,
      "carbon": 2839,
      "modif": 2840,
      "definit": 2841,
      "soon": 2842,
      "saf": 2843,
      "ards": 2844,
      "mark": 2845,
      "jet": 2846,
      "optional": 2847,
      "benef": 2848,
      "runs": 2849,
      "applications": 2850,
      "burg": 2851,
      "replaced": 2852,
      "destin": 2853,
      "illumin": 2854,
      "method": 2855,
      "scooter": 2856,
      "enthusiast": 2857,
      "emission": 2858,
      "hou": 2859,
      "hun": 2860,
      "ible": 2861,
      "oke": 2862,
      "ture": 2863,
      "stick": 2864,
      "als": 2865,
      "acura": 2866,
      "chain": 2867,
      "gets": 2868,
      "behind": 2869,
      "tips": 2870,
      "mp3": 2871,
      "coming": 2872,
      "anyone": 2873,
      "plen": 2874,
      "reading": 2875,
      "purchased": 2876,
      "throughout": 2877,
      "browse": 2878,
      "reduce": 2879,
      "problems": 2880,
      "extremely": 2881,
      "prestige": 2882,
      "strong": 2883,
      "individual": 2884,
      "corolla": 2885,
      "categ": 2886,
      "china": 2887,
      "entire": 2888,
      "loan": 2889,
      "indian": 2890,
      "ified": 2891,
      "compu": 2892,
      "servic": 2893,
      "nov": 2894,
      "2007": 2895,
      "util": 2896,
      "impres": 2897,
      "setting": 2898,
      "rates": 2899,
      "calcul": 2900,
      "durable": 2901,
      "question": 2902,
      "drop": 2903,
      "photos": 2904,
      "basic": 2905,
      "avoid": 2906,
      "wrangler": 2907,
      "definitely": 2908,
      "05": 2909,
      "07": 2910,
      "ctiv": 2911,
      "jer": 2912,
      "jap": 2913,
      "mus": 2914,
      "tm": 2915,
      "winter": 2916,
      "inje": 2917,
      "stat": 2918,
      "ising": 2919,
      "acce": 2920,
      "adblue": 2921,
      "traf": 2922,
      "begin": 2923,
      "mph": 2924,
      "constru": 2925,
      "bucket": 2926,
      "taking": 2927,
      "saving": 2928,
      "headlight": 2929,
      "durability": 2930,
      "recommended": 2931,
      "received": 2932,
      "salv": 2933,
      "approved": 2934,
      "extended": 2935,
      "tuning": 2936,
      "carburetor": 2937,
      "900": 2938,
      "emer": 2939,
      "event": 2940,
      "race": 2941,
      "third": 2942,
      "reach": 2943,
      "research": 2944,
      "ison": 2945,
      "associ": 2946,
      "else": 2947,
      "moder": 2948,
      "auctions": 2949,
      "split": 2950,
      "proud": 2951,
      "pose": 2952,
      "biles": 2953,
      "minutes": 2954,
      "download": 2955,
      "1996": 2956,
      "liter": 2957,
      "dealerships": 2958,
      "specifications": 2959,
      "publ": 2960,
      "improve": 2961,
      "fresh": 2962,
      "titanium": 2963,
      "cros": 2964,
      "necessary": 2965,
      "plenty": 2966,
      "japan": 2967,
      "09": 2968,
      "ders": 2969,
      "lon": 2970,
      "mic": 2971,
      "pot": 2972,
      "ration": 2973,
      "send": 2974,
      "yl": 2975,
      "yama": 2976,
      "mean": 2977,
      "exist": 2978,
      "ify": 2979,
      "amg": 2980,
      "drives": 2981,
      "via": 2982,
      "grille": 2983,
      "2004": 2984,
      "pleas": 2985,
      "covered": 2986,
      "etc": 2987,
      "vanity": 2988,
      "batteries": 2989,
      "manufactured": 2990,
      "levels": 2991,
      "attach": 2992,
      "collection": 2993,
      "answer": 2994,
      "graph": 2995,
      "experienced": 2996,
      "benefits": 2997,
      "computer": 2998,
      "salvage": 2999,
      "yamaha": 3000,
      "65": 3001,
      "ainst": 3002,
      "kh": 3003,
      "night": 3004,
      "por": 3005,
      "tour": 3006,
      "wall": 3007,
      "ond": 3008,
      "atur": 3009,
      "wiper": 3010,
      "deep": 3011,
      "verse": 3012,
      "yourself": 3013,
      "absolu": 3014,
      "austr": 3015,
      "usb": 3016,
      "proof": 3017,
      "compar": 3018,
      "ounts": 3019,
      "news": 3020,
      "agree": 3021,
      "2011": 3022,
      "antly": 3023,
      "turf": 3024,
      "helps": 3025,
      "ishi": 3026,
      "resto": 3027,
      "press": 3028,
      "leave": 3029,
      "largest": 3030,
      "specialist": 3031,
      "tube": 3032,
      "quotes": 3033,
      "sunroof": 3034,
      "general": 3035,
      "exceptional": 3036,
      "traffic": 3037,
      "austral": 3038,
      "aw": 3039,
      "bot": 3040,
      "dail": 3041,
      "mun": 3042,
      "tint": 3043,
      "vely": 3044,
      "remain": 3045,
      "altern": 3046,
      "force": 3047,
      "chip": 3048,
      "seen": 3049,
      "exchange": 3050,
      "takes": 3051,
      "2022": 3052,
      "idents": 3053,
      "upon": 3054,
      "docu": 3055,
      "utility": 3056,
      "stars": 3057,
      "hands": 3058,
      "automobiles": 3059,
      "listing": 3060,
      "gency": 3061,
      "requires": 3062,
      "specs": 3063,
      "filters": 3064,
      "surface": 3065,
      "surround": 3066,
      "armrest": 3067,
      "convertible": 3068,
      "mechanic": 3069,
      "improved": 3070,
      "tilt": 3071,
      "accord": 3072,
      "device": 3073,
      "effective": 3074,
      "pipe": 3075,
      "daily": 3076,
      "fend": 3077,
      "fold": 3078,
      "os": 3079,
      "sle": 3080,
      "independ": 3081,
      "ones": 3082,
      "stay": 3083,
      "took": 3084,
      "isn": 3085,
      "aces": 3086,
      "code": 3087,
      "trunk": 3088,
      "moto": 3089,
      "depos": 3090,
      "ention": 3091,
      "kee": 3092,
      "aren": 3093,
      "areas": 3094,
      "liqu": 3095,
      "assis": 3096,
      "final": 3097,
      "clus": 3098,
      "lighting": 3099,
      "subar": 3100,
      "liner": 3101,
      "cabin": 3102,
      "fixed": 3103,
      "carrier": 3104,
      "reserve": 3105,
      "beauti": 3106,
      "emergency": 3107,
      "liquid": 3108,
      "6x4": 3109,
      "bes": 3110,
      "ball": 3111,
      "cad": 3112,
      "hass": 3113,
      "ix": 3114,
      "lish": 3115,
      "wed": 3116,
      "aly": 3117,
      "already": 3118,
      "toge": 3119,
      "ication": 3120,
      "icated": 3121,
      "cold": 3122,
      "tie": 3123,
      "console": 3124,
      "spor": 3125,
      "solid": 3126,
      "against": 3127,
      "noise": 3128,
      "afric": 3129,
      "lake": 3130,
      "2003": 3131,
      "colour": 3132,
      "removal": 3133,
      "understand": 3134,
      "satell": 3135,
      "wagon": 3136,
      "vinyl": 3137,
      "image": 3138,
      "gateway": 3139,
      "circum": 3140,
      "machine": 3141,
      "radiator": 3142,
      "source": 3143,
      "plastic": 3144,
      "subaru": 3145,
      "together": 3146,
      "hero": 3147,
      "least": 3148,
      "alarm": 3149,
      "core": 3150,
      "card": 3151,
      "spoil": 3152,
      "grand": 3153,
      "gray": 3154,
      "2001": 3155,
      "discover": 3156,
      "roads": 3157,
      "diffic": 3158,
      "bars": 3159,
      "cooling": 3160,
      "materials": 3161,
      "requirements": 3162,
      "speakers": 3163,
      "competitive": 3164,
      "appearance": 3165,
      "collision": 3166,
      "destination": 3167,
      "satellite": 3168,
      "difficul": 3169,
      "42": 3170,
      "dig": 3171,
      "dry": 3172,
      "fab": 3173,
      "hall": 3174,
      "ives": 3175,
      "ten": 3176,
      "wil": 3177,
      "wra": 3178,
      "zu": 3179,
      "intake": 3180,
      "ange": 3181,
      "onto": 3182,
      "although": 3183,
      "rim": 3184,
      "ared": 3185,
      "termin": 3186,
      "spend": 3187,
      "quad": 3188,
      "compli": 3189,
      "dire": 3190,
      "true": 3191,
      "brac": 3192,
      "blind": 3193,
      "impact": 3194,
      "guys": 3195,
      "manuals": 3196,
      "manufacturing": 3197,
      "inches": 3198,
      "bolts": 3199,
      "hardware": 3200,
      "america": 3201,
      "broken": 3202,
      "huge": 3203,
      "slip": 3204,
      "compared": 3205,
      "according": 3206,
      "assembly": 3207,
      "modern": 3208,
      "spoiler": 3209,
      "01": 3210,
      "0l": 3211,
      "1000": 3212,
      "38": 3213,
      "bb": 3214,
      "ffl": 3215,
      "gn": 3216,
      "gy": 3217,
      "grow": 3218,
      "jack": 3219,
      "rout": 3220,
      "tight": 3221,
      "v4": 3222,
      "inf": 3223,
      "input": 3224,
      "ences": 3225,
      "rods": 3226,
      "assu": 3227,
      "chassis": 3228,
      "user": 3229,
      "ultra": 3230,
      "stead": 3231,
      "law": 3232,
      "coverage": 3233,
      "joh": 3234,
      "muffl": 3235,
      "voltage": 3236,
      "1999": 3237,
      "ieve": 3238,
      "ltd": 3239,
      "consist": 3240,
      "diagno": 3241,
      "directly": 3242,
      "mechanical": 3243,
      "bank": 3244,
      "related": 3245,
      "gmc": 3246,
      "spray": 3247,
      "petrol": 3248,
      "ometer": 3249,
      "integrated": 3250,
      "accuracy": 3251,
      "shock": 3252,
      "construction": 3253,
      "41": 3254,
      "600": 3255,
      "dust": 3256,
      "mr": 3257,
      "mber": 3258,
      "nia": 3259,
      "twin": 3260,
      "fornia": 3261,
      "mobil": 3262,
      "spark": 3263,
      "until": 3264,
      "truk": 3265,
      "finding": 3266,
      "regul": 3267,
      "tractors": 3268,
      "started": 3269,
      "cleaner": 3270,
      "additionally": 3271,
      "timing": 3272,
      "config": 3273,
      "memory": 3274,
      "facility": 3275,
      "tools": 3276,
      "speaker": 3277,
      "california": 3278,
      "completely": 3279,
      "safely": 3280,
      "illuminated": 3281,
      "house": 3282,
      "ath": 3283,
      "fig": 3284,
      "gold": 3285,
      "kno": 3286,
      "oc": 3287,
      "wrap": 3288,
      "edmun": 3289,
      "isu": 3290,
      "roke": 3291,
      "ney": 3292,
      "shap": 3293,
      "tastic": 3294,
      "past": 3295,
      "pract": 3296,
      "notice": 3297,
      "ended": 3298,
      "foot": 3299,
      "everyone": 3300,
      "effort": 3301,
      "flor": 3302,
      "larger": 3303,
      "1997": 3304,
      "others": 3305,
      "folding": 3306,
      "appli": 3307,
      "medi": 3308,
      "motorcycles": 3309,
      "advantage": 3310,
      "fantastic": 3311,
      "properly": 3312,
      "recently": 3313,
      "clutch": 3314,
      "sinotruk": 3315,
      "injection": 3316,
      "crosso": 3317,
      "independent": 3318,
      "69": 3319,
      "az": 3320,
      "ave": 3321,
      "dol": 3322,
      "dream": 3323,
      "fav": 3324,
      "hur": 3325,
      "hum": 3326,
      "ker": 3327,
      "rp": 3328,
      "info": 3329,
      "escap": 3330,
      "ili": 3331,
      "aug": 3332,
      "confirm": 3333,
      "loy": 3334,
      "cts": 3335,
      "uses": 3336,
      "distri": 3337,
      "seating": 3338,
      "preci": 3339,
      "braided": 3340,
      "international": 3341,
      "availability": 3342,
      "backup": 3343,
      "scrap": 3344,
      "lightning": 3345,
      "bates": 3346,
      "transfer": 3347,
      "1500": 3348,
      "locking": 3349,
      "keys": 3350,
      "network": 3351,
      "increase": 3352,
      "adventure": 3353,
      "status": 3354,
      "john": 3355,
      "edmunds": 3356,
      "34": 3357,
      "cup": 3358,
      "fs": 3359,
      "gle": 3360,
      "lou": 3361,
      "lau": 3362,
      "lbs": 3363,
      "mes": 3364,
      "osing": 3365,
      "pun": 3366,
      "vaux": 3367,
      "wal": 3368,
      "rebates": 3369,
      "envir": 3370,
      "iser": 3371,
      "def": 3372,
      "web": 3373,
      "exclus": 3374,
      "quite": 3375,
      "lubr": 3376,
      "canada": 3377,
      "ultim": 3378,
      "outstanding": 3379,
      "apr": 3380,
      "rolling": 3381,
      "fire": 3382,
      "immobil": 3383,
      "lakh": 3384,
      "hook": 3385,
      "packages": 3386,
      "payments": 3387,
      "vision": 3388,
      "picture": 3389,
      "signific": 3390,
      "attention": 3391,
      "crit": 3392,
      "springs": 3393,
      "panels": 3394,
      "fleet": 3395,
      "exactly": 3396,
      "gauge": 3397,
      "isuzu": 3398,
      "florid": 3399,
      "escape": 3400,
      "vauxhall": 3401,
      "environ": 3402,
      "ultimate": 3403,
      "08": 3404,
      "370": 3405,
      "57": 3406,
      "ease": 3407,
      "fut": 3408,
      "hop": 3409,
      "kg": 3410,
      "kar": 3411,
      "kay": 3412,
      "ktm": 3413,
      "nd": 3414,
      "nes": 3415,
      "oma": 3416,
      "rated": 3417,
      "wing": 3418,
      "x5": 3419,
      "innov": 3420,
      "rebuilt": 3421,
      "arrange": 3422,
      "ener": 3423,
      "chance": 3424,
      "sey": 3425,
      "separ": 3426,
      "mode": 3427,
      "lots": 3428,
      "iring": 3429,
      "lik": 3430,
      "live": 3431,
      "manag": 3432,
      "delay": 3433,
      "pret": 3434,
      "immedi": 3435,
      "scri": 3436,
      "mitt": 3437,
      "choosing": 3438,
      "electrical": 3439,
      "ratings": 3440,
      "volvo": 3441,
      "ridge": 3442,
      "cleaning": 3443,
      "asked": 3444,
      "sensing": 3445,
      "lane": 3446,
      "continu": 3447,
      "straps": 3448,
      "satisfied": 3449,
      "organ": 3450,
      "explain": 3451,
      "emissions": 3452,
      "category": 3453,
      "associated": 3454,
      "beautiful": 3455,
      "crank": 3456,
      "gol": 3457,
      "ggest": 3458,
      "hatch": 3459,
      "occ": 3460,
      "sd": 3461,
      "theft": 3462,
      "stere": 3463,
      "rotors": 3464,
      "cooper": 3465,
      "beam": 3466,
      "tiac": 3467,
      "suc": 3468,
      "suggest": 3469,
      "arest": 3470,
      "peri": 3471,
      "buick": 3472,
      "rav4": 3473,
      "cannot": 3474,
      "action": 3475,
      "serious": 3476,
      "goes": 3477,
      "diame": 3478,
      "essential": 3479,
      "dale": 3480,
      "shipped": 3481,
      "estim": 3482,
      "difference": 3483,
      "monthly": 3484,
      "volu": 3485,
      "transportation": 3486,
      "coolant": 3487,
      "supplier": 3488,
      "responsible": 3489,
      "images": 3490,
      "holster": 3491,
      "craft": 3492,
      "pontiac": 3493,
      "scratches": 3494,
      "europe": 3495,
      "interested": 3496,
      "central": 3497,
      "potential": 3498,
      "africa": 3499,
      "digital": 3500,
      "fabric": 3501,
      "golf": 3502,
      "stereo": 3503,
      "diameter": 3504,
      "98": 3505,
      "awd": 3506,
      "gall": 3507,
      "ky": 3508,
      "ners": 3509,
      "pd": 3510,
      "rig": 3511,
      "sx4": 3512,
      "vt": 3513,
      "erous": 3514,
      "antra": 3515,
      "lees": 3516,
      "lets": 3517,
      "andro": 3518,
      "elantra": 3519,
      "nearest": 3520,
      "six": 3521,
      "autos": 3522,
      "among": 3523,
      "prec": 3524,
      "syn": 3525,
      "imin": 3526,
      "hoses": 3527,
      "greater": 3528,
      "estimat": 3529,
      "warranties": 3530,
      "izing": 3531,
      "colorado": 3532,
      "lifetime": 3533,
      "voice": 3534,
      "given": 3535,
      "vale": 3536,
      "continue": 3537,
      "guaranteed": 3538,
      "amazon": 3539,
      "issues": 3540,
      "distance": 3541,
      "combined": 3542,
      "alignment": 3543,
      "existing": 3544,
      "deposit": 3545,
      "configur": 3546,
      "android": 3547,
      "77": 3548,
      "gain": 3549,
      "ibility": 3550,
      "mor": 3551,
      "ris": 3552,
      "inject": 3553,
      "remember": 3554,
      "stroke": 3555,
      "ali": 3556,
      "ands": 3557,
      "roy": 3558,
      "elimin": 3559,
      "cop": 3560,
      "mot": 3561,
      "illac": 3562,
      "typic": 3563,
      "commo": 3564,
      "serve": 3565,
      "upd": 3566,
      "upholster": 3567,
      "dim": 3568,
      "engineered": 3569,
      "classi": 3570,
      "formul": 3571,
      "fitment": 3572,
      "purpose": 3573,
      "mitsub": 3574,
      "ratio": 3575,
      "painted": 3576,
      "numbers": 3577,
      "numerous": 3578,
      "adjustment": 3579,
      "coupon": 3580,
      "3500": 3581,
      "sensors": 3582,
      "cataly": 3583,
      "solutions": 3584,
      "gearbox": 3585,
      "tradition": 3586,
      "break": 3587,
      "registered": 3588,
      "bearings": 3589,
      "accept": 3590,
      "cadillac": 3591,
      "difficult": 3592,
      "florida": 3593,
      "future": 3594,
      "estimates": 3595,
      "typically": 3596,
      "upholstery": 3597,
      "mitsubishi": 3598,
      "450": 3599,
      "block": 3600,
      "ecu": 3601,
      "frequ": 3602,
      "hid": 3603,
      "oe": 3604,
      "ox": 3605,
      "rpm": 3606,
      "sis": 3607,
      "yond": 3608,
      "ery": 3609,
      "ances": 3610,
      "refer": 3611,
      "reput": 3612,
      "cart": 3613,
      "versat": 3614,
      "beyond": 3615,
      "tima": 3616,
      "mee": 3617,
      "concer": 3618,
      "shown": 3619,
      "ramp": 3620,
      "dimm": 3621,
      "standards": 3622,
      "radial": 3623,
      "trims": 3624,
      "keeping": 3625,
      "990": 3626,
      "loading": 3627,
      "called": 3628,
      "create": 3629,
      "operation": 3630,
      "generation": 3631,
      "catalo": 3632,
      "obtain": 3633,
      "replacing": 3634,
      "auxili": 3635,
      "stuff": 3636,
      "issue": 3637,
      "campervan": 3638,
      "namic": 3639,
      "enthusiasts": 3640,
      "touring": 3641,
      "australia": 3642,
      "dollar": 3643,
      "370z": 3644,
      "likely": 3645,
      "570": 3646,
      "cm": 3647,
      "fy": 3648,
      "hal": 3649,
      "hes": 3650,
      "nu": 3651,
      "oh": 3652,
      "rv": 3653,
      "text": 3654,
      "yor": 3655,
      "yell": 3656,
      "reh": 3657,
      "ators": 3658,
      "leasing": 3659,
      "stren": 3660,
      "accommo": 3661,
      "wid": 3662,
      "carpet": 3663,
      "consum": 3664,
      "manage": 3665,
      "paper": 3666,
      "ghost": 3667,
      "heads": 3668,
      "santa": 3669,
      "subscri": 3670,
      "selected": 3671,
      "nismo": 3672,
      "995": 3673,
      "loaded": 3674,
      "closed": 3675,
      "specifically": 3676,
      "screw": 3677,
      "signal": 3678,
      "incredi": 3679,
      "continent": 3680,
      "taxes": 3681,
      "registration": 3682,
      "pull": 3683,
      "announ": 3684,
      "bearing": 3685,
      "instructions": 3686,
      "ctivity": 3687,
      "shape": 3688,
      "favor": 3689,
      "environment": 3690,
      "success": 3691,
      "period": 3692,
      "dimming": 3693,
      "auxiliary": 3694,
      "56": 3695,
      "fall": 3696,
      "lay": 3697,
      "ng": 3698,
      "nap": 3699,
      "tar": 3700,
      "ute": 3701,
      "vac": 3702,
      "yz": 3703,
      "thetic": 3704,
      "alert": 3705,
      "altima": 3706,
      "coo": 3707,
      "cture": 3708,
      "express": 3709,
      "prob": 3710,
      "opport": 3711,
      "amic": 3712,
      "apple": 3713,
      "compreh": 3714,
      "die": 3715,
      "powertrain": 3716,
      "overhead": 3717,
      "starts": 3718,
      "mud": 3719,
      "guard": 3720,
      "submit": 3721,
      "1995": 3722,
      "discounts": 3723,
      "allowing": 3724,
      "touchscreen": 3725,
      "converter": 3726,
      "upgrad": 3727,
      "shifter": 3728,
      "freight": 3729,
      "trusted": 3730,
      "summer": 3731,
      "cases": 3732,
      "course": 3733,
      "hassle": 3734,
      "pretty": 3735,
      "leesburg": 3736,
      "catalytic": 3737,
      "width": 3738,
      "continental": 3739,
      "04": 3740,
      "59": 3741,
      "bly": 3742,
      "hit": 3743,
      "lb": 3744,
      "lab": 3745,
      "later": 3746,
      "nal": 3747,
      "nel": 3748,
      "ply": 3749,
      "rich": 3750,
      "swi": 3751,
      "init": 3752,
      "instead": 3753,
      "reverse": 3754,
      "ites": 3755,
      "esome": 3756,
      "elf": 3757,
      "section": 3758,
      "abil": 3759,
      "shine": 3760,
      "ighter": 3761,
      "qui": 3762,
      "ides": 3763,
      "mentary": 3764,
      "pair": 3765,
      "doing": 3766,
      "brush": 3767,
      "intermitt": 3768,
      "airport": 3769,
      "msrp": 3770,
      "125": 3771,
      "dedicated": 3772,
      "subst": 3773,
      "extensive": 3774,
      "specification": 3775,
      "explo": 3776,
      "couple": 3777,
      "normal": 3778,
      "reliability": 3779,
      "clearance": 3780,
      "trained": 3781,
      "supplied": 3782,
      "situ": 3783,
      "challenger": 3784,
      "serviced": 3785,
      "impressive": 3786,
      "settings": 3787,
      "awesome": 3788,
      "kayak": 3789,
      "intermittent": 3790,
      "110": 3791,
      "award": 3792,
      "claim": 3793,
      "epa": 3794,
      "fail": 3795,
      "hc": 3796,
      "htt": 3797,
      "reco": 3798,
      "ases": 3799,
      "eler": 3800,
      "acqu": 3801,
      "colum": 3802,
      "dete": 3803,
      "logo": 3804,
      "users": 3805,
      "steps": 3806,
      "incent": 3807,
      "peace": 3808,
      "sometimes": 3809,
      "designs": 3810,
      "centre": 3811,
      "automatically": 3812,
      "capable": 3813,
      "riction": 3814,
      "crew": 3815,
      "finished": 3816,
      "friends": 3817,
      "delivers": 3818,
      "delivered": 3819,
      "article": 3820,
      "mechanics": 3821,
      "financial": 3822,
      "silverado": 3823,
      "didn": 3824,
      "exceed": 3825,
      "brea": 3826,
      "balance": 3827,
      "devices": 3828,
      "advertised": 3829,
      "developed": 3830,
      "department": 3831,
      "bottom": 3832,
      "practical": 3833,
      "laun": 3834,
      "66": 3835,
      "93": 3836,
      "crow": 3837,
      "count": 3838,
      "hone": 3839,
      "hous": 3840,
      "m2": 3841,
      "nm": 3842,
      "pist": 3843,
      "tell": 3844,
      "tely": 3845,
      "weld": 3846,
      "ink": 3847,
      "std": 3848,
      "ications": 3849,
      "deci": 3850,
      "aulic": 3851,
      "sup": 3852,
      "share": 3853,
      "otain": 3854,
      "driven": 3855,
      "serving": 3856,
      "offic": 3857,
      "nova": 3858,
      "delux": 3859,
      "grade": 3860,
      "daytime": 3861,
      "locate": 3862,
      "starter": 3863,
      "replacements": 3864,
      "shops": 3865,
      "checked": 3866,
      "1800": 3867,
      "volt": 3868,
      "passengers": 3869,
      "gasket": 3870,
      "created": 3871,
      "draulic": 3872,
      "generally": 3873,
      "reduced": 3874,
      "waxes": 3875,
      "vintage": 3876,
      "result": 3877,
      "worldwide": 3878,
      "circu": 3879,
      "certainly": 3880,
      "wireless": 3881,
      "enhance": 3882,
      "tipper": 3883,
      "grip": 3884,
      "jersey": 3885,
      "savings": 3886,
      "comparison": 3887,
      "circumfer": 3888,
      "infotain": 3889,
      "exclusive": 3890,
      "probably": 3891,
      "deluxe": 3892,
      "infotainment": 3893,
      "03": 3894,
      "82": 3895,
      "crack": 3896,
      "dents": 3897,
      "dark": 3898,
      "gage": 3899,
      "gged": 3900,
      "l1": 3901,
      "ming": 3902,
      "mel": 3903,
      "ports": 3904,
      "rare": 3905,
      "rari": 3906,
      "uary": 3907,
      "vil": 3908,
      "anced": 3909,
      "recall": 3910,
      "ona": 3911,
      "stage": 3912,
      "ese": 3913,
      "chero": 3914,
      "wee": 3915,
      "mag": 3916,
      "sol": 3917,
      "plat": 3918,
      "optim": 3919,
      "paid": 3920,
      "ranging": 3921,
      "prep": 3922,
      "engineering": 3923,
      "factors": 3924,
      "production": 3925,
      "otherwise": 3926,
      "featured": 3927,
      "backed": 3928,
      "changed": 3929,
      "restor": 3930,
      "glad": 3931,
      "accessory": 3932,
      "hydraulic": 3933,
      "installing": 3934,
      "litre": 3935,
      "tested": 3936,
      "cylinders": 3937,
      "brown": 3938,
      "absor": 3939,
      "wonder": 3940,
      "flect": 3941,
      "retailer": 3942,
      "gloss": 3943,
      "treat": 3944,
      "private": 3945,
      "knowledgeable": 3946,
      "muscle": 3947,
      "quadra": 3948,
      "muffler": 3949,
      "york": 3950,
      "yellow": 3951,
      "strength": 3952,
      "comprehensive": 3953,
      "incentives": 3954,
      "cherokee": 3955,
      "53": 3956,
      "72": 3957,
      "ah": 3958,
      "dan": 3959,
      "double": 3960,
      "him": 3961,
      "nar": 3962,
      "sr": 3963,
      "sand": 3964,
      "slight": 3965,
      "zz": 3966,
      "zl1": 3967,
      "err": 3968,
      "recor": 3969,
      "thesis": 3970,
      "alth": 3971,
      "ica": 3972,
      "coating": 3973,
      "adds": 3974,
      "carb": 3975,
      "beat": 3976,
      "meter": 3977,
      "neigh": 3978,
      "contract": 3979,
      "wet": 3980,
      "lip": 3981,
      "bust": 3982,
      "teles": 3983,
      "saab": 3984,
      "nothing": 3985,
      "poly": 3986,
      "civic": 3987,
      "accidents": 3988,
      "marine": 3989,
      "ferrari": 3990,
      "coln": 3991,
      "colors": 3992,
      "scale": 3993,
      "tailgate": 3994,
      "lightweight": 3995,
      "packag": 3996,
      "sellers": 3997,
      "lincoln": 3998,
      "perfectly": 3999,
      "connected": 4000,
      "bags": 4001,
      "professionals": 4002,
      "inspected": 4003,
      "slide": 4004,
      "collect": 4005,
      "pearl": 4006,
      "combination": 4007,
      "committed": 4008,
      "tacoma": 4009,
      "absolutely": 4010,
      "tinted": 4011,
      "crossover": 4012,
      "lubric": 4013,
      "catalog": 4014,
      "half": 4015,
      "piston": 4016,
      "decide": 4017,
      "quadrajet": 4018,
      "telesco": 4019,
      "4×": 4020,
      "5000": 4021,
      "6l": 4022,
      "700": 4023,
      "farm": 4024,
      "hil": 4025,
      "jour": 4026,
      "mich": 4027,
      "ni": 4028,
      "natur": 4029,
      "pound": 4030,
      "sess": 4031,
      "tex": 4032,
      "wish": 4033,
      "x6": 4034,
      "ins": 4035,
      "throt": 4036,
      "recy": 4037,
      "tot": 4038,
      "coil": 4039,
      "carplay": 4040,
      "tag": 4041,
      "odometer": 4042,
      "wheeler": 4043,
      "ranch": 4044,
      "file": 4045,
      "bright": 4046,
      "repaired": 4047,
      "instant": 4048,
      "calling": 4049,
      "phil": 4050,
      "variable": 4051,
      "lasting": 4052,
      "seconds": 4053,
      "increased": 4054,
      "suppliers": 4055,
      "extender": 4056,
      "reasonable": 4057,
      "mountain": 4058,
      "functional": 4059,
      "machin": 4060,
      "caliper": 4061,
      "thorough": 4062,
      "decision": 4063,
      "regarding": 4064,
      "authorized": 4065,
      "privacy": 4066,
      "ensures": 4067,
      "introduced": 4068,
      "monitoring": 4069,
      "document": 4070,
      "wrapped": 4071,
      "hurst": 4072,
      "synthetic": 4073,
      "consumers": 4074,
      "cooled": 4075,
      "recogn": 4076,
      "7l": 4077,
      "bc": 4078,
      "bent": 4079,
      "bab": 4080,
      "bicy": 4081,
      "dle": 4082,
      "fuse": 4083,
      "jan": 4084,
      "ray": 4085,
      "tro": 4086,
      "wy": 4087,
      "thous": 4088,
      "stun": 4089,
      "ene": 4090,
      "ads": 4091,
      "trouble": 4092,
      "keting": 4093,
      "const": 4094,
      "spoke": 4095,
      "promo": 4096,
      "units": 4097,
      "unless": 4098,
      "taken": 4099,
      "ham": 4100,
      "haz": 4101,
      "ids": 4102,
      "path": 4103,
      "rearview": 4104,
      "accident": 4105,
      "finally": 4106,
      "ously": 4107,
      "lowest": 4108,
      "purpos": 4109,
      "12v": 4110,
      "possess": 4111,
      "fication": 4112,
      "searching": 4113,
      "pedal": 4114,
      "drum": 4115,
      "luggage": 4116,
      "approx": 4117,
      "connector": 4118,
      "scores": 4119,
      "bedroom": 4120,
      "bulbs": 4121,
      "ecosport": 4122,
      "says": 4123,
      "lumbar": 4124,
      "early": 4125,
      "advice": 4126,
      "agreement": 4127,
      "sporty": 4128,
      "directions": 4129,
      "louis": 4130,
      "circuit": 4131,
      "4×4": 4132,
      "throttle": 4133,
      "purposes": 4134,
      "5l": 4135,
      "62": 4136,
      "79": 4137,
      "8l": 4138,
      "bow": 4139,
      "bir": 4140,
      "dm": 4141,
      "east": 4142,
      "hang": 4143,
      "jun": 4144,
      "mou": 4145,
      "maser": 4146,
      "sent": 4147,
      "uri": 4148,
      "vill": 4149,
      "inser": 4150,
      "leav": 4151,
      "fork": 4152,
      "elite": 4153,
      "sequ": 4154,
      "trac": 4155,
      "demand": 4156,
      "rian": 4157,
      "pros": 4158,
      "percent": 4159,
      "quar": 4160,
      "tear": 4161,
      "feed": 4162,
      "appreci": 4163,
      "hear": 4164,
      "boot": 4165,
      "intell": 4166,
      "ignition": 4167,
      "controlled": 4168,
      "viewing": 4169,
      "therefore": 4170,
      "possi": 4171,
      "removed": 4172,
      "paying": 4173,
      "180": 4174,
      "1993": 4175,
      "excit": 4176,
      "detailing": 4177,
      "nearly": 4178,
      "tons": 4179,
      "styles": 4180,
      "testing": 4181,
      "clients": 4182,
      "raptor": 4183,
      "upgrades": 4184,
      "1987": 4185,
      "technical": 4186,
      "nationwide": 4187,
      "holden": 4188,
      "appointed": 4189,
      "reasons": 4190,
      "smoothly": 4191,
      "drag": 4192,
      "tempor": 4193,
      "stake": 4194,
      "micro": 4195,
      "specialists": 4196,
      "fender": 4197,
      "distribut": 4198,
      "energy": 4199,
      "weeks": 4200,
      "scoresby": 4201,
      "mouth": 4202,
      "maserati": 4203,
      "120": 4204,
      "3l": 4205,
      "4l": 4206,
      "51": 4207,
      "96": 4208,
      "aero": 4209,
      "dred": 4210,
      "gal": 4211,
      "kw": 4212,
      "oz": 4213,
      "ots": 4214,
      "psi": 4215,
      "rh": 4216,
      "rings": 4217,
      "rise": 4218,
      "sen": 4219,
      "sense": 4220,
      "tough": 4221,
      "vd": 4222,
      "wre": 4223,
      "xx": 4224,
      "thread": 4225,
      "eria": 4226,
      "refun": 4227,
      "ency": 4228,
      "icul": 4229,
      "forcars": 4230,
      "forged": 4231,
      "illed": 4232,
      "trial": 4233,
      "degre": 4234,
      "kept": 4235,
      "luck": 4236,
      "typ": 4237,
      "update": 4238,
      "print": 4239,
      "bration": 4240,
      "account": 4241,
      "acceler": 4242,
      "worked": 4243,
      "monster": 4244,
      "choices": 4245,
      "providers": 4246,
      "fects": 4247,
      "pride": 4248,
      "bench": 4249,
      "runner": 4250,
      "differential": 4251,
      "cashforcars": 4252,
      "addle": 4253,
      "applicable": 4254,
      "waste": 4255,
      "police": 4256,
      "policy": 4257,
      "supplies": 4258,
      "sounds": 4259,
      "maintained": 4260,
      "talk": 4261,
      "thinking": 4262,
      "1971": 4263,
      "answers": 4264,
      "expected": 4265,
      "extreme": 4266,
      "entertain": 4267,
      "waiting": 4268,
      "resistance": 4269,
      "hundred": 4270,
      "wedding": 4271,
      "routine": 4272,
      "knob": 4273,
      "defro": 4274,
      "hope": 4275,
      "immediately": 4276,
      "frequently": 4277,
      "versatile": 4278,
      "paperwork": 4279,
      "opportun": 4280,
      "upgraded": 4281,
      "quiet": 4282,
      "stunning": 4283,
      "village": 4284,
      "wreck": 4285,
      "cashforcarsgroup": 4286,
      "220": 4287,
      "58": 4288,
      "cel": 4289,
      "clock": 4290,
      "dent": 4291,
      "earn": 4292,
      "fel": 4293,
      "gro": 4294,
      "jam": 4295,
      "lam": 4296,
      "none": 4297,
      "pil": 4298,
      "swe": 4299,
      "yard": 4300,
      "yoke": 4301,
      "ancing": 4302,
      "onroof": 4303,
      "stream": 4304,
      "chat": 4305,
      "moonroof": 4306,
      "verify": 4307,
      "rist": 4308,
      "rides": 4309,
      "ctic": 4310,
      "map": 4311,
      "unwanted": 4312,
      "mention": 4313,
      "comprom": 4314,
      "dome": 4315,
      "agg": 4316,
      "icks": 4317,
      "grey": 4318,
      "mary": 4319,
      "rugged": 4320,
      "useful": 4321,
      "changing": 4322,
      "corro": 4323,
      "believe": 4324,
      "gl1800": 4325,
      "miss": 4326,
      "handles": 4327,
      "izer": 4328,
      "ization": 4329,
      "showing": 4330,
      "lander": 4331,
      "protected": 4332,
      "adjustments": 4333,
      "counter": 4334,
      "ensions": 4335,
      "conversion": 4336,
      "washing": 4337,
      "hub": 4338,
      "tuned": 4339,
      "posted": 4340,
      "rotation": 4341,
      "draw": 4342,
      "arrive": 4343,
      "accurate": 4344,
      "indicator": 4345,
      "spacious": 4346,
      "ensuring": 4347,
      "public": 4348,
      "occup": 4349,
      "classified": 4350,
      "explore": 4351,
      "entertainment": 4352,
      "opportunity": 4353,
      "4x": 4354,
      "78": 4355,
      "94": 4356,
      "950": 4357,
      "bour": 4358,
      "broad": 4359,
      "cracks": 4360,
      "din": 4361,
      "eye": 4362,
      "halo": 4363,
      "mk": 4364,
      "men": 4365,
      "pill": 4366,
      "slow": 4367,
      "vity": 4368,
      "watch": 4369,
      "release": 4370,
      "orders": 4371,
      "oub": 4372,
      "ically": 4373,
      "aspe": 4374,
      "forget": 4375,
      "chic": 4376,
      "nego": 4377,
      "riding": 4378,
      "sha": 4379,
      "ift": 4380,
      "205": 4381,
      "apol": 4382,
      "appe": 4383,
      "goal": 4384,
      "dohc": 4385,
      "okes": 4386,
      "boast": 4387,
      "worn": 4388,
      "mize": 4389,
      "chester": 4390,
      "grill": 4391,
      "produced": 4392,
      "pleased": 4393,
      "joint": 4394,
      "setup": 4395,
      "bush": 4396,
      "trying": 4397,
      "1998": 4398,
      "exclu": 4399,
      "aki": 4400,
      "harm": 4401,
      "shows": 4402,
      "styling": 4403,
      "connectivity": 4404,
      "panor": 4405,
      "888": 4406,
      "smaller": 4407,
      "media": 4408,
      "giving": 4409,
      "appropri": 4410,
      "training": 4411,
      "considering": 4412,
      "tanker": 4413,
      "boro": 4414,
      "dynamic": 4415,
      "matching": 4416,
      "371": 4417,
      "adaptive": 4418,
      "satisfact": 4419,
      "slc": 4420,
      "particularly": 4421,
      "cables": 4422,
      "resistant": 4423,
      "mandar": 4424,
      "tachome": 4425,
      "pleasant": 4426,
      "restored": 4427,
      "sleek": 4428,
      "hummer": 4429,
      "significant": 4430,
      "european": 4431,
      "traditional": 4432,
      "incredible": 4433,
      "favorite": 4434,
      "initial": 4435,
      "typical": 4436,
      "pilot": 4437,
      "negoti": 4438,
      "aa": 4439,
      "aled": 4440,
      "apart": 4441,
      "aware": 4442,
      "bill": 4443,
      "cx": 4444,
      "ec": 4445,
      "eight": 4446,
      "fed": 4447,
      "fts": 4448,
      "gps": 4449,
      "ially": 4450,
      "jas": 4451,
      "mt": 4452,
      "mical": 4453,
      "nit": 4454,
      "s1": 4455,
      "une": 4456,
      "vat": 4457,
      "za": 4458,
      "invol": 4459,
      "thick": 4460,
      "rele": 4461,
      "onstar": 4462,
      "stre": 4463,
      "ston": 4464,
      "alban": 4465,
      "alfa": 4466,
      "told": 4467,
      "icon": 4468,
      "els": 4469,
      "acter": 4470,
      "vey": 4471,
      "coated": 4472,
      "coach": 4473,
      "seam": 4474,
      "convent": 4475,
      "spid": 4476,
      "execu": 4477,
      "unlike": 4478,
      "tele": 4479,
      "plans": 4480,
      "plates": 4481,
      "places": 4482,
      "ends": 4483,
      "chemical": 4484,
      "wasaki": 4485,
      "accent": 4486,
      "maru": 4487,
      "holes": 4488,
      "repairing": 4489,
      "turning": 4490,
      "someone": 4491,
      "channel": 4492,
      "minor": 4493,
      "elements": 4494,
      "axles": 4495,
      "stores": 4496,
      "camp": 4497,
      "fortun": 4498,
      "1991": 4499,
      "building": 4500,
      "nearby": 4501,
      "barry": 4502,
      "2500": 4503,
      "faster": 4504,
      "visiting": 4505,
      "approach": 4506,
      "licens": 4507,
      "obvious": 4508,
      "luxuri": 4509,
      "faces": 4510,
      "dashboard": 4511,
      "carriers": 4512,
      "sized": 4513,
      "retailers": 4514,
      "bulb": 4515,
      "technician": 4516,
      "sites": 4517,
      "victor": 4518,
      "liftgate": 4519,
      "reported": 4520,
      "employ": 4521,
      "kawasaki": 4522,
      "investment": 4523,
      "japanese": 4524,
      "complimentary": 4525,
      "bracket": 4526,
      "manager": 4527,
      "risk": 4528,
      "injectors": 4529,
      "coupons": 4530,
      "neighbor": 4531,
      "thousands": 4532,
      "intellig": 4533,
      "luxurious": 4534,
      "68": 4535,
      "73": 4536,
      "db": 4537,
      "ecc": 4538,
      "evalu": 4539,
      "fwd": 4540,
      "hert": 4541,
      "hwy": 4542,
      "iest": 4543,
      "kmp": 4544,
      "oo": 4545,
      "winch": 4546,
      "thought": 4547,
      "eral": 4548,
      "rely": 4549,
      "arctic": 4550,
      "ening": 4551,
      "edmon": 4552,
      "iche": 4553,
      "adding": 4554,
      "mold": 4555,
      "meas": 4556,
      "proport": 4557,
      "bug": 4558,
      "rather": 4559,
      "rajas": 4560,
      "siro": 4561,
      "outlet": 4562,
      "compla": 4563,
      "health": 4564,
      "truly": 4565,
      "intended": 4566,
      "worry": 4567,
      "brings": 4568,
      "marketing": 4569,
      "clunk": 4570,
      "forest": 4571,
      "cycle": 4572,
      "headlamps": 4573,
      "drivetrain": 4574,
      "removing": 4575,
      "flange": 4576,
      "prius": 4577,
      "picked": 4578,
      "variants": 4579,
      "premier": 4580,
      "carefully": 4581,
      "ownership": 4582,
      "operating": 4583,
      "romeo": 4584,
      "polished": 4585,
      "brook": 4586,
      "trader": 4587,
      "trips": 4588,
      "maintaining": 4589,
      "middle": 4590,
      "videos": 4591,
      "caster": 4592,
      "hills": 4593,
      "completed": 4594,
      "commitment": 4595,
      "consumer": 4596,
      "community": 4597,
      "individuals": 4598,
      "pleasure": 4599,
      "occur": 4600,
      "hatchback": 4601,
      "management": 4602,
      "substanti": 4603,
      "housing": 4604,
      "pounds": 4605,
      "totally": 4606,
      "aggres": 4607,
      "apolis": 4608,
      "appropriate": 4609,
      "tachometer": 4610,
      "albanvale": 4611,
      "conventional": 4612,
      "spider": 4613,
      "maruti": 4614,
      "hertz": 4615,
      "edmonton": 4616,
      "420": 4617,
      "52": 4618,
      "aper": 4619,
      "ahead": 4620,
      "alex": 4621,
      "bird": 4622,
      "cs": 4623,
      "cit": 4624,
      "cors": 4625,
      "ckets": 4626,
      "dres": 4627,
      "gran": 4628,
      "ith": 4629,
      "jim": 4630,
      "kel": 4631,
      "md": 4632,
      "nut": 4633,
      "ored": 4634,
      "pit": 4635,
      "rr": 4636,
      "rough": 4637,
      "sort": 4638,
      "sant": 4639,
      "resolution": 4640,
      "aries": 4641,
      "itors": 4642,
      "itary": 4643,
      "iso": 4644,
      "ispo": 4645,
      "forum": 4646,
      "cook": 4647,
      "admin": 4648,
      "trax": 4649,
      "tried": 4650,
      "vern": 4651,
      "beach": 4652,
      "tier": 4653,
      "neg": 4654,
      "aysi": 4655,
      "shar": 4656,
      "buck": 4657,
      "sides": 4658,
      "oline": 4659,
      "thern": 4660,
      "opel": 4661,
      "output": 4662,
      "delhi": 4663,
      "pocket": 4664,
      "word": 4665,
      "repaint": 4666,
      "estab": 4667,
      "108": 4668,
      "pping": 4669,
      "ventil": 4670,
      "specified": 4671,
      "cambelt": 4672,
      "ivers": 4673,
      "stylish": 4674,
      "tune": 4675,
      "loads": 4676,
      "idea": 4677,
      "inese": 4678,
      "surpr": 4679,
      "turbocharged": 4680,
      "puts": 4681,
      "smoke": 4682,
      "medium": 4683,
      "selves": 4684,
      "military": 4685,
      "websites": 4686,
      "banks": 4687,
      "responsi": 4688,
      "holders": 4689,
      "mounts": 4690,
      "iii": 4691,
      "plugs": 4692,
      "calipers": 4693,
      "1973": 4694,
      "traveling": 4695,
      "ecoboost": 4696,
      "priority": 4697,
      "versions": 4698,
      "fluids": 4699,
      "arrived": 4700,
      "flexible": 4701,
      "malaysi": 4702,
      "gauges": 4703,
      "tribut": 4704,
      "advertising": 4705,
      "instrument": 4706,
      "imately": 4707,
      "london": 4708,
      "restore": 4709,
      "criteria": 4710,
      "gallon": 4711,
      "concern": 4712,
      "slightly": 4713,
      "natural": 4714,
      "hazard": 4715,
      "feedback": 4716,
      "refund": 4717,
      "halogen": 4718,
      "chicago": 4719,
      "satisfaction": 4720,
      "santro": 4721,
      "1st": 4722,
      "2l": 4723,
      "210": 4724,
      "2nd": 4725,
      "3000": 4726,
      "3rd": 4727,
      "71": 4728,
      "bic": 4729,
      "doub": 4730,
      "kil": 4731,
      "mill": 4732,
      "pi": 4733,
      "t6": 4734,
      "tvs": 4735,
      "xl": 4736,
      "xr": 4737,
      "inner": 4738,
      "ana": 4739,
      "orry": 4740,
      "atlan": 4741,
      "stone": 4742,
      "stance": 4743,
      "enna": 4744,
      "enix": 4745,
      "enclosed": 4746,
      "itate": 4747,
      "elig": 4748,
      "acket": 4749,
      "chinese": 4750,
      "sets": 4751,
      "semi": 4752,
      "advis": 4753,
      "wires": 4754,
      "carparts": 4755,
      "aul": 4756,
      "rio": 4757,
      "soren": 4758,
      "resour": 4759,
      "quant": 4760,
      "unlimited": 4761,
      "ourselves": 4762,
      "featur": 4763,
      "luis": 4764,
      "illing": 4765,
      "govern": 4766,
      "vipar": 4767,
      "incor": 4768,
      "oko": 4769,
      "content": 4770,
      "points": 4771,
      "itself": 4772,
      "affect": 4773,
      "lax": 4774,
      "interface": 4775,
      "fined": 4776,
      "106": 4777,
      "achi": 4778,
      "headers": 4779,
      "valid": 4780,
      "posed": 4781,
      "presents": 4782,
      "spective": 4783,
      "hauling": 4784,
      "region": 4785,
      "marketplace": 4786,
      "knows": 4787,
      "1990": 4788,
      "capability": 4789,
      "variant": 4790,
      "connection": 4791,
      "gaskets": 4792,
      "classiccars": 4793,
      "depends": 4794,
      "signs": 4795,
      "martin": 4796,
      "wards": 4797,
      "technologies": 4798,
      "famous": 4799,
      "cooler": 4800,
      "biggest": 4801,
      "bigger": 4802,
      "confident": 4803,
      "aluminium": 4804,
      "navig": 4805,
      "inspect": 4806,
      "connectors": 4807,
      "obispo": 4808,
      "booking": 4809,
      "1989": 4810,
      "response": 4811,
      "clicking": 4812,
      "selecting": 4813,
      "trading": 4814,
      "circul": 4815,
      "majority": 4816,
      "pattern": 4817,
      "switches": 4818,
      "previously": 4819,
      "preferred": 4820,
      "preferences": 4821,
      "bai": 4822,
      "explor": 4823,
      "departure": 4824,
      "methods": 4825,
      "utilized": 4826,
      "published": 4827,
      "attached": 4828,
      "absolute": 4829,
      "fenders": 4830,
      "gatewayclassiccars": 4831,
      "brackets": 4832,
      "applied": 4833,
      "walk": 4834,
      "immobiliser": 4835,
      "volume": 4836,
      "precision": 4837,
      "configuration": 4838,
      "eliminate": 4839,
      "updated": 4840,
      "nuts": 4841,
      "announced": 4842,
      "plymouth": 4843,
      "column": 4844,
      "honest": 4845,
      "official": 4846,
      "narrow": 4847,
      "hilux": 4848,
      "approximately": 4849,
      "corrosion": 4850,
      "neighborhood": 4851,
      "rajasthan": 4852,
      "atlanta": 4853,
      "sorento": 4854,
      "featuring": 4855,
      "112": 4856,
      "280": 4857,
      "310": 4858,
      "4dr": 4859,
      "a4": 4860,
      "dong": 4861,
      "eyes": 4862,
      "fly": 4863,
      "gor": 4864,
      "glove": 4865,
      "kbb": 4866,
      "lers": 4867,
      "mas": 4868,
      "td": 4869,
      "umph": 4870,
      "vor": 4871,
      "zy": 4872,
      "zip": 4873,
      "relax": 4874,
      "ato": 4875,
      "ats": 4876,
      "stur": 4877,
      "enable": 4878,
      "alle": 4879,
      "ises": 4880,
      "coast": 4881,
      "wider": 4882,
      "mopar": 4883,
      "dead": 4884,
      "demon": 4885,
      "decre": 4886,
      "yours": 4887,
      "mption": 4888,
      "ault": 4889,
      "lost": 4890,
      "shire": 4891,
      "profile": 4892,
      "ifold": 4893,
      "older": 4894,
      "ills": 4895,
      "manifold": 4896,
      "oda": 4897,
      "ups": 4898,
      "dumper": 4899,
      "dubai": 4900,
      "newer": 4901,
      "ipod": 4902,
      "agu": 4903,
      "1988": 4904,
      "bob": 4905,
      "fob": 4906,
      "roadside": 4907,
      "achieve": 4908,
      "scion": 4909,
      "helping": 4910,
      "helped": 4911,
      "character": 4912,
      "minimum": 4913,
      "seeing": 4914,
      "seems": 4915,
      "positive": 4916,
      "informed": 4917,
      "bodykits": 4918,
      "passion": 4919,
      "1994": 4920,
      "wherever": 4921,
      "command": 4922,
      "114": 4923,
      "tubes": 4924,
      "gasoline": 4925,
      "bridge": 4926,
      "operate": 4927,
      "sensitive": 4928,
      "receiver": 4929,
      "sunny": 4930,
      "polish": 4931,
      "washer": 4932,
      "feels": 4933,
      "reduces": 4934,
      "crash": 4935,
      "opening": 4936,
      "replaces": 4937,
      "relay": 4938,
      "winning": 4939,
      "kinds": 4940,
      "pieces": 4941,
      "adapter": 4942,
      "performed": 4943,
      "compatibility": 4944,
      "annivers": 4945,
      "writ": 4946,
      "triumph": 4947,
      "enhanced": 4948,
      "modifications": 4949,
      "sticker": 4950,
      "indianapolis": 4951,
      "servicing": 4952,
      "jerry": 4953,
      "chips": 4954,
      "assured": 4955,
      "diagnostic": 4956,
      "messa": 4957,
      "april": 4958,
      "estimate": 4959,
      "estimated": 4960,
      "dimensions": 4961,
      "hidden": 4962,
      "screws": 4963,
      "freightliner": 4964,
      "https": 4965,
      "crown": 4966,
      "circumference": 4967,
      "recalls": 4968,
      "platform": 4969,
      "insert": 4970,
      "defroster": 4971,
      "bourne": 4972,
      "seamless": 4973,
      "sirohi": 4974,
      "corsica": 4975,
      "dressing": 4976,
      "carpartsdiscount": 4977,
      "anniversary": 4978,
      "320": 4979,
      "4d": 4980,
      "4g": 4981,
      "54": 4982,
      "63": 4983,
      "750": 4984,
      "81": 4985,
      "84": 4986,
      "band": 4987,
      "bron": 4988,
      "cf": 4989,
      "dor": 4990,
      "feng": 4991,
      "gli": 4992,
      "h2": 4993,
      "hom": 4994,
      "i8": 4995,
      "ko": 4996,
      "kids": 4997,
      "lished": 4998,
      "obl": 4999,
      "pal": 5000,
      "pow": 5001,
      "pte": 5002,
      "rand": 5003,
      "sight": 5004,
      "saug": 5005,
      "wants": 5006,
      "xd": 5007,
      "xen": 5008,
      "zero": 5009,
      "insp": 5010,
      "stamp": 5011,
      "ened": 5012,
      "toll": 5013,
      "eding": 5014,
      "rode": 5015,
      "rochester": 5016,
      "adhes": 5017,
      "tries": 5018,
      "carav": 5019,
      "cards": 5020,
      "modu": 5021,
      "deck": 5022,
      "decent": 5023,
      "defects": 5024,
      "whate": 5025,
      "promis": 5026,
      "lier": 5027,
      "resale": 5028,
      "safer": 5029,
      "opt": 5030,
      "heating": 5031,
      "goo": 5032,
      "pages": 5033,
      "dog": 5034,
      "notch": 5035,
      "bose": 5036,
      "wasn": 5037,
      "imal": 5038,
      "grace": 5039,
      "cling": 5040,
      "bern": 5041,
      "restriction": 5042,
      "seem": 5043,
      "flag": 5044,
      "visibility": 5045,
      "bene": 5046,
      "superb": 5047,
      "specials": 5048,
      "turns": 5049,
      "transmissions": 5050,
      "depth": 5051,
      "1300": 5052,
      "lifestyle": 5053,
      "surfaces": 5054,
      "transporting": 5055,
      "businesses": 5056,
      "ordered": 5057,
      "hpi": 5058,
      "atively": 5059,
      "sunrise": 5060,
      "members": 5061,
      "considered": 5062,
      "smartphone": 5063,
      "skoda": 5064,
      "machines": 5065,
      "1967": 5066,
      "software": 5067,
      "seals": 5068,
      "protects": 5069,
      "regularly": 5070,
      "expertise": 5071,
      "assembled": 5072,
      "adventures": 5073,
      "communication": 5074,
      "jackson": 5075,
      "shocks": 5076,
      "regulator": 5077,
      "punct": 5078,
      "karachi": 5079,
      "innovative": 5080,
      "copy": 5081,
      "450f": 5082,
      "oxy": 5083,
      "ramps": 5084,
      "accommodate": 5085,
      "subscription": 5086,
      "vacu": 5087,
      "situation": 5088,
      "magnet": 5089,
      "errors": 5090,
      "journey": 5091,
      "temporary": 5092,
      "panoramic": 5093,
      "executive": 5094,
      "aggressive": 5095,
      "eligible": 5096,
      "dongfeng": 5097,
      "saugus": 5098,
      "whatever": 5099,
      "140": 5100,
      "2x": 5101,
      "211": 5102,
      "550": 5103,
      "61": 5104,
      "aid": 5105,
      "aim": 5106,
      "bing": 5107,
      "cater": 5108,
      "cng": 5109,
      "equal": 5110,
      "ebc": 5111,
      "ffe": 5112,
      "fans": 5113,
      "gst": 5114,
      "gent": 5115,
      "gone": 5116,
      "hiring": 5117,
      "iors": 5118,
      "m3": 5119,
      "m6": 5120,
      "r1": 5121,
      "scan": 5122,
      "tel": 5123,
      "tend": 5124,
      "ude": 5125,
      "uconnect": 5126,
      "vable": 5127,
      "x3": 5128,
      "yards": 5129,
      "yokes": 5130,
      "zed": 5131,
      "erve": 5132,
      "refur": 5133,
      "arms": 5134,
      "thent": 5135,
      "station": 5136,
      "iconic": 5137,
      "robust": 5138,
      "illi": 5139,
      "colo": 5140,
      "seven": 5141,
      "septe": 5142,
      "carpe": 5143,
      "determ": 5144,
      "determin": 5145,
      "authent": 5146,
      "spal": 5147,
      "urban": 5148,
      "residents": 5149,
      "rams": 5150,
      "tages": 5151,
      "tags": 5152,
      "saw": 5153,
      "manship": 5154,
      "opti": 5155,
      "ambi": 5156,
      "comment": 5157,
      "specially": 5158,
      "viper": 5159,
      "desire": 5160,
      "cheaper": 5161,
      "matched": 5162,
      "highlander": 5163,
      "workshop": 5164,
      "roadster": 5165,
      "mercur": 5166,
      "goodyear": 5167,
      "minimal": 5168,
      "vals": 5169,
      "corpor": 5170,
      "transform": 5171,
      "packing": 5172,
      "towards": 5173,
      "camshaft": 5174,
      "dont": 5175,
      "knowing": 5176,
      "filtr": 5177,
      "filled": 5178,
      "closer": 5179,
      "recommendations": 5180,
      "external": 5181,
      "signature": 5182,
      "atives": 5183,
      "diagrams": 5184,
      "lancaster": 5185,
      "norm": 5186,
      "rapid": 5187,
      "leader": 5188,
      "1984": 5189,
      "responsive": 5190,
      "advantages": 5191,
      "holder": 5192,
      "swap": 5193,
      "sliding": 5194,
      "carried": 5195,
      "badge": 5196,
      "balancing": 5197,
      "returns": 5198,
      "returned": 5199,
      "1969": 5200,
      "matches": 5201,
      "answered": 5202,
      "sealant": 5203,
      "integration": 5204,
      "arrival": 5205,
      "tracks": 5206,
      "names": 5207,
      "legal": 5208,
      "development": 5209,
      "securely": 5210,
      "regardless": 5211,
      "finest": 5212,
      "expectations": 5213,
      "spacer": 5214,
      "advance": 5215,
      "consumption": 5216,
      "container": 5217,
      "projector": 5218,
      "ctively": 5219,
      "beginning": 5220,
      "alternator": 5221,
      "alternative": 5222,
      "besides": 5223,
      "innovation": 5224,
      "separately": 5225,
      "formula": 5226,
      "reputation": 5227,
      "meets": 5228,
      "meeting": 5229,
      "napa": 5230,
      "launch": 5231,
      "prepared": 5232,
      "wonderful": 5233,
      "constantly": 5234,
      "appreciate": 5235,
      "hundreds": 5236,
      "pillar": 5237,
      "appeal": 5238,
      "licensed": 5239,
      "substantial": 5240,
      "established": 5241,
      "powder": 5242,
      "xenon": 5243,
      "vacuum": 5244,
      "refurb": 5245,
      "september": 5246,
      "determine": 5247,
      "authentic": 5248,
      "mercury": 5249,
      "360": 5250,
      "91": 5251,
      "bhp": 5252,
      "cb": 5253,
      "cry": 5254,
      "dot": 5255,
      "fram": 5256,
      "ja": 5257,
      "kka": 5258,
      "lighter": 5259,
      "mc": 5260,
      "pted": 5261,
      "sx": 5262,
      "sch": 5263,
      "squ": 5264,
      "tj": 5265,
      "tall": 5266,
      "uc": 5267,
      "wat": 5268,
      "zer": 5269,
      "iny": 5270,
      "thule": 5271,
      "retain": 5272,
      "refine": 5273,
      "reflect": 5274,
      "repossess": 5275,
      "outer": 5276,
      "attemp": 5277,
      "tos": 5278,
      "edia": 5279,
      "icut": 5280,
      "elves": 5281,
      "chrom": 5282,
      "champ": 5283,
      "seg": 5284,
      "mokka": 5285,
      "georg": 5286,
      "igan": 5287,
      "whiche": 5288,
      "conce": 5289,
      "loom": 5290,
      "loss": 5291,
      "spin": 5292,
      "weigh": 5293,
      "cele": 5294,
      "ural": 5295,
      "proced": 5296,
      "mahind": 5297,
      "socket": 5298,
      "tape": 5299,
      "party": 5300,
      "stest": 5301,
      "compress": 5302,
      "upper": 5303,
      "ardino": 5304,
      "peeding": 5305,
      "elling": 5306,
      "desert": 5307,
      "frontier": 5308,
      "hole": 5309,
      "atures": 5310,
      "ships": 5311,
      "letter": 5312,
      "particle": 5313,
      "partner": 5314,
      "mont": 5315,
      "stands": 5316,
      "mining": 5317,
      "corn": 5318,
      "corners": 5319,
      "vents": 5320,
      "join": 5321,
      "century": 5322,
      "gue": 5323,
      "curtain": 5324,
      "checks": 5325,
      "leak": 5326,
      "flush": 5327,
      "windshields": 5328,
      "functions": 5329,
      "transpare": 5330,
      "satur": 5331,
      "maxpeeding": 5332,
      "operated": 5333,
      "cruiser": 5334,
      "silk": 5335,
      "connecticut": 5336,
      "alloys": 5337,
      "invention": 5338,
      "increasing": 5339,
      "soul": 5340,
      "southern": 5341,
      "founded": 5342,
      "holding": 5343,
      "burn": 5344,
      "sealing": 5345,
      "particip": 5346,
      "pulse": 5347,
      "june": 5348,
      "weekend": 5349,
      "virtu": 5350,
      "bidding": 5351,
      "write": 5352,
      "enterpr": 5353,
      "fastest": 5354,
      "stakes": 5355,
      "events": 5356,
      "proudly": 5357,
      "significantly": 5358,
      "critical": 5359,
      "volution": 5360,
      "dollars": 5361,
      "accommod": 5362,
      "failure": 5363,
      "treatment": 5364,
      "telescoping": 5365,
      "michigan": 5366,
      "texas": 5367,
      "machined": 5368,
      "bicycle": 5369,
      "january": 5370,
      "quarter": 5371,
      "boasts": 5372,
      "kmpl": 5373,
      "government": 5374,
      "bernardino": 5375,
      "benefit": 5376,
      "colored": 5377,
      "filtration": 5378,
      "whichever": 5379,
      "mahindra": 5380,
      "maxpeedingrods": 5381,
      "330": 5382,
      "490": 5383,
      "ae": 5384,
      "bell": 5385,
      "c8": 5386,
      "dat": 5387,
      "dress": 5388,
      "fg": 5389,
      "gel": 5390,
      "hab": 5391,
      "iv": 5392,
      "kers": 5393,
      "kms": 5394,
      "lp": 5395,
      "lcd": 5396,
      "mac": 5397,
      "oct": 5398,
      "pen": 5399,
      "pir": 5400,
      "pace": 5401,
      "rc": 5402,
      "rick": 5403,
      "slot": 5404,
      "tv": 5405,
      "task": 5406,
      "uv": 5407,
      "varies": 5408,
      "xdrive": 5409,
      "inde": 5410,
      "inqu": 5411,
      "infl": 5412,
      "anal": 5413,
      "rev": 5414,
      "attr": 5415,
      "lever": 5416,
      "stated": 5417,
      "encounter": 5418,
      "ico": 5419,
      "ache": 5420,
      "ilst": 5421,
      "ilove": 5422,
      "adian": 5423,
      "carol": 5424,
      "entering": 5425,
      "whilst": 5426,
      "neu": 5427,
      "newest": 5428,
      "shir": 5429,
      "exot": 5430,
      "bull": 5431,
      "quer": 5432,
      "sier": 5433,
      "lube": 5434,
      "hav": 5435,
      "haw": 5436,
      "english": 5437,
      "spect": 5438,
      "1980": 5439,
      "anytime": 5440,
      "contents": 5441,
      "mix": 5442,
      "brilli": 5443,
      "interiors": 5444,
      "placement": 5445,
      "myself": 5446,
      "fox": 5447,
      "easiest": 5448,
      "blades": 5449,
      "blvd": 5450,
      "scra": 5451,
      "istics": 5452,
      "corsa": 5453,
      "everyday": 5454,
      "missing": 5455,
      "curt": 5456,
      "provider": 5457,
      "160": 5458,
      "equino": 5459,
      "ceramic": 5460,
      "caps": 5461,
      "painting": 5462,
      "240": 5463,
      "24v": 5464,
      "assive": 5465,
      "trimmed": 5466,
      "405": 5467,
      "turned": 5468,
      "disclaim": 5469,
      "limitations": 5470,
      "salesman": 5471,
      "135": 5472,
      "german": 5473,
      "cubic": 5474,
      "countries": 5475,
      "dependable": 5476,
      "surf": 5477,
      "friday": 5478,
      "clip": 5479,
      "285": 5480,
      "angle": 5481,
      "raints": 5482,
      "1985": 5483,
      "1986": 5484,
      "garages": 5485,
      "component": 5486,
      "sky": 5487,
      "facil": 5488,
      "statement": 5489,
      "gave": 5490,
      "carries": 5491,
      "midnight": 5492,
      "structure": 5493,
      "planning": 5494,
      "competition": 5495,
      "filling": 5496,
      "bulk": 5497,
      "reserved": 5498,
      "scratching": 5499,
      "club": 5500,
      "beauty": 5501,
      "flexibility": 5502,
      "children": 5503,
      "treated": 5504,
      "representative": 5505,
      "consult": 5506,
      "music": 5507,
      "wraps": 5508,
      "growing": 5509,
      "mrt": 5510,
      "puncture": 5511,
      "royal": 5512,
      "reputable": 5513,
      "abilities": 5514,
      "vilbel": 5515,
      "restoration": 5516,
      "documentation": 5517,
      "promotion": 5518,
      "leaving": 5519,
      "distributor": 5520,
      "acceleration": 5521,
      "domestic": 5522,
      "washington": 5523,
      "occupant": 5524,
      "federal": 5525,
      "involved": 5526,
      "clunker": 5527,
      "malaysia": 5528,
      "quantity": 5529,
      "obligation": 5530,
      "google": 5531,
      "restrictions": 5532,
      "jacksonville": 5533,
      "magnetic": 5534,
      "normally": 5535,
      "ilovebodykits": 5536,
      "carolina": 5537,
      "equinox": 5538,
      "1200": 5539,
      "2wd": 5540,
      "4runner": 5541,
      "67": 5542,
      "aer": 5543,
      "cti": 5544,
      "cly": 5545,
      "cell": 5546,
      "dall": 5547,
      "dney": 5548,
      "eag": 5549,
      "fr": 5550,
      "frank": 5551,
      "flaw": 5552,
      "gift": 5553,
      "hay": 5554,
      "ipa": 5555,
      "jdm": 5556,
      "ki": 5557,
      "mad": 5558,
      "nh": 5559,
      "paddle": 5560,
      "tack": 5561,
      "uge": 5562,
      "ref": 5563,
      "refresh": 5564,
      "reports": 5565,
      "orange": 5566,
      "sti": 5567,
      "encou": 5568,
      "ism": 5569,
      "ionally": 5570,
      "chair": 5571,
      "wife": 5572,
      "moist": 5573,
      "cons": 5574,
      "conta": 5575,
      "terri": 5576,
      "expres": 5577,
      "proven": 5578,
      "soph": 5579,
      "bution": 5580,
      "unavailable": 5581,
      "tek": 5582,
      "plated": 5583,
      "haven": 5584,
      "parti": 5585,
      "odor": 5586,
      "compound": 5587,
      "duct": 5588,
      "notes": 5589,
      "1970": 5590,
      "ranges": 5591,
      "peak": 5592,
      "peuge": 5593,
      "deserve": 5594,
      "roller": 5595,
      "brit": 5596,
      "sydney": 5597,
      "accents": 5598,
      "marks": 5599,
      "holi": 5600,
      "greatly": 5601,
      "overspeed": 5602,
      "aston": 5603,
      "held": 5604,
      "headliner": 5605,
      "monday": 5606,
      "lineup": 5607,
      "minute": 5608,
      "maybe": 5609,
      "covering": 5610,
      "elect": 5611,
      "restraints": 5612,
      "guess": 5613,
      "guards": 5614,
      "shoppers": 5615,
      "rows": 5616,
      "settle": 5617,
      "manufacture": 5618,
      "buses": 5619,
      "capital": 5620,
      "capabilities": 5621,
      "stern": 5622,
      "keeps": 5623,
      "funds": 5624,
      "creating": 5625,
      "maxi": 5626,
      "turbocharger": 5627,
      "imported": 5628,
      "delivering": 5629,
      "directory": 5630,
      "happens": 5631,
      "strive": 5632,
      "gaz": 5633,
      "tesy": 5634,
      "worthy": 5635,
      "posts": 5636,
      "1965": 5637,
      "1968": 5638,
      "register": 5639,
      "economical": 5640,
      "minivan": 5641,
      "resulting": 5642,
      "jump": 5643,
      "july": 5644,
      "virgin": 5645,
      "cutting": 5646,
      "global": 5647,
      "usual": 5648,
      "legend": 5649,
      "courtesy": 5650,
      "effectively": 5651,
      "indicators": 5652,
      "authority": 5653,
      "earlier": 5654,
      "straightforward": 5655,
      "calculations": 5656,
      "sending": 5657,
      "documents": 5658,
      "slee": 5659,
      "willi": 5660,
      "direction": 5661,
      "effortless": 5662,
      "ridgefield": 5663,
      "continued": 5664,
      "gallery": 5665,
      "pdf": 5666,
      "valent": 5667,
      "submitting": 5668,
      "practicality": 5669,
      "optimal": 5670,
      "packaged": 5671,
      "baby": 5672,
      "possibly": 5673,
      "sweep": 5674,
      "371hp": 5675,
      "nitro": 5676,
      "stretch": 5677,
      "chemicals": 5678,
      "fortunately": 5679,
      "eccpp": 5680,
      "proportional": 5681,
      "ventilated": 5682,
      "resources": 5683,
      "explorer": 5684,
      "sturdy": 5685,
      "bronco": 5686,
      "rodeo": 5687,
      "gentle": 5688,
      "square": 5689,
      "segment": 5690,
      "lpg": 5691,
      "analys": 5692,
      "attractive": 5693,
      "havre": 5694,
      "dallas": 5695,
      "encoura": 5696,
      "moisture": 5697,
      "peugeot": 5698,
      "64": 5699,
      "614": 5700,
      "920": 5701,
      "aqu": 5702,
      "bold": 5703,
      "cv": 5704,
      "cush": 5705,
      "facing": 5706,
      "frust": 5707,
      "friction": 5708,
      "gb": 5709,
      "kick": 5710,
      "lf": 5711,
      "latch": 5712,
      "nine": 5713,
      "r3": 5714,
      "rac": 5715,
      "sity": 5716,
      "tension": 5717,
      "uhaul": 5718,
      "ya": 5719,
      "ini": 5720,
      "erfe": 5721,
      "ons": 5722,
      "theless": 5723,
      "thems": 5724,
      "attribut": 5725,
      "stal": 5726,
      "stel": 5727,
      "stations": 5728,
      "stabil": 5729,
      "alb": 5730,
      "alber": 5731,
      "isof": 5732,
      "isers": 5733,
      "rotor": 5734,
      "asking": 5735,
      "elk": 5736,
      "vember": 5737,
      "chau": 5738,
      "christ": 5739,
      "cary": 5740,
      "moment": 5741,
      "deflect": 5742,
      "verified": 5743,
      "abad": 5744,
      "rive": 5745,
      "river": 5746,
      "rider": 5747,
      "sud": 5748,
      "suits": 5749,
      "loop": 5750,
      "terns": 5751,
      "usion": 5752,
      "shut": 5753,
      "extr": 5754,
      "promp": 5755,
      "teous": 5756,
      "taill": 5757,
      "steven": 5758,
      "compens": 5759,
      "upcoming": 5760,
      "duke": 5761,
      "heights": 5762,
      "newly": 5763,
      "atest": 5764,
      "office": 5765,
      "vio": 5766,
      "vibration": 5767,
      "agency": 5768,
      "november": 5769,
      "ardmore": 5770,
      "dealing": 5771,
      "bosch": 5772,
      "pole": 5773,
      "prepar": 5774,
      "greatest": 5775,
      "ansas": 5776,
      "bris": 5777,
      "looked": 5778,
      "highlights": 5779,
      "acces": 5780,
      "march": 5781,
      "controllers": 5782,
      "forms": 5783,
      "qualified": 5784,
      "105": 5785,
      "produce": 5786,
      "producing": 5787,
      "508": 5788,
      "roading": 5789,
      "views": 5790,
      "achie": 5791,
      "warm": 5792,
      "tailored": 5793,
      "imperfe": 5794,
      "mins": 5795,
      "tops": 5796,
      "12205": 5797,
      "chargers": 5798,
      "ario": 5799,
      "ensity": 5800,
      "supports": 5801,
      "sterling": 5802,
      "ssr": 5803,
      "40i": 5804,
      "specialized": 5805,
      "shoulder": 5806,
      "closing": 5807,
      "queens": 5808,
      "lens": 5809,
      "100km": 5810,
      "emble": 5811,
      "operations": 5812,
      "operates": 5813,
      "crucial": 5814,
      "fourtrax": 5815,
      "displays": 5816,
      "stopping": 5817,
      "catch": 5818,
      "articul": 5819,
      "scoop": 5820,
      "shifters": 5821,
      "flood": 5822,
      "959": 5823,
      "skilled": 5824,
      "midsize": 5825,
      "sprinter": 5826,
      "winner": 5827,
      "electronics": 5828,
      "temperatures": 5829,
      "correctly": 5830,
      "flowmaster": 5831,
      "basis": 5832,
      "patient": 5833,
      "patterns": 5834,
      "decided": 5835,
      "courteous": 5836,
      "advertise": 5837,
      "closest": 5838,
      "pipes": 5839,
      "wholesale": 5840,
      "rdx": 5841,
      "commonly": 5842,
      "valuable": 5843,
      "hunting": 5844,
      "utilize": 5845,
      "impressed": 5846,
      "meaning": 5847,
      "graphics": 5848,
      "remains": 5849,
      "surrounding": 5850,
      "mufflers": 5851,
      "distribution": 5852,
      "separate": 5853,
      "explains": 5854,
      "crankshaft": 5855,
      "occas": 5856,
      "crafted": 5857,
      "formulated": 5858,
      "hesitate": 5859,
      "subscribe": 5860,
      "yz450f": 5861,
      "diecast": 5862,
      "breaking": 5863,
      "launched": 5864,
      "melbourne": 5865,
      "packaging": 5866,
      "functionality": 5867,
      "thoroughly": 5868,
      "bentley": 5869,
      "excited": 5870,
      "degree": 5871,
      "4x2": 5872,
      "telephone": 5873,
      "intelligent": 5874,
      "complain": 5875,
      "administ": 5876,
      "negative": 5877,
      "responsibility": 5878,
      "t660": 5879,
      "decrease": 5880,
      "114sd": 5881,
      "caravan": 5882,
      "module": 5883,
      "repossessed": 5884,
      "compressor": 5885,
      "enterprise": 5886,
      "brilliant": 5887,
      "disclaimer": 5888,
      "contamin": 5889,
      "partial": 5890,
      "virginia": 5891,
      "analysis": 5892,
      "themselves": 5893,
      "isofix": 5894,
      "chauffe": 5895,
      "imperfections": 5896,
      "230": 5897,
      "460": 5898,
      "619": 5899,
      "83": 5900,
      "abe": 5901,
      "bree": 5902,
      "blog": 5903,
      "c4": 5904,
      "cran": 5905,
      "cbm": 5906,
      "cvt": 5907,
      "dab": 5908,
      "fash": 5909,
      "hl": 5910,
      "hex": 5911,
      "ivalent": 5912,
      "j6": 5913,
      "jacket": 5914,
      "laser": 5915,
      "nj": 5916,
      "phon": 5917,
      "patch": 5918,
      "sque": 5919,
      "snap": 5920,
      "sorry": 5921,
      "tl": 5922,
      "tas": 5923,
      "vation": 5924,
      "vast": 5925,
      "wn": 5926,
      "ane": 5927,
      "rep": 5928,
      "rever": 5929,
      "renew": 5930,
      "recl": 5931,
      "retract": 5932,
      "ordin": 5933,
      "arle": 5934,
      "arily": 5935,
      "strat": 5936,
      "stress": 5937,
      "ende": 5938,
      "edom": 5939,
      "iced": 5940,
      "rob": 5941,
      "forts": 5942,
      "forks": 5943,
      "acid": 5944,
      "sealed": 5945,
      "trd": 5946,
      "moved": 5947,
      "dece": 5948,
      "ries": 5949,
      "loct": 5950,
      "ctural": 5951,
      "western": 5952,
      "shor": 5953,
      "shade": 5954,
      "shelf": 5955,
      "uring": 5956,
      "exit": 5957,
      "export": 5958,
      "maker": 5959,
      "magaz": 5960,
      "lies": 5961,
      "febr": 5962,
      "haps": 5963,
      "cancel": 5964,
      "manner": 5965,
      "amen": 5966,
      "amond": 5967,
      "comments": 5968,
      "compass": 5969,
      "pak": 5970,
      "paints": 5971,
      "dimeth": 5972,
      "diamond": 5973,
      "aged": 5974,
      "190": 5975,
      "delight": 5976,
      "assort": 5977,
      "pockets": 5978,
      "seatbelts": 5979,
      "mates": 5980,
      "greg": 5981,
      "grab": 5982,
      "whenever": 5983,
      "disman": 5984,
      "shipment": 5985,
      "customized": 5986,
      "overdrive": 5987,
      "overland": 5988,
      "produces": 5989,
      "50i": 5990,
      "finder": 5991,
      "headrest": 5992,
      "jeff": 5993,
      "sidewall": 5994,
      "belie": 5995,
      "handy": 5996,
      "jobs": 5997,
      "joints": 5998,
      "purchases": 5999,
      "guid": 6000,
      "guides": 6001,
      "sette": 6002,
      "costly": 6003,
      "165": 6004,
      "equivalent": 6005,
      "visual": 6006,
      "hydro": 6007,
      "241": 6008,
      "originally": 6009,
      "izes": 6010,
      "portable": 6011,
      "liners": 6012,
      "cleaned": 6013,
      "pedals": 6014,
      "duration": 6015,
      "comfortably": 6016,
      "ideas": 6017,
      "titude": 6018,
      "cuts": 6019,
      "sedans": 6020,
      "tane": 6021,
      "cruze": 6022,
      "finishes": 6023,
      "cabrio": 6024,
      "waipa": 6025,
      "leads": 6026,
      "washable": 6027,
      "1981": 6028,
      "lowering": 6029,
      "certific": 6030,
      "suited": 6031,
      "freedom": 6032,
      "relatively": 6033,
      "born": 6034,
      "trades": 6035,
      "triple": 6036,
      "pickups": 6037,
      "crafts": 6038,
      "competitors": 6039,
      "bringing": 6040,
      "realize": 6041,
      "carrying": 6042,
      "sitting": 6043,
      "performing": 6044,
      "satisfy": 6045,
      "333": 6046,
      "schedu": 6047,
      "described": 6048,
      "prevents": 6049,
      "positions": 6050,
      "cassette": 6051,
      "fairly": 6052,
      "snowbir": 6053,
      "fittings": 6054,
      "stronger": 6055,
      "pcm": 6056,
      "activation": 6057,
      "authorised": 6058,
      "emplo": 6059,
      "buttons": 6060,
      "herit": 6061,
      "categories": 6062,
      "utilizing": 6063,
      "calculation": 6064,
      "improvement": 6065,
      "australian": 6066,
      "remaining": 6067,
      "hassles": 6068,
      "figure": 6069,
      "applies": 6070,
      "crossovers": 6071,
      "august": 6072,
      "immediate": 6073,
      "explained": 6074,
      "riger": 6075,
      "precise": 6076,
      "updates": 6077,
      "successful": 6078,
      "layer": 6079,
      "http": 6080,
      "optimum": 6081,
      "telescopic": 6082,
      "coilover": 6083,
      "recognition": 6084,
      "viewingrs": 6085,
      "exciting": 6086,
      "felt": 6087,
      "aspect": 6088,
      "bushing": 6089,
      "camping": 6090,
      "sharp": 6091,
      "108sd": 6092,
      "circulation": 6093,
      "written": 6094,
      "adhesive": 6095,
      "punctures": 6096,
      "ambient": 6097,
      "particles": 6098,
      "transparent": 6099,
      "clymer": 6100,
      "refriger": 6101,
      "sophist": 6102,
      "legendary": 6103,
      "william": 6104,
      "nitrogen": 6105,
      "albany": 6106,
      "prompt": 6107,
      "stevenson": 6108,
      "preparation": 6109,
      "accessible": 6110,
      "phones": 6111,
      "loctite": 6112,
      "february": 6113,
      "waipahu": 6114,
      "snowbirds": 6115,
      "318": 6116,
      "335": 6117,
      "390": 6118,
      "5w": 6119,
      "670": 6120,
      "blocks": 6121,
      "clamps": 6122,
      "dc": 6123,
      "dd": 6124,
      "dar": 6125,
      "dau": 6126,
      "dart": 6127,
      "gur": 6128,
      "hen": 6129,
      "hide": 6130,
      "jk": 6131,
      "jagu": 6132,
      "lind": 6133,
      "loud": 6134,
      "ml": 6135,
      "mn": 6136,
      "massive": 6137,
      "nin": 6138,
      "nick": 6139,
      "oor": 6140,
      "py": 6141,
      "rum": 6142,
      "rally": 6143,
      "rights": 6144,
      "sv": 6145,
      "scar": 6146,
      "sche": 6147,
      "sville": 6148,
      "tab": 6149,
      "tte": 6150,
      "tul": 6151,
      "vital": 6152,
      "vvt": 6153,
      "wer": 6154,
      "ഫഗ": 6155,
      "infor": 6156,
      "inexpensive": 6157,
      "thunder": 6158,
      "rema": 6159,
      "repo": 6160,
      "retro": 6161,
      "respect": 6162,
      "onboard": 6163,
      "theast": 6164,
      "atc": 6165,
      "atic": 6166,
      "stable": 6167,
      "story": 6168,
      "stitch": 6169,
      "enue": 6170,
      "alt": 6171,
      "alab": 6172,
      "island": 6173,
      "role": 6174,
      "co2": 6175,
      "codes": 6176,
      "chi": 6177,
      "ches": 6178,
      "secu": 6179,
      "adul": 6180,
      "trx": 6181,
      "trick": 6182,
      "bez": 6183,
      "became": 6184,
      "loved": 6185,
      "lokar": 6186,
      "spro": 6187,
      "spir": 6188,
      "iron": 6189,
      "shack": 6190,
      "lif": 6191,
      "solar": 6192,
      "quatt": 6193,
      "simul": 6194,
      "tec": 6195,
      "inder": 6196,
      "feet": 6197,
      "erson": 6198,
      "taho": 6199,
      "2024": 6200,
      "plain": 6201,
      "placed": 6202,
      "sae": 6203,
      "thermost": 6204,
      "ulate": 6205,
      "actions": 6206,
      "commu": 6207,
      "steele": 6208,
      "complic": 6209,
      "compart": 6210,
      "heart": 6211,
      "avour": 6212,
      "avenue": 6213,
      "willing": 6214,
      "moreover": 6215,
      "boots": 6216,
      "poor": 6217,
      "polo": 6218,
      "antenna": 6219,
      "worst": 6220,
      "rong": 6221,
      "seater": 6222,
      "damper": 6223,
      "rolled": 6224,
      "rolls": 6225,
      "ghini": 6226,
      "internal": 6227,
      "disappointed": 6228,
      "factor": 6229,
      "clay": 6230,
      "customize": 6231,
      "formed": 6232,
      "foam": 6233,
      "food": 6234,
      "101": 6235,
      "berg": 6236,
      "partners": 6237,
      "header": 6238,
      "chart": 6239,
      "covercraft": 6240,
      "eleg": 6241,
      "element": 6242,
      "corvet": 6243,
      "chosen": 6244,
      "motoring": 6245,
      "motorsports": 6246,
      "purchaser": 6247,
      "oldsmo": 6248,
      "effect": 6249,
      "odynamic": 6250,
      "president": 6251,
      "packs": 6252,
      "curb": 6253,
      "bodywork": 6254,
      "removes": 6255,
      "camry": 6256,
      "1600": 6257,
      "doorstep": 6258,
      "visible": 6259,
      "busy": 6260,
      "1992": 6261,
[...]
